{"version":"1.0","truncation":null,"padding":null,"added_tokens":[{"id":0,"special":true,"content":"[UNK]","single_word":false,"lstrip":false,"rstrip":false,"normalized":false},{"id":1,"special":true,"content":"[CLS]","single_word":false,"lstrip":false,"rstrip":false,"normalized":false},{"id":2,"special":true,"content":"[SEP]","single_word":false,"lstrip":false,"rstrip":false,"normalized":false},{"id":3,"special":true,"content":"[PAD]","single_word":false,"lstrip":false,"rstrip":false,"normalized":false},{"id":4,"special":true,"content":"[MASK]","single_word":false,"lstrip":false,"rstrip":false,"normalized":false}],"normalizer":{"type":"Sequence","normalizers":[{"type":"NFD"}]},"pre_tokenizer":{"type":"WhitespaceSplit"},"post_processor":{"type":"BertProcessing","sep":["[SEP]",2],"cls":["[CLS]",1]},"decoder":null,"model":{"type":"BPE","dropout":null,"unk_token":"[UNK]","continuing_subword_prefix":null,"end_of_word_suffix":null,"fuse_unk":false,"vocab":{"[UNK]":0,"[CLS]":1,"[SEP]":2,"[PAD]":3,"[MASK]":4,"!":5,"\"":6,"#":7,"$":8,"%":9,"&":10,"'":11,"(":12,")":13,"*":14,"+":15,",":16,"-":17,".":18,"/":19,"0":20,"1":21,"2":22,"3":23,"4":24,"5":25,"6":26,"7":27,"8":28,"9":29,":":30,";":31,"<":32,"=":33,">":34,"?":35,"@":36,"[":37,"\\":38,"]":39,"_":40,"a":41,"b":42,"c":43,"d":44,"e":45,"f":46,"g":47,"h":48,"i":49,"j":50,"k":51,"l":52,"m":53,"n":54,"o":55,"p":56,"q":57,"r":58,"s":59,"t":60,"u":61,"v":62,"w":63,"x":64,"y":65,"z":66,"{":67,"|":68,"}":69,"~":70,"¢":71,"¥":72,"§":73,"©":74,"«":75,"»":76,"́":77,"—":78,"‘":79,"’":80,"“":81,"”":82,"ng":83,"am":84,"ha":85,"an":86,"ing":87,"ho":88,"ei":89,"ma":90,"la":91,"de":92,"bam":93,"vi":94,"ra":95,"sh":96,"devi":97,"in":98,"em":99,"sing":100,"bi":101,"singh":102,"th":103,"ang":104,"en":105,"on":106,"kh":107,"han":108,"jam":109,"om":110,"ba":111,"um":112,"ta":113,"ri":114,"tho":115,"ai":116,"ung":117,"ch":118,"li":119,"ong":120,"ram":121,"hang":122,"un":123,"pam":124,"sa":125,"kho":126,"ro":127,"mei":128,"ka":129,"ou":130,"it":131,"ao":132,"yum":133,"chan":134,"im":135,"san":136,"eng":137,"oi":138,"ar":139,"lei":140,"cho":141,"cha":142,"kpam":143,"sha":144,"ani":145,"mar":146,"ku":147,"them":148,"ph":149,"ir":150,"lam":151,"da":152,"ui":153,"pa":154,"er":155,"el":156,"ya":157,"thang":158,"ja":159,"ti":160,"su":161,"ning":162,"mi":163,"mayum":164,"lai":165,"so":166,"nam":167,"ki":168,"rem":169,"dra":170,"kha":171,"et":172,"ujam":173,"hao":174,"liu":175,"kumar":176,"ib":177,"sana":178,"mai":179,"lal":180,"ol":181,"rang":182,"jit":183,"s.":184,"lu":185,"son":186,"shi":187,"ni":188,"ah":189,"sam":190,"si":191,"jo":192,"md":193,"kam":194,"meit":195,"shang":196,"esh":197,"ching":198,"ini":199,"ina":200,"lung":201,"na":202,"pu":203,"k.":204,"meitei":205,"engbam":206,"o)":207,"yam":208,"leima":209,"ther":210,"nei":211,"lo":212,"sho":213,"di":214,"kham":215,"mang":216,"al":217,"kip":218,"tha":219,"be":220,"te":221,"(o)":222,"re":223,"mu":224,"shram":225,"laishram":226,"hi":227,"khu":228,"or":229,"nao":230,"ongbi":231,"me":232,"ud":233,"rei":234,"sang":235,"rai":236,"moi":237,"tom":238,"thoujam":239,"chandra":240,"rakpam":241,"mo":242,"rangthem":243,"raj":244,"ur":245,"'s":246,"sham":247,"nong":248,"ther's":249,"other's":250,"khom":251,"khan":252,"khai":253,"thi":254,"rom":255,"inam":256,"hu":257,"chanu":258,"bala":259,"kon":260,"thoi":261,"kim":262,"chom":263,"man":264,"hei":265,"ne":266,"lang":267,"r.":268,"ita":269,"thing":270,"lem":271,"wang":272,"chong":273,"wai":274,"kei":275,"bo":276,"moirangthem":277,"ul":278,"ngam":279,"sem":280,"shan":281,"pi":282,"may":283,"ningthoujam":284,"haokip":285,"ran":286,"se":287,"ak":288,"thok":289,"thokchom":290,"ab":291,"le":292,"din":293,"kan":294,"khum":295,"kang":296,"gol":297,"gang":298,"wa":299,"ton":300,"po":301,"ru":302,"pou":303,"yai":304,"oinam":305,"len":306,"sai":307,"yumnam":308,"lambam":309,"lh":310,"ongbam":311,"gai":312,"rimayum":313,"tham":314,"bin":315,"shim":316,"pha":317,"and":318,"khun":319,"md.":320,"lun":321,"tam":322,"nga":323,"lian":324,"joy":325,"prem":326,"za":327,"dro":328,"kamei":329,"khong":330,"won":331,"wi":332,"cham":333,"ila":334,"tombi":335,"naorem":336,"snam":337,"jan":338,"ham":339,"angom":340,"war":341,"oijam":342,"chin":343,"khang":344,"l.":345,"sun":346,"anda":347,"ju":348,"m.":349,"lou":350,"jen":351,"he":352,"hoi":353,"ring":354,"va":355,"maibam":356,"ksh":357,"pan":358,"shar":359,"rambam":360,"pri":361,"pra":362,"t.":363,"phi":364,"mani":365,"ngai":366,"dam":367,"ji":368,"khel":369,"bu":370,"bem":371,"yo":372,"min":373,"gen":374,"to":375,"irom":376,"embam":377,"salam":378,"long":379,"som":380,"khaibam":381,"wah":382,"mem":383,"tin":384,"phei":385,"vei":386,"chi":387,"chon":388,"ibo":389,"ko":390,"hui":391,"oni":392,"kram":393,"wahengbam":394,"bou":395,"ren":396,"chung":397,"lakpam":398,"yen":399,"bati":400,"go":401,"pao":402,"takhel":403,"sei":404,"lhing":405,"thoun":406,"rembam":407,"lata":408,"dang":409,"je":410,"bha":411,"khi":412,"arani":413,"shing":414,"aojam":415,"thangjam":416,"udam":417,"thounaojam":418,"kshet":419,"neng":420,"tan":421,"wor":422,"tum":423,"nongtho":424,"lan":425,"pukh":426,"kshetrimayum":427,"gu":428,"ungbam":429,"wung":430,"hen":431,"dhan":432,"sur":433,"hem":434,"inao":435,"ingam":436,"gangmei":437,"nem":438,"sagol":439,"gin":440,"ken":441,"mari":442,"tong":443,"langbam":444,"ningom":445,"drom":446,"pe":447,"uni":448,"huidrom":449,"vai":450,"ningombam":451,"nongmai":452,"p.":453,"chand":454,"nongmaithem":455,"elangbam":456,"h.":457,"soro":458,"kom":459,"hri":460,"thoudam":461,"dha":462,"rani":463,"mutum":464,"yang":465,"beg":466,"zi":467,"dem":468,"soi":469,"ite":470,"wangkh":471,"bibi":472,"ali":473,"hal":474,"ban":475,"do":476,"mayang":477,"kanta":478,"kipgen":479,"kcham":480,"bita":481,"ga":482,"longjam":483,"sar":484,"vaiphei":485,"mila":486,"meet":487,"lat":488,"than":489,"jang":490,"waikhom":491,"shyam":492,"chao":493,"jao":494,"yan":495,"meetei":496,"khongsai":497,"wo":498,"khangembam":499},"merges":["n g","a m","h a","a n","i ng","h o","e i","m a","l a","d e","b am","v i","r a","s h","de vi","i n","e m","s ing","b i","sing h","t h","a ng","e n","o n","k h","ha n","j am","o m","b a","u m","t a","r i","t ho","a i","u ng","c h","l i","o ng","r am","ha ng","u n","p am","s a","k ho","r o","m ei","k a","o u","i t","a o","y um","c han","i m","s an","e ng","o i","a r","l ei","c ho","c ha","k pam","s ha","an i","ma r","k u","th em","p h","i r","l am","d a","u i","p a","e r","e l","y a","t hang","j a","t i","s u","n ing","m i","ma yum","la i","s o","n am","k i","r em","d ra","k ha","e t","u jam","ha o","li u","ku mar","i b","san a","ma i","la l","o l","ra ng","j it","s .","l u","s on","sh i","n i","a h","s am","s i","j o","m d","k am","mei t","s hang","e sh","ch ing","in i","in a","l ung","n a","p u","k .","meit ei","eng bam","o )","y am","lei ma","th er","n ei","l o","s ho","d i","kh am","ma ng","a l","ki p","t ha","b e","t e","( o)","r e","m u","sh ram","lai shram","h i","kh u","o r","n ao","ong bi","m e","u d","r ei","s ang","ra i","m oi","t om","tho ujam","chan dra","ra kpam","m o","rang them","ra j","u r","' s","sh am","n ong","ther 's","o ther's","kho m","k han","kha i","th i","r om","in am","h u","chan u","ba la","k on","tho i","k im","cho m","m an","h ei","n e","la ng","r .","i ta","th ing","l em","w ang","cho ng","w ai","k ei","b o","moi rangthem","u l","ng am","s em","s han","p i","ma y","ning thoujam","hao kip","r an","s e","a k","tho k","thok chom","a b","l e","d in","k an","kh um","k ang","g ol","g ang","w a","t on","p o","r u","p ou","y ai","o inam","l en","s ai","yum nam","lam bam","l h","ong bam","g ai","ri mayum","th am","b in","sh im","p ha","an d","kh un","md .","l un","t am","ng a","li an","jo y","p rem","z a","d ro","kam ei","kho ng","w on","w i","ch am","i la","tom bi","nao rem","s nam","j an","h am","ang om","w ar","oi jam","ch in","k hang","l .","s un","an da","j u","m .","l ou","j en","h e","ho i","r ing","v a","mai bam","k sh","p an","sha r","ram bam","p ri","p ra","t .","ph i","m ani","ng ai","d am","j i","kh el","b u","b em","y o","m in","g en","t o","ir om","em bam","sa lam","l ong","s om","khai bam","w ah","m em","t in","ph ei","v ei","ch i","cho n","ib o","k o","h ui","on i","k ram","wah engbam","b ou","r en","ch ung","la kpam","y en","ba ti","g o","p ao","ta khel","s ei","lh ing","tho un","rem bam","la ta","d ang","j e","b ha","kh i","ar ani","sh ing","ao jam","thang jam","ud am","thoun aojam","ksh et","n eng","t an","w or","t um","nong tho","l an","pu kh","kshet rimayum","g u","ung bam","w ung","h en","d han","su r","h em","in ao","ing am","gang mei","n em","sa gol","g in","k en","ma ri","t ong","lang bam","ning om","d rom","p e","un i","hui drom","v ai","ningom bam","nong mai","p .","chan d","nongmai them","e langbam","h .","so ro","k om","h ri","tho udam","d ha","r ani","mu tum","y ang","be g","z i","de m","s oi","it e","wang kh","bi bi","a li","ha l","b an","d o","may ang","kan ta","kip gen","k cham","bi ta","g a","long jam","sa r","vai phei","mi la","me et","la t","t han","j ang","wai khom","sh yam","cha o","j ao","y an","meet ei","khong sai","w o","khang embam"]}}