{"version":"1.0","truncation":null,"padding":null,"added_tokens":[{"id":0,"special":true,"content":"[UNK]","single_word":false,"lstrip":false,"rstrip":false,"normalized":false},{"id":1,"special":true,"content":"[CLS]","single_word":false,"lstrip":false,"rstrip":false,"normalized":false},{"id":2,"special":true,"content":"[SEP]","single_word":false,"lstrip":false,"rstrip":false,"normalized":false},{"id":3,"special":true,"content":"[PAD]","single_word":false,"lstrip":false,"rstrip":false,"normalized":false},{"id":4,"special":true,"content":"[MASK]","single_word":false,"lstrip":false,"rstrip":false,"normalized":false}],"normalizer":{"type":"Sequence","normalizers":[{"type":"NFD"}]},"pre_tokenizer":{"type":"WhitespaceSplit"},"post_processor":{"type":"BertProcessing","sep":["[SEP]",2],"cls":["[CLS]",1]},"decoder":null,"model":{"type":"WordPiece","unk_token":"[UNK]","continuing_subword_prefix":"##","max_input_chars_per_word":100,"vocab":{"[UNK]":0,"[CLS]":1,"[SEP]":2,"[PAD]":3,"[MASK]":4,"!":5,"\"":6,"#":7,"$":8,"%":9,"&":10,"'":11,"(":12,")":13,"*":14,"+":15,",":16,"-":17,".":18,"/":19,"0":20,"1":21,"2":22,"3":23,"4":24,"5":25,"6":26,"7":27,"8":28,"9":29,":":30,";":31,"<":32,"=":33,">":34,"?":35,"@":36,"A":37,"B":38,"C":39,"D":40,"E":41,"F":42,"G":43,"H":44,"I":45,"J":46,"K":47,"L":48,"M":49,"N":50,"O":51,"P":52,"Q":53,"R":54,"S":55,"T":56,"U":57,"V":58,"W":59,"X":60,"Y":61,"Z":62,"[":63,"\\":64,"]":65,"_":66,"a":67,"b":68,"c":69,"d":70,"e":71,"f":72,"g":73,"h":74,"i":75,"j":76,"k":77,"l":78,"m":79,"n":80,"o":81,"p":82,"q":83,"r":84,"s":85,"t":86,"u":87,"v":88,"w":89,"x":90,"y":91,"z":92,"{":93,"|":94,"}":95,"~":96,"¢":97,"£":98,"¥":99,"§":100,"©":101,"«":102,"®":103,"°":104,"»":105,"́":106,"—":107,"‘":108,"’":109,"“":110,"”":111,"€":112,"™":113,"##U":114,"##N":115,"##K":116,"##H":117,"##O":118,"##S":119,"##A":120,"##T":121,"##g":122,"##a":123,"##m":124,"##l":125,"##e":126,"##i":127,"##h":128,"##n":129,"##k":130,"##p":131,"##d":132,"##.":133,"##o":134,"##u":135,"##t":136,"##I":137,"##!":138,"##C":139,"##P":140,"##y":141,"##b":142,"##s":143,"##L":144,"##R":145,"##F":146,"##E":147,"##r":148,"##w":149,"##B":150,"##G":151,"##M":152,"##Y":153,"##c":154,"##j":155,"##z":156,"##v":157,"##,":158,"##D":159,"##J":160,"##)":161,"##Z":162,"##f":163,"##-":164,"##W":165,"##q":166,"##X":167,"##x":168,"##V":169,"##Q":170,"##\\":171,"##'":172,"##’":173,"##;":174,"##|":175,"##]":176,"##(":177,"##:":178,"##_":179,"##¢":180,"##\"":181,"##”":182,"##́":183,"##—":184,"##‘":185,"##}":186,"##0":187,"##4":188,"##9":189,"##«":190,"##1":191,"##+":192,"##7":193,"##®":194,"##%":195,"###":196,"##>":197,"##8":198,"##<":199,"##~":200,"##&":201,"##6":202,"##?":203,"##=":204,"##/":205,"##2":206,"##5":207,"##°":208,"##{":209,"##¥":210,"##»":211,"##*":212,"##§":213,"##©":214,"##3":215,"##@":216,"##“":217,"##€":218,"##$":219,"##ng":220,"##am":221,"##an":222,"##ing":223,"##ho":224,"##ha":225,"##ei":226,"##em":227,"##ai":228,"De":229,"##vi":230,"##bam":231,"Devi":232,"##ang":233,"##in":234,"Sing":235,"##sh":236,"Singh":237,"##um":238,"##ar":239,"##al":240,"##om":241,"##bi":242,"##en":243,"##th":244,"##jam":245,"##han":246,"##on":247,"##ao":248,"##im":249,"##it":250,"##un":251,"##ra":252,"##hang":253,"##ram":254,"##ung":255,"##la":256,"##NG":257,"##kho":258,"##ay":259,"##oi":260,"##li":261,"Tho":262,"##pam":263,"##AM":264,"##ong":265,"##ba":266,"##ou":267,"##eng":268,"##kh":269,"##tho":270,"##them":271,"Lai":272,"##hing":273,"Kh":274,"##ma":275,"##ta":276,"##ani":277,"##ana":278,"##rem":279,"##kpam":280,"Ra":281,"##ur":282,"##cha":283,"Ning":284,"##ri":285,"##hi":286,"##ujam":287,"##cho":288,"Bi":289,"Ng":290,"##er":291,"##ui":292,"##shram":293,"Laishram":294,"##umar":295,"##ip":296,"##jit":297,"Ib":298,"##ayum":299,"##AN":300,"##el":301,"Md":302,"##et":303,"Sa":304,"##dra":305,"Lei":306,"##nam":307,"##or":308,"##ham":309,"##ti":310,"##ala":311,"##nei":312,"##rang":313,"##as":314,"##ol":315,"##thoujam":316,"##liu":317,"##ah":318,"Hao":319,"##ak":320,"##ING":321,"##and":322,"##hai":323,"##kumar":324,"Thang":325,"##mei":326,"##ul":327,"Moi":328,"##esh":329,"##engbam":330,"Moirang":331,"##lam":332,"Yum":333,"##chan":334,"##HO":335,"##ud":336,"##ita":337,"##HA":338,"##thang":339,"Chan":340,"Ro":341,"Moirangthem":342,"Ningthoujam":343,"##ila":344,"##ro":345,"Sana":346,"Mei":347,"##hong":348,"##ini":349,"Nao":350,"Mai":351,"##chom":352,"##inam":353,"##il":354,"##is":355,"##ya":356,"##ombi":357,"Ch":358,"##ina":359,"Sha":360,"##at":361,"Lal":362,"##ch":363,"##VI":364,"DE":365,"##ir":366,"##kchom":367,"Sh":368,"Thokchom":369,"DEVI":370,"##EI":371,"##khom":372,"Md.":373,"##kip":374,"Oinam":375,"Nong":376,"Yumnam":377,"Haokip":378,"An":379,"##ther":380,"##es":381,"Kam":382,"##oy":383,"As":384,"Meit":385,"##angbam":386,"Ching":387,"##AI":388,"##yam":389,"Kon":390,"##rakpam":391,"Meitei":392,"Am":393,"##O)":394,"##EM":395,"In":396,"Mem":397,"May":398,"Ka":399,"##IN":400,"##ph":401,"##ik":402,"##imayum":403,"##son":404,"Prem":405,"Ab":406,"Raj":407,"Su":408,"##akh":409,"##'s":410,"(O)":411,"##rom":412,"##chandra":413,"Cha":414,"##da":415,"##ther's":416,"Other's":417,"##kim":418,"##bala":419,"Lo":420,"San":421,"##ANG":422,"Naorem":423,"##sam":424,"Lam":425,"Sal":426,"Rom":427,"Mu":428,"SING":429,"Pu":430,"##SH":431,"Mang":432,"Leima":433,"##ngbi":434,"Kho":435,"##BAM":436,"SINGH":437,"Ongbi":438,"##pa":439,"##lal":440,"##shang":441,"Khan":442,"##anta":443,"##lambam":444,"Ang":445,"Sar":446,"Maibam":447,"K.":448,"Hei":449,"##rimayum":450,"##mi":451,"##ok":452,"##ad":453,"##mayum":454,"Mar":455,"##uan":456,"##lung":457,"Th":458,"##ni":459,"##UM":460,"Salam":461,"Ram":462,"##rei":463,"Chanu":464,"Be":465,"##ka":466,"Kei":467,"##shi":468,"##AR":469,"Khun":470,"Hui":471,"Sor":472,"Sun":473,"##si":474,"Na":475,"Khum":476,"##aikhom":477,"##ja":478,"##ongbam":479,"##oijam":480,"##te":481,"Man":482,"##ari":483,"Ran":484,"##len":485,"Ba":486,"##AL":487,"Chong":488,"##min":489,"##din":490,"So":491,"##dro":492,"Sur":493,"##hoi":494,"##ot":495,"##hal":496,"Shan":497,"##mai":498,"##har":499,"Wah":500,"##ima":501,"##ngam":502,"##uk":503,"El":504,"Wahengbam":505,"##gen":506,"Ksh":507,"##lun":508,"##embam":509,"Ni":510,"Mo":511,"##eshw":512,"##BI":513,"##oni":514,"Pa":515,"Me":516,"##sham":517,"##etrimayum":518,"##arani":519,"##AO":520,"##gol":521,"R.":522,"Jam":523,"Gang":524,"Kshetrimayum":525,"##EN":526,"##rambam":527,"Kamei":528,"##kham":529,"##HAN":530,"S.":531,"Bibi":532,"Ma":533,"##aojam":534,"##ON":535,"##IM":536,"Thoun":537,"##snam":538,"##rembam":539,"##sana":540,"Thangjam":541,"Thounaojam":542,"##lu":543,"##lian":544,"##omba":545,"##sai":546,"Thoi":547,"Wang":548,"Beg":549,"##ching":550,"##bem":551,"##anda":552,"Tha":553,"Khang":554,"##s.":555,"##ipgen":556,"Takh":557,"Sam":558,"##OM":559,"Jo":560,"Neng":561,"Takhel":562,"##haibam":563,"Bin":564,"##udam":565,"Kipgen":566,"Ph":567,"Hi":568,"Ibem":569,"Hem":570,"Thi":571,"Inao":572,"Nongmai":573,"Huid":574,"Nongmaithem":575,"Huidrom":576,"##khan":577,"Elangbam":578,"##bou":579,"##ombam":580,"Long":581,"Ningombam":582,"##sem":583,"Kumar":584,"##ren":585,"##up":586,"##cham":587,"Mani":588,"Mis":589,"##lhing":590,"##TH":591,"Khong":592,"Thoudam":593,"##ee":594,"Lou":595,"##thi":596,"Gai":597,"##jan":598,"Pukh":599,"##JAM":600,"Nongtho":601,"##na":602,"##thoi":603,"Nem":604,"##sang":605,"Re":606,"##bita":607,"Thing":608,"##aima":609,"##tham":610,"Ne":611,"##ton":612,"Kha":613,"Sagol":614,"Tombi":615,"Pra":616,"##AK":617,"##jen":618,"##tum":619,"##lem":620,"L.":621,"Ibo":622,"Mutum":623,"##kram":624,"Khai":625,"##be":626,"Lhing":627,"##oibam":628,"Chin":629,"Som":630,"Lu":631,"##HANG":632,"##za":633,"Mayang":634,"Abd":635,"##tombi":636,"Longjam":637,"Bas":638,"Ak":639,"##UNG":640,"##UN":641,"##aijam":642,"##IT":643,"##di":644,"##RAM":645,"##ji":646,"##drakpam":647,"##us":648,"Chao":649,"Ngai":650,"Khundrakpam":651,"Ar":652,"Waikhom":653,"##uni":654,"##bati":655,"##uddin":656,"Khangembam":657,"##sha":658,"M.":659,"Kim":660,"Shar":661,"Tam":662,"##wai":663,"##ngai":664,"Begum":665,"##wi":666,"Kang":667,"Li":668,"Tong":669,"##hou":670,"Shanti":671,"Pri":672,"Mayanglambam":673,"Abdul":674,"Pukhrambam":675,"##chong":676,"Sapam":677,"##ola":678,"##won":679,"##ingam":680,"Ha":681,"##chin":682,"##hn":683,"Khongsai":684,"Sei":685,"##chou":686,"##sa":687,"Ru":688,"##od":689,"Takhellambam":690,"Chi":691,"##ananda":692,"##pi":693,"##omcha":694,"##jao":695,"Wangkh":696,"Sang":697,"##endro":698,"Mr":699,"Shyam":700,"##tin":701,"##le":702,"Thongam":703,"##lei":704,"Miss":705,"Pao":706,"##lakpam":707,"Angom":708,"##ungbam":709,"Soibam":710,"##ed":711,"##yo":712,"##mang":713,"##hak":714,"Ja":715,"##mbam":716,"Konthoujam":717,"MD":718,"Gangmei":719,"##wairakpam":720,"Sham":721,"##vei":722,"##IR":723,"Ri":724,"##hat":725,"Joy":726,"Khwairakpam":727,"##AY":728,"Sanasam":729,"Nongthombam":730,"Bid":731,"Lung":732,"##dem":733,"Kai":734,"Bim":735,"##bin":736,"##anthem":737,"##okpam":738,"Ngang":739,"##AT":740,"##rii":741,"##joy":742,"Khaidem":743,"Thoibi":744,"Ibe":745,"##mila":746,"Pam":747,"Sagolsem":748,"Leishang":749,"##jengbam":750,"Okram":751,"##neng":752,"Tomba":753,"Ranjit":754,"Leishangthem":755,"Pou":756,"Konjengbam":757,"##IL":758,"Bo":759,"##zi":760,"Ir":761,"Loit":762,"Ali":763,"Yeng":764,"##hao":765,"Thiyam":766,"Kar":767,"Sorok":768,"Nam":769,"##ali":770,"Sorokhaibam":771,"Dhan":772,"##AH":773,"Shang":774,"Kham":775,"Chongtham":776,"Memcha":777,"##PAM":778,"Atho":779,"##hon":780,"T.":781,"##aila":782,"Niang":783,"THO":784,"Heisnam":785,"##una":786,"Hat":787,"H.":788,"##shini":789,"Mayengbam":790,"##hei":791,"Pan":792,"##ek":793,"##aiph":794,"##hanbi":795,"Chaoba":796,"Si":797,"##lien":798,"##gin":799,"##ambam":800,"Nei":801,"Loitongbam":802,"Hijam":803,"##hor":804,"##iran":805,"Keisham":806,"Ho":807,"La":808,"##bram":809,"##IP":810,"Lourembam":811,"##to":812,"Athokpam":813,"##aiphei":814,"##KHO":815,"##tha":816,"Sharma":817,"Nand":818,"##chon":819,"Di":820,"Ad":821,"Konsam":822,"Gur":823,"Vaiphei":824,"##ONG":825,"Go":826,"##hu":827,"Ngam":828,"Ngangom":829,"##AS":830,"##ash":831,"##bu":832,"Lang":833,"Se":834,"Irom":835,"##HING":836,"John":837,"##shem":838,"##ukcham":839,"Asem":840,"##ne":841,"Akoijam":842,"##sing":843,"##UR":844,"##thing":845,"Tou":846,"Thong":847,"##pui":848,"KH":849,"Shim":850,"Tongbram":851,"Shi":852,"Kom":853,"##pou":854,"Lun":855,"Hen":856,"##ika":857,"Yengkhom":858,"Jang":859,"Mal":860,"##boi":861,"##tpam":862,"##ring":863,"##ishak":864,"##dam":865,"##phi":866,"Khumukcham":867,"##ENG":868,"Mon":869,"##ailatpam":870,"irakpam":871,"Hoi":872,"Da":873,"##hm":874,"##bal":875,"Rai":876,"##akham":877,"Amu":878,"Sum":879,"##se":880,"##MA":881,"##etei":882,"LAI":883,"Vei":884,"##yarani":885,"Kun":886,"##THEM":887,"##chand":888,"##pha":889,"##shing":890,"Meetei":891,"##LI":892,"Rajkumar":893,"Ibomcha":894,"##neikim":895,"Ing":896,"##AJ":897,"Maring":898,"##rujam":899,"##endra":900,"##ban":901,"Khom":902,"##pak":903,"Mrs":904,"Rad":905,"##ru":906,"##dur":907,"Phi":908,"Chingakham":909,"P.":910,"Ta":911,"##THO":912,"##shan":913,"Gon":914,"##bijam":915,"##vah":916,"##aya":917,"Dai":918,"##umayum":919,"##nu":920,"Ton":921,"Pur":922,"##raj":923,"##sei":924,"##wa":925,"Mat":926,"Khumanthem":927,"##ena":928,"##ori":929,"Din":930,"Pe":931,"Manglem":932,"Kiran":933,"##minthang":934,"Let":935,"Soni":936,"##k.":937,"##chung":938,"##cy":939,"##khi":940,"Touthang":941,"Nan":942,"##ck":943,"##pati":944,"Ju":945,"Khund":946,"##anbi":947,"##dram":948,"Wangkhem":949,"##K.":950,"Haobijam":951,"##BA":952,"##shangbam":953,"Panmei":954,"Ibemcha":955,"Raham":956,"Ji":957,"##OU":958,"##re":959,"Sunita":960,"Sand":961,"Tham":962,"##bha":963,"Anal":964,"HAO":965,"Gonmei":966,"Bij":967,"##pao":968,"##mawi":969,"##HAM":970,"Memma":971,"##wang":972,"##war":973,"Das":974,"Sanatombi":975,"Ay":976,"##pokpam":977,"##neilhing":978,"##lata":979,"##aite":980,"##bo":981,"##chui":982,"Chandra":983,"##loi":984,"Leimapokpam":985,"##macha":986,"##DR":987,"##ribam":988,"##ANI":989,"NING":990,"Gin":991,"Sou":992,"##khaibam":993,"Bimola":994,"##abam":995,"Khundongbam":996,"##ju":997,"Irengbam":998,"Ting":999,"##shim":1000,"Naba":1001,"Kan":1002,"MO":1003,"##ubam":1004,"##hrii":1005,"lbem":1006,"##eshwar":1007,"Lh":1008,"##nem":1009,"Gu":1010,"Jay":1011,"##muan":1012,"##khu":1013,"N.":1014,"Sush":1015,"Nanao":1016,"Pamei":1017,"##OR":1018,"##ki":1019,"Chongloi":1020,"##ngaih":1021,"##sangbam":1022,"D.":1023,"NG":1024,"Khur":1025,"##EL":1026,"Maisnam":1027,"SAN":1028,"##CHO":1029,"##SHRAM":1030,"##jang":1031,"LAISHRAM":1032,"##don":1033,"##jana":1034,"Robin":1035,"##enjam":1036,"Rajen":1037,"##ero":1038,"##so":1039,"##HI":1040,"Nar":1041,"Purn":1042,"Baite":1043,"Pram":1044,"Asha":1045,"LEI":1046,"##dang":1047,"Vung":1048,"Bem":1049,"##tan":1050,"##angthem":1051,"Ngangbam":1052,"##UL":1053,"Vi":1054,"##suan":1055,"Heik":1056,"##eeta":1057,"Sarangthem":1058,"Naobi":1059,"AS":1060,"Tin":1061,"Al":1062,"##san":1063,"##neichong":1064,"Jit":1065,"Mi":1066,"Kap":1067,"Gurumayum":1068,"Yang":1069,"Nung":1070,"Ingo":1071,"Hang":1072,"##esho":1073,"##kam":1074,"Yaima":1075,"Saikhom":1076,"Yumkhaibam":1077,"Chung":1078,"Heikrujam":1079,"R.K.":1080,"Purnima":1081,"##NEI":1082,"Haobam":1083,"##jo":1084,"Mom":1085,"Anita":1086,"##UJAM":1087,"##eshwor":1088,"Nir":1089,"Amom":1090,"BI":1091,"##CHA":1092,"##thui":1093,"Khuraijam":1094,"Cho":1095,"Thingujam":1096,"##pu":1097,"##KIP":1098,"##ce":1099,"Maya":1100,"##ET":1101,"Bab":1102,"As.":1103,"Roma":1104,"##mala":1105,"Lairen":1106,"##NAM":1107,"##REM":1108,"Premila":1109,"HAOKIP":1110,"Ibecha":1111,"##thian":1112,"Dang":1113,"##jal":1114,"##udin":1115,"Mak":1116,"##urailatpam":1117,"Kong":1118,"##eni":1119,"##kholun":1120,"##inei":1121,"Angou":1122,"##than":1123,"##epam":1124,"Lok":1125,"##niang":1126,"Bina":1127,"Yen":1128,"##OI":1129,"##tomba":1130,"##OL":1131,"Sanahanbi":1132,"##lembam":1133,"Son":1134,"IB":1135,"Pha":1136,"##hadur":1137,"Dim":1138,"Ash":1139,"##ray":1140,"##itombi":1141,"##ber":1142,"Wung":1143,"##ting":1144,"##bir":1145,"##RI":1146,"Yam":1147,"Nga":1148,"##ia":1149,"##bui":1150,"Vah":1151,"Ki":1152,"##kang":1153,"Mate":1154,"Sinam":1155,"##wm":1156,"##UD":1157,"##xmi":1158,"Rahaman":1159,"Shah":1160,"SHA":1161,"James":1162,"Ranjita":1163,"##va":1164,"##anba":1165,"Amar":1166,"##oj":1167,"##sho":1168,"Wangkhei":1169,"Ron":1170,"##eo":1171,"Lamkho":1172,"Mer":1173,"##AKPAM":1174,"Kas":1175,"##enu":1176,"##khong":1177,"Basanta":1178,"A.":1179,"Begam":1180,"##nai":1181,"##yaima":1182,"Yumlembam":1183,"##ite":1184,"Kh.":1185,"Tar":1186,"##TE":1187,"Inaobi":1188,"Khu":1189,"##rish":1190,"Sunil":1191,"Hus":1192,"Koijam":1193,"Lan":1194,"Ibot":1195,"##harani":1196,"Ibet":1197,"##phrakpam":1198,"##eshwori":1199,"##UI":1200,"Ring":1201,"Mema":1202,"Arun":1203,"##heibam":1204,"##imik":1205,"Mary":1206,"##AYUM":1207,"##ine":1208,"Aheibam":1209,"Mad":1210,"Bro":1211,"Pot":1212,"Bish":1213,"##khomang":1214,"Bembem":1215,"Surjit":1216,"##ER":1217,"Deb":1218,"##rah":1219,"Gou":1220,"##gai":1221,"##UMAR":1222,"##ca":1223,"He":1224,"##bika":1225,"Jiten":1226,"##TA":1227,"Sorai":1228,"Zimik":1229,"##vung":1230,"Priyo":1231,"##chi":1232,"Arambam":1233,"##neilam":1234,"Bahadur":1235,"##mar":1236,"Thambal":1237,"Khup":1238,"Aribam":1239,"##hum":1240,"##phy":1241,"Rong":1242,"Lian":1243,"##eibam":1244,"Sho":1245,"##irom":1246,"Achou":1247,"Pebam":1248,"Ahong":1249,"##tam":1250,"Babita":1251,"##ran":1252,"Premjit":1253,"Ranjana":1254,"##acha":1255,"Kal":1256,"Rani":1257,"##baijam":1258,"##HONG":1259,"Ko":1260,"Priya":1261,"##kholal":1262,"##ny":1263,"##du":1264,"SH":1265,"##r.":1266,"##DA":1267,"##pok":1268,"##lo":1269,"##pishak":1270,"##shung":1271,"ONG":1272,"Pang":1273,"Anand":1274,"Tom":1275,"##KH":1276,"##gou":1277,"ONGBI":1278,"Sanatomba":1279,"Yambem":1280,"##dim":1281,"##khol":1282,"##the":1283,"Laiton":1284,"##he":1285,"##kanta":1286,"Khomdram":1287,"Hel":1288,"##mu":1289,"Thingbaijam":1290,"##ati":1291,"##tar":1292,"Laitonjam":1293,"lb":1294,"Than":1295,"##moi":1296,"##kar":1297,"##INAM":1298,"Do":1299,"Th.":1300,"##eet":1301,"##ILA":1302,"Puyam":1303,"Suresh":1304,"CH":1305,"##sain":1306,"THANG":1307,"CHAN":1308,"##leima":1309,"Guite":1310,"##ekpam":1311,"##khoneng":1312,"##INA":1313,"##THOUJAM":1314,"##neihoi":1315,"##hini":1316,"##dar":1317,"Gol":1318,"##lia":1319,"##JIT":1320,"Bis":1321,"Sol":1322,"Biren":1323,"Chingangbam":1324,"##sii":1325,"RO":1326,"Indi":1327,"Hero":1328,"Ku":1329,"Kangabam":1330,"Romita":1331,"Kum":1332,"##vum":1333,"Gangte":1334,"Kunj":1335,"Bijen":1336,"##OK":1337,"Im":1338,"Min":1339,"##odini":1340,"##kholam":1341,"Lhou":1342,"##vid":1343,"Brojen":1344,"Nur":1345,"Zam":1346,"MEI":1347,"##fi":1348,"##sin":1349,"KHAN":1350,"War":1351,"##hman":1352,"##anu":1353,"##chang":1354,"Sagolshem":1355,"##YA":1356,"Sonia":1357,"Hussain":1358,"##rat":1359,"##ALA":1360,"##neithem":1361,"Sanajao":1362,"Them":1363,"##zam":1364,"Indira":1365,"Chab":1366,"Jamuna":1367,"Fa":1368,"Pishak":1369,"Shagol":1370,"Phan":1371,"##thou":1372,"Chabungbam":1373,"Inaocha":1374,"##zan":1375,"Laimayum":1376,"##thar":1377,"Kamala":1378,"Leit":1379,"Rita":1380,"Yai":1381,"Pak":1382,"Ratan":1383,"Soram":1384,"##LAM":1385,"##ungo":1386,"##abati":1387,"##bert":1388,"##zo":1389,"Shimray":1390,"##omi":1391,"##LA":1392,"Rongmei":1393,"##ly":1394,"##IS":1395,"##pana":1396,"Khoirom":1397,"##IK":1398,"Lhouvum":1399,"Rabi":1400,"##wung":1401,"##biak":1402,"Pau":1403,"Tampha":1404,"Sit":1405,"Bidy":1406,"##ANA":1407,"Gop":1408,"##ANGTHEM":1409,"Amarjit":1410,"##grakpam":1411,"Rah":1412,"NAO":1413,"Sangita":1414,"David":1415,"##I.":1416,"Bud":1417,"Hu":1418,"Ken":1419,"##THANG":1420,"##0)":1421,"Mrs.":1422,"Ch.":1423,"Romen":1424,"Bino":1425,"Aham":1426,"Sanathoi":1427,"Sarat":1428,"(0)":1429,"##yan":1430,"##cky":1431,"Ngan":1432,"##hani":1433,"Roshan":1434,"Herojit":1435,"Huirem":1436,"Thoiba":1437,"Hemam":1438,"YUM":1439,"##CH":1440,"Bir":1441,"Renu":1442,"Jiban":1443,"Shou":1444,"Nep":1445,"SA":1446,"##hring":1447,"Sai":1448,"##orjit":1449,"Wa":1450,"##hen":1451,"##dani":1452,"Yend":1453,"OINAM":1454,"##tabam":1455,"##SON":1456,"##jita":1457,"##khohao":1458,"##khothang":1459,"Thapa":1460,"Sandh":1461,"Golmei":1462,"##ga":1463,"##mad":1464,"Rag":1465,"Wangkheimayum":1466,"Athi":1467,"Rajkumari":1468,"##lai":1469,"Rak":1470,"##PH":1471,"Paon":1472,"##ibala":1473,"##sad":1474,"##lip":1475,"Leitanthem":1476,"Chingtham":1477,"##ASH":1478,"Dar":1479,"Dam":1480,"AB":1481,"Jen":1482,"##kholen":1483,"##nao":1484,"Sanj":1485,"Lata":1486,"##ry":1487,"Sund":1488,"##evi":1489,"Sophi":1490,"Seram":1491,"##ikanta":1492,"##dha":1493,"##akumar":1494,"##ITA":1495,"Eli":1496,"Ibemhal":1497,"Rebika":1498,"Shai":1499,"##siam":1500,"Kangjam":1501,"Len":1502,"Roni":1503,"LAL":1504,"Gun":1505,"##su":1506,"Nim":1507,"##inu":1508,"##t.":1509,"##DIN":1510,"Bala":1511,"Sanjoy":1512,"Mangi":1513,"##honi":1514,"Yendrembam":1515,"##angam":1516,"##oren":1517,"##minlen":1518,"Ibetombi":1519,"##ngbam":1520,"Tu":1521,"##nun":1522,"Bikram":1523,"##dr":1524,"Indra":1525,"##kholhing":1526,"NINGTHOUJAM":1527,"Nongthongbam":1528,"Ningthou":1529,"Mong":1530,"Par":1531,"##lak":1532,"Wai":1533,"##anti":1534,"##eshor":1535,"Ibochou":1536,"##ojini":1537,"##thu":1538,"Toijam":1539,"Bila":1540,"##amei":1541,"Premkumar":1542,"##ii":1543,"Luk":1544,"Suraj":1545,"Pf":1546,"Rajesh":1547,"Ga":1548,"Romesh":1549,"Dhana":1550,"Ayekpam":1551,"Mah":1552,"##ky":1553,"##reng":1554,"Laiphrakpam":1555,"Suba":1556,"##man":1557,"Jajo":1558,"##ue":1559,"Dee":1560,"##oubam":1561,"Pr":1562,"##ESH":1563,"Malem":1564,"Khul":1565,"##pham":1566,"##poklakpam":1567,"Sani":1568,"Chungkham":1569,"Thot":1570,"Sat":1571,"MU":1572,"##khup":1573,"At":1574,"Ningthem":1575,"##bon":1576,"##eshwari":1577,"Sim":1578,"Is":1579,"##hida":1580,"##AB":1581,"Langpoklakpam":1582,"Rahman":1583,"Krish":1584,"Mas":1585,"To":1586,"##khogin":1587,"Monika":1588,"G.":1589,"Keisam":1590,"Vic":1591,"##juddin":1592,"##HAI":1593,"##yai":1594,"##shabam":1595,"V.":1596,"##ingh":1597,"Ajit":1598,"Lamkang":1599,"Moham":1600,"Phei":1601,"Ten":1602,"Nas":1603,"Vash":1604,"Po":1605,"No":1606,"##indro":1607,"Ibungo":1608,"##rangbam":1609,"MOIR":1610,"Chanambam":1611,"B.":1612,"##banta":1613,"AN":1614,"Sorojini":1615,"##ami":1616,"##pau":1617,"##tosh":1618,"##eshori":1619,"##AD":1620,"Rang":1621,"Dinesh":1622,"Wi":1623,"Ap":1624,"Nandeibam":1625,"Dev":1626,"Ibohal":1627,"Irungbam":1628,"Chanam":1629,"Abujam":1630,"##ENGBAM":1631,"##CHOM":1632,"Jon":1633,"Chaobi":1634,"Bidyarani":1635,"Var":1636,"##bar":1637,"MAI":1638,"Rin":1639,"Thai":1640,"##omei":1641,"Ahan":1642,"Sobita":1643,"##ES":1644,"Bimol":1645,"##eda":1646,"##thai":1647,"##khongjam":1648,"Ibotombi":1649,"##kha":1650,"Singson":1651,"Gra":1652,"Lui":1653,"Chit":1654,"Dani":1655,"##khoi":1656,"##hari":1657,"##mani":1658,"##CHAN":1659,"Phai":1660,"##rongbam":1661,"Ros":1662,"Ingocha":1663,"Romila":1664,"Aj":1665,"##MI":1666,"Nirmala":1667,"##tun":1668,"Tung":1669,"##khai":1670,"Song":1671,"##esa":1672,"Hemanta":1673,"##OY":1674,"##kash":1675,"##hoih":1676,"Wor":1677,"##minlal":1678,"Sanay":1679,"##que":1680,"MOIRANGTHEM":1681,"Johnson":1682,"Hoinei":1683,"Prasad":1684,"LEIMA":1685,"Karam":1686,"Sad":1687,"Manglembi":1688,"Lin":1689,"Hmar":1690,"THOK":1691,"##him":1692,"Tik":1693,"Van":1694,"##jali":1695,"Aruna":1696,"Es":1697,"LAM":1698,"Chirom":1699,"##mung":1700,"singh":1701,"##subam":1702,"Men":1703,"THOKCHOM":1704,"Sushila":1705,"Sharat":1706,"##thingla":1707,"Maipak":1708,"##MIN":1709,"Cham":1710,"Mam":1711,"Jai":1712,"Naha":1713,"Ashi":1714,"Kangujam":1715,"Nungsh":1716,"Bilashini":1717,"Chon":1718,"Kumari":1719,"Bar":1720,"Keishing":1721,"YUMNAM":1722,"Tek":1723,"Wairo":1724,"Ada":1725,"Lak":1726,"##ding":1727,"##YAM":1728,"##esam":1729,"Romi":1730,"Santosh":1731,"##thers":1732,"Malemng":1733,"Mil":1734,"##LAL":1735,"Kashung":1736,"CHING":1737,"Vashum":1738,"Sandhyarani":1739,"RAJ":1740,"##beth":1741,"##khosei":1742,"Raju":1743,"Pangambam":1744,"##unii":1745,"W.":1746,"Gam":1747,"Sanabam":1748,"Adhi":1749,"##ara":1750,"Ashalata":1751,"##KUMAR":1752,"C.":1753,"Bidya":1754,"##zal":1755,"##KIM":1756,"Iboy":1757,"##minlun":1758,"Prad":1759,"##ddin":1760,"Hidam":1761,"Potsangbam":1762,"##RAKPAM":1763,"##ayen":1764,"Ibeyaima":1765,"Has":1766,"Paonam":1767,"Ahanthem":1768,"##gar":1769,"Ibocha":1770,"Won":1771,"Robert":1772,"NAOREM":1773,"Apa":1774,"Tao":1775,"##kapam":1776,"##bina":1777,"Fathers":1778,"Baby":1779,"Angoubi":1780,"Shantibala":1781,"lbomcha":1782,"Nongmei":1783,"##EMBAM":1784,"##zii":1785,"##UAN":1786,"Don":1787,"##uang":1788,"Geeta":1789,"Te":1790,"Loi":1791,"Pramo":1792,"BE":1793,"##ungel":1794,"##khochin":1795,"##jida":1796,"AM":1797,"##imei":1798,"##ellakpam":1799,"Mala":1800,"Apabi":1801,"##INI":1802,"Dol":1803,"##RS":1804,"Thingnam":1805,"re":1806,"##shil":1807,"Rakesh":1808,"Abem":1809,"##bur":1810,"Nongmeikapam":1811,"##ailiu":1812,"SAL":1813,"Sul":1814,"Phal":1815,"##shikanta":1816,"Shei":1817,"Meg":1818,"J.":1819,"Moh":1820,"##chun":1821,"Naj":1822,"NONG":1823,"Sanjit":1824,"Lhun":1825,"##olata":1826,"Wairokpam":1827,"##OMBI":1828,"##roibam":1829,"##zabeth":1830,"Paul":1831,"Bhan":1832,"##hau":1833,"Neh":1834,"Yaikhom":1835,"##lin":1836,"##ithoi":1837,"Ichan":1838,"##v.":1839,"Hangshing":1840,"Usham":1841,"Phaomei":1842,"Nganthoi":1843,"Chesam":1844,"Wangjam":1845,"Z.":1846,"Bu":1847,"MRS":1848,"MAY":1849,"Yu":1850,"##andhoni":1851,"Rashi":1852,"##UDDIN":1853,"MAR":1854,"Phur":1855,"##lhou":1856,"##shen":1857,"Pheir":1858,"##leng":1859,"Gui":1860,"##khon":1861,"Dou":1862,"##khuram":1863,"Mod":1864,"Horam":1865,"Bha":1866,"Ng.":1867,"Heikham":1868,"LO":1869,"Dangsha":1870,"Kabita":1871,"CHA":1872,"##iru":1873,"Pun":1874,"Soubam":1875,"##ulla":1876,"##shmi":1877,"Gamb":1878,"Babu":1879,"##omin":1880,"##S.":1881,"Zou":1882,"Ath":1883,"##sat":1884,"##sit":1885,"##eta":1886,"Brah":1887,"Subha":1888,"Rem":1889,"Lem":1890,"##yao":1891,"Lhung":1892,"Taorem":1893,"##jin":1894,"Uma":1895,"##siem":1896,"Pakpi":1897,"Rei":1898,"##lan":1899,"Phurit":1900,"##amani":1901,"Brahmacha":1902,"Lil":1903,"Laikhuram":1904,"Pad":1905,"CHANU":1906,"Somorjit":1907,"Phung":1908,"Dilip":1909,"Warepam":1910,"Awung":1911,"Rina":1912,"Anil":1913,"Je":1914,"Rosh":1915,"Sanajaoba":1916,"Brahmacharimayum":1917,"##alu":1918,"Pi":1919,"Ks.":1920,"Ruk":1921,"Phanj":1922,"Robindro":1923,"Indu":1924,"Megha":1925,"##jai":1926,"Gurung":1927,"KAM":1928,"##os":1929,"##gaijam":1930,"##tana":1931,"Dangmei":1932,"Doungel":1933,"##khen":1934,"Riamei":1935,"##jina":1936,"Phurailatpam":1937,"Soraisam":1938,"Pheiroijam":1939,"Shanta":1940,"Shing":1941,"##MEI":1942,"Sitlhou":1943,"Phanjoubam":1944,"Sy":1945,"Ningthoukhongjam":1946,"##ub":1947,"Ashang":1948,"##reila":1949,"##ken":1950,"Ngas":1951,"Tekcham":1952,"Momo":1953,"Esther":1954,"Wak":1955,"Ahongsangbam":1956,"##SHANG":1957,"##isa":1958,"Kumam":1959,"Soniya":1960,"Az":1961,"Jose":1962,"##ning":1963,"KON":1964,"Y.":1965,"PU":1966,"Yar":1967,"##krakpam":1968,"IN":1969,"##dangmayum":1970,"Lim":1971,"##lim":1972,"Ashem":1973,"Hidangmayum":1974,"##ve":1975,"Nahakpam":1976,"##pem":1977,"##khopao":1978,"##REI":1979,"Naoroibam":1980,"Kabui":1981,"Khomdon":1982,"Lhingnei":1983,"Basanti":1984,"Nimai":1985,"Bor":1986,"##wo":1987,"##KHOM":1988,"Hol":1989,"Shagolsem":1990,"##bit":1991,"Lairenlakpam":1992,"Lhungdim":1993,"MANG":1994,"##phun":1995,"Poud":1996,"TH":1997,"Zing":1998,"Loukrakpam":1999,"##chal":2000,"Lukram":2001,"SAR":2002,"##ED":2003,"Day":2004,"##GEN":2005,"Bob":2006,"BEG":2007,"Om":2008,"Chothe":2009,"Singsit":2010,"Rose":2011,"Ranjan":2012,"Pet":2013,"##sp":2014,"Hung":2015,"Dangshawa":2016,"##rin":2017,"Hri":2018,"##ling":2019,"Shamurailatpam":2020,"##yang":2021,"Romeo":2022,"lbemcha":2023,"Soraisham":2024,"Khol":2025,"Elizabeth":2026,"MEM":2027,"##hana":2028,"Santi":2029,"##obi":2030,"Manao":2031,"##SANG":2032,"Khi":2033,"##E!":2034,"##orendro":2035,"Arunkumar":2036,"##gong":2037,"Phijam":2038,"Lukhoi":2039,"Gita":2040,"##rab":2041,"Nabachandra":2042,"##kholet":2043,"Aim":2044,"##gui":2045,"##thung":2046,"Joseph":2047,"BEGUM":2048,"##SAI":2049,"##AND":2050,"Senjam":2051,"Loidang":2052,"lbe":2053,"Bra":2054,"##bak":2055,"NI":2056,"Sunibala":2057,"Ngao":2058,"##iya":2059,"Ningshen":2060,"Premi":2061,"Thaba":2062,"Khois":2063,"Iboyaima":2064,"Ke":2065,"Uddin":2066,"Lhai":2067,"##d.":2068,"Nila":2069,"Surchandra":2070,"##jur":2071,"##DRA":2072,"##reingam":2073,"ABD":2074,"Heig":2075,"Samu":2076,"Kongkham":2077,"Awungshi":2078,"##bantabam":2079,"Ronibala":2080,"Wil":2081,"Debala":2082,"Chandam":2083,"Banu":2084,"##UK":2085,"##ATI":2086,"Khongbantabam":2087,"ANG":2088,"##une":2089,"Lairenjam":2090,"Tai":2091,"##net":2092,"Le":2093,"RAH":2094,"##ane":2095,"Priyokumar":2096,"KIP":2097,"Hor":2098,"PREM":2099,"Asho":2100,"Tombisana":2101,"##veinai":2102,"KHA":2103,"Mel":2104,"##riya":2105,"##illa":2106,"Shougrakpam":2107,"Pal":2108,"Shantikumar":2109,"##akim":2110,"Joykumar":2111,"Pei":2112,"MEIT":2113,"##khohoi":2114,"##anjoy":2115,"Meisnam":2116,"Solom":2117,"##rai":2118,"Sundari":2119,"Anjali":2120,"Naoba":2121,"##yari":2122,"##eson":2123,"##uanliu":2124,"Radha":2125,"Khoisnam":2126,"Us":2127,"##BALA":2128,"Tel":2129,"##kokpam":2130,"Ngaih":2131,"Taba":2132,"Anu":2133,"##babu":2134,"##song":2135,"##ama":2136,"Somi":2137,"Kasar":2138,"KIPGEN":2139,"##dei":2140,"Sk.":2141,"##bong":2142,"Kharibam":2143,"##edy":2144,"Lily":2145,"Lucy":2146,"Heigrujam":2147,"Naocha":2148,"##de":2149,"##HOI":2150,"Ahanbi":2151,"Thongram":2152,"Achoubi":2153,"##anjan":2154,"##angmei":2155,"##p.":2156,"Kat":2157,"Sobha":2158,"##shu":2159,"Riya":2160,"##LUN":2161,"##LIAN":2162,"Koi":2163,"Shu":2164,"Ngash":2165,"##oyon":2166,"KEI":2167,"Sanahal":2168,"She":2169,"Sarungbam":2170,"##jenbam":2171,"##aliu":2172,"##NI":2173,"Dip":2174,"ROM":2175,"##rou":2176,"Ahamad":2177,"Deben":2178,"Deepak":2179,"##bung":2180,"##IMA":2181,"Binodini":2182,"Basnet":2183,"##LAMBAM":2184,"##ining":2185,"Chiru":2186,"##go":2187,"Nepram":2188,"Ganga":2189,"Pin":2190,"##ris":2191,"Bijoy":2192,"##irou":2193,"Khamba":2194,"(Q":2195,"Dil":2196,"##khonei":2197,"##dai":2198,"Mairembam":2199,"New":2200,"Premlata":2201,"Atom":2202,"ABDUL":2203,"RAM":2204,"Leibak":2205,"Pramodini":2206,"##wng":2207,"##jamani":2208,"Roh":2209,"Yanglem":2210,"Mongjam":2211,"Then":2212,"##nung":2213,"Peter":2214,"Bhat":2215,"Laishangbam":2216,"Amir":2217,"Bijaya":2218,"Hrii":2219,"##LEN":2220,"##lungliu":2221,"##HAR":2222,"Bal":2223,"Tas":2224,"Mand":2225,"##sung":2226,"Yengkokpam":2227,"Jain":2228,"Muham":2229,"##choubi":2230,"##sabam":2231,"##ty":2232,"Surbala":2233,"##het":2234,"##railatpam":2235,"##neih":2236,"SALAM":2237,"Mun":2238,"Chingkh":2239,"On":2240,"##aka":2241,"##changbam":2242,"Tay":2243,"##chombam":2244,"Lha":2245,"PH":2246,"##ANGBAM":2247,"Makak":2248,"Milan":2249,"SAM":2250,"##IAN":2251,"##khongam":2252,"Abung":2253,"Gyan":2254,"Hau":2255,"##eiya":2256,"CHONG":2257,"##reiwon":2258,"Potshangbam":2259,"##SHI":2260,"Ben":2261,"##itra":2262,"Premananda":2263,"##jabi":2264,"(QO)":2265,"Leichombam":2266,"Sarju":2267,"##veine":2268,"KA":2269,"##gi":2270,"Gopal":2271,"Landhoni":2272,"##ema":2273,"Thu":2274,"Sanjenbam":2275,"##inao":2276,"BIBI":2277,"WAH":2278,"##jahat":2279,"##do":2280,"Victo":2281,"Nu":2282,"##ria":2283,"SHIM":2284,"MAN":2285,"Muk":2286,"Luwang":2287,"##US":2288,"Khar":2289,"##co":2290,"Mercy":2291,"Yaipha":2292,"Sangeeta":2293,"MEITEI":2294,"Til":2295,"##amliu":2296,"Memi":2297,"##mas":2298,"Samuel":2299,"##tu":2300,"Sw":2301,"Sahi":2302,"Abe":2303,"Sumila":2304,"Aimol":2305,"Kab":2306,"Hungyo":2307,"Kak":2308,"Sumati":2309,"Mina":2310,"##HAL":2311,"Tondon":2312,"Ngou":2313,"##mom":2314,"##bongmayum":2315,"##TI":2316,"Tensubam":2317,"Tem":2318,"Va":2319,"##ben":2320,"##pama":2321,"Paomin":2322,"Usharani":2323,"##MAYUM":2324,"Lalh":2325,"Zo":2326,"Shil":2327,"Boy":2328,"##let":2329,"##jet":2330,"##thuiliu":2331,"Lamnei":2332,"Adani":2333,"Jug":2334,"Reng":2335,"Phairembam":2336,"Uri":2337,"Solomon":2338,"##imi":2339,"SOR":2340,"Sapana":2341,"Khumbongmayum":2342,"Mangol":2343,"devi":2344,"##char":2345,"Lokho":2346,"Ibochouba":2347,"Bon":2348,"##shw":2349,"Kiranbala":2350,"Tan":2351,"Premita":2352,"Ahongshangbam":2353,"Manitombi":2354,"Nungshi":2355,"Han":2356,"KHO":2357,"##tina":2358,"##alata":2359,"Za":2360,"##RA":2361,"##phro":2362,"SO":2363,"Renubala":2364,"##pin":2365,"##ARI":2366,"Muh":2367,"Nungshitombi":2368,"THI":2369,"Hami":2370,"Maimom":2371,"Kalpana":2372,"Sanayaima":2373,"Prom":2374,"SUR":2375,"##ew":2376,"Robinson":2377,"Thoithoi":2378,"Jamini":2379,"Jas":2380,"##IA":2381,"Hemabati":2382,"Subadani":2383,"Geet":2384,"##MAI":2385,"Rebe":2386,"Hai":2387,"##ahrii":2388,"Sophiya":2389,"##khotin":2390,"##ile":2391,"##ku":2392,"##ulung":2393,"Tiken":2394,"##alak":2395,"Sushil":2396,"GANG":2397,"##ohon":2398,"##ramani":2399,"##chu":2400,"Push":2401,"Radham":2402,"Momon":2403,"##m.":2404,"##SHAM":2405,"##jon":2406,"Har":2407,"Mung":2408,"##umbam":2409,"Sak":2410,"Tamu":2411,"##uki":2412,"KHONG":2413,"Keith":2414,"##kung":2415,"Deba":2416,"Hari":2417,"Roshini":2418,"HEI":2419,"##mal":2420,"Thongbam":2421,"##hir":2422,"Dom":2423,"Thomas":2424,"##IMAYUM":2425,"Ngairangbam":2426,"##RAMBAM":2427,"##kai":2428,"Thangkhan":2429,"##janeng":2430,"Ste":2431,"##sian":2432,"Ruth":2433,"Chhet":2434,"Manihar":2435,"KHUM":2436,"##thon":2437,"Namoijam":2438,"Thian":2439,"Takhelchangbam":2440,"Bijeta":2441,"Ah":2442,"Kor":2443,"Karki":2444,"MAIBAM":2445,"Sanam":2446,"Rash":2447,"Sus":2448,"Miss.":2449,"Grace":2450,"##onica":2451,"Budha":2452,"Akham":2453,"Khel":2454,"Rishikanta":2455,"KHUN":2456,"Lohrii":2457,"Kishan":2458,"Vanlal":2459,"Memtombi":2460,"##ckson":2461,"Shagolshem":2462,"AK":2463,"Far":2464,"##dou":2465,"Amina":2466,"Chandram":2467,"Tamang":2468,"Sougrakpam":2469,"Shakhi":2470,"Kongb":2471,"Ks":2472,"Sarita":2473,"Achom":2474,"Resh":2475,"Thar":2476,"Sila":2477,"Prabha":2478,"##khum":2479,"JO":2480,"Lalram":2481,"Binoy":2482,"##hur":2483,"##hina":2484,"Sophia":2485,"##ANTA":2486,"##ikim":2487,"Loken":2488,"PR":2489,"RA":2490,"Gambhini":2491,"##akhun":2492,"Misao":2493,"##EET":2494,"Tamphasana":2495,"##WON":2496,"Shak":2497,"Bhei":2498,"SU":2499,"##tang":2500,"##tongbam":2501,"Ramesh":2502,"##und":2503,"Mathi":2504,"Mohammad":2505,"Lhei":2506,"Op":2507,"##NGAM":2508,"##tarai":2509,"Purnimashi":2510,"Roshni":2511,"Malemnganba":2512,"Muhindro":2513,"Santa":2514,"Ngah":2515,"Amita":2516,"Lamabam":2517,"Naz":2518,"##ID":2519,"##ree":2520,"##choi":2521,"Suan":2522,"Takhelmayum":2523,"Joychandra":2524,"Anandi":2525,"Ito":2526,"##wl":2527,"Daniel":2528,"Ag":2529,"Medha":2530,"Ahm":2531,"Jan":2532,"JAM":2533,"Phu":2534,"Shamu":2535,"##aribam":2536,"Ibopishak":2537,"Ashu":2538,"Yur":2539,"##CHING":2540,"Victoria":2541,"##wiliu":2542,"##asha":2543,"Lalrem":2544,"##ONGBAM":2545,"##diya":2546,"##ela":2547,"Inakhun":2548,"Fari":2549,"SUN":2550,"Martha":2551,"Sultana":2552,"Krishna":2553,"Ahmed":2554,"Gand":2555,"##angliu":2556,"Thaimei":2557,"Chiin":2558,"Bho":2559,"Ngul":2560,"Keithellakpam":2561,"##SI":2562,"Tonjam":2563,"Dhi":2564,"NENG":2565,"##NGAI":2566,"Ahamed":2567,"KHONGSAI":2568,"Kaikho":2569,"##pai":2570,"Achouba":2571,"Mao":2572,"NE":2573,"Nieng":2574,"Mor":2575,"##khonem":2576,"Indubala":2577,"Dei":2578,"Pung":2579,"##vin":2580,"Bhattarai":2581,"Sel":2582,"Haorongbam":2583,"Robita":2584,"##atimayum":2585,"Kad":2586,"Kala":2587,"Binarani":2588,"Ibobi":2589,"##ish":2590,"##das":2591,"Nanda":2592,"Yurembam":2593,"##imuddin":2594,"Gobin":2595,"##JAN":2596,"Nganbi":2597,"Imo":2598,"##via":2599,"Abon":2600,"Chun":2601,"Dong":2602,"##shel":2603,"Loli":2604,"##jiya":2605,"##akumari":2606,"##SNAM":2607,"ALI":2608,"##AKH":2609,"Bijay":2610,"Niru":2611,"Sairem":2612,"Makakmayum":2613,"Tayenjam":2614,"Jina":2615,"Rasi":2616,"##eing":2617,"Kunjarani":2618,"RAN":2619,"Premabati":2620,"Ibempishak":2621,"Kongbrailatpam":2622,"Indr":2623,"Mus":2624,"Lisham":2625,"Mamta":2626,"Ngashepam":2627,"Leish":2628,"Ser":2629,"Mos":2630,"Gi":2631,"Mk.":2632,"Pham":2633,"##PA":2634,"##khohat":2635,"WAHENGBAM":2636,"Promila":2637,"##yas":2638,"Ichal":2639,"Prat":2640,"Amusana":2641,"Tampak":2642,"EL":2643,"Thingom":2644,"##sawm":2645,"Lum":2646,"Sr.":2647,"##gya":2648,"Bijenti":2649,"##kcham":2650,"Lalnun":2651,"##ATA":2652,"IBEM":2653,"Dahal":2654,"Hing":2655,"##alini":2656,"Leiphrakpam":2657,"Jayen":2658,"Kulla":2659,"##iro":2660,"##dom":2661,"##ota":2662,"##ule":2663,"Philem":2664,"KHANG":2665,"##upta":2666,"Boi":2667,"##jini":2668,"Kimnei":2669,"Pem":2670,"##wn":2671,"##wal":2672,"Chak":2673,"##UDAM":2674,"Binod":2675,"Radhamani":2676,"##rani":2677,"##satabam":2678,"Adhikar":2679,"Chu":2680,"Lien":2681,"##ungou":2682,"##kap":2683,"Bista":2684,"Tim":2685,"Sem":2686,"Tang":2687,"##tor":2688,"##von":2689,"##khokim":2690,"Amubi":2691,"RE":2692,"##akhi":2693,"Adhikarimayum":2694,"St":2695,"Phuritshabam":2696,"Tababi":2697,"Ya":2698,"Lalro":2699,"##jabam":2700,"Ojit":2701,"##ene":2702,"##thil":2703,"Modhu":2704,"##ekha":2705,"Mui":2706,"Huirongbam":2707,"Shamjet":2708,"Kesho":2709,"##hming":2710,"Koireng":2711,"Pinky":2712,"Kanta":2713,"Bog":2714,"Indrani":2715,"##zu":2716,"##eima":2717,"Syed":2718,"##bas":2719,"Samom":2720,"Hrang":2721,"PAO":2722,"##amla":2723,"##shila":2724,"##shubam":2725,"##ARANI":2726,"Shyamk":2727,"##ingbi":2728,"##sui":2729,"##unga":2730,"##rose":2731,"##ishor":2732,"Shougaijam":2733,"Pus":2734,"##waibam":2735,"##khang":2736,"##humani":2737,"Sanajaobi":2738,"Moyon":2739,"Shyama":2740,"Ngasepam":2741,"Reena":2742,"Soy":2743,"##jalam":2744,"##OKPAM":2745,"Lhainei":2746,"Dal":2747,"Premchand":2748,"Pratima":2749,"##GOL":2750,"Sukham":2751,"##lou":2752,"Ari":2753,"IR":2754,"Hawaibam":2755,"##CHANDRA":2756,"##KHAN":2757,"Phila":2758,"Manglemba":2759,"Memthoi":2760,"Gupta":2761,"##AHA":2762,"##ody":2763,"Noren":2764,"Bira":2765,"##OT":2766,"##wan":2767,"##chao":2768,"##ranga":2769,"Benjam":2770,"Lalita":2771,"##TUM":2772,"##khojang":2773,"Radhe":2774,"Tol":2775,"##hung":2776,"Shel":2777,"Bishw":2778,"Dhiren":2779,"Shat":2780,"Kula":2781,"##cca":2782,"##rabam":2783,"Bacha":2784,"##khui":2785,"Priy":2786,"Rupa":2787,"THOUDAM":2788,"MUTUM":2789,"##ey":2790,"Limbu":2791,"Kay":2792,"WAI":2793,"Nandini":2794,"Raghumani":2795,"Inakhunbi":2796,"Gen":2797,"Nengnei":2798,"THIYAM":2799,"Rana":2800,"Maimu":2801,"##imacha":2802,"Bogimayum":2803,"##med":2804,"##alaxmi":2805,"Khuman":2806,"SHIMR":2807,"Ale":2808,"Ramananda":2809,"##shimla":2810,"Chang":2811,"##khil":2812,"Islam":2813,"Val":2814,"##me":2815,"##vel":2816,"##phang":2817,"##bitri":2818,"##kari":2819,"##ate":2820,"##hnem":2821,"Nasir":2822,"PUKH":2823,"RU":2824,"Ibeton":2825,"Leivon":2826,"##reichon":2827,"Nabakumar":2828,"Rung":2829,"Maha":2830,"##uliu":2831,"Sap":2832,"lbemhal":2833,"Ayingbi":2834,"Rk":2835,"##endrajit":2836,"LHING":2837,"Kholi":2838,"Nirupama":2839,"Bung":2840,"Kamal":2841,"##eep":2842,"Leiren":2843,"Khoi":2844,"Tourangbam":2845,"##goulen":2846,"Git":2847,"Vs":2848,"##SHA":2849,"##cob":2850,"Jot":2851,"Tuboi":2852,"Indrajit":2853,"Puspa":2854,"Mk":2855,"##anliu":2856,"##umati":2857,"Somendro":2858,"Pfok":2859,"Tui":2860,"##tia":2861,"Dayananda":2862,"Kah":2863,"##rit":2864,"##DRO":2865,"Taru":2866,"RK":2867,"Ts.":2868,"##kei":2869,"Singam":2870,"Hon":2871,"Kein":2872,"Benjamin":2873,"Charanga":2874,"##nieng":2875,"Jad":2876,"SHAN":2877,"THA":2878,"Chanchan":2879,"Mangsatabam":2880,"Samananda":2881,"##KA":2882,"##RIMAYUM":2883,"Moses":2884,"##jun":2885,"Ngar":2886,"##phen":2887,"Melody":2888,"Band":2889,"Roji":2890,"##OIJAM":2891,"Nemnei":2892,"##ashakhi":2893,"Sahani":2894,"Adhikari":2895,"Reshma":2896,"Sahu":2897,"Khomei":2898,"Meena":2899,"Wangkheirakpam":2900,"MEITE":2901,"##HAIBAM":2902,"Rohit":2903,"Shamungou":2904,"Pishakmacha":2905,"NEM":2906,"Jayenta":2907,"Du":2908,"##pe":2909,"##jag":2910,"Bhanu":2911,"Rs.":2912,"Lintho":2913,"Firo":2914,"Soi":2915,"Khangj":2916,"##renbam":2917,"Newm":2918,"Vs.":2919,"##IYA":2920,"Chandani":2921,"Ban":2922,"Mou":2923,"Ruhina":2924,"Shaiza":2925,"Prit":2926,"Nit":2927,"Sin":2928,"##fa":2929,"MEITE!":2930,"Jem":2931,"SOM":2932,"Malangmei":2933,"PUKHRAMBAM":2934,"PA":2935,"Wakambam":2936,"Boby":2937,"Thon":2938,"##spatimayum":2939,"##kashini":2940,"Ngala":2941,"##habi":2942,"##ping":2943,"##lima":2944,"##amba":2945,"Sah":2946,"Yaimabi":2947,"Ashangbi":2948,"Ruhida":2949,"Khulakpam":2950,"Victor":2951,"LU":2952,"Yao":2953,"##chael":2954,"Khomdonbi":2955,"Hb":2956,"Binita":2957,"Lik":2958,"Memton":2959,"Laxmi":2960,"Jugin":2961,"Bachaspatimayum":2962,"AL":2963,"Nel":2964,"##jay":2965,"##isha":2966,"Shahani":2967,"Memchoubi":2968,"##chingtabam":2969,"##AW":2970,"##bra":2971,"Budhi":2972,"Meghachandra":2973,"Ps.":2974,"##gailiu":2975,"##reishang":2976,"Sheikh":2977,"Gan":2978,"##par":2979,"##kumari":2980,"Sanjay":2981,"Kakchingtabam":2982,"Urikh":2983,"Newme":2984,"THING":2985,"##umani":2986,"Rafi":2987,"Amuba":2988,"##chuila":2989,"##thailiu":2990,"MAYANG":2991,"Telem":2992,"Rocky":2993,"Rojita":2994,"Shila":2995,"Sanamacha":2996,"Shamjetshabam":2997,"Dur":2998,"Prakash":2999,"Jacob":3000,"SANAT":3001,"Kiyam":3002,"Nawa":3003,"##jahoi":3004,"Bobo":3005,"NONGMAI":3006,"Abonmai":3007,"VAI":3008,"Subita":3009,"Kaini":3010,"Wahi":3011,"##shwar":3012,"Bheigya":3013,"Rojit":3014,"##michon":3015,"Birjit":3016,"Roy":3017,"##OMBA":3018,"SON":3019,"Manisana":3020,"Rahul":3021,"NONGMAITHEM":3022,"Sp.":3023,"##lang":3024,"Majida":3025,"CHO":3026,"HO":3027,"MIS":3028,"##dun":3029,"TAM":3030,"Jotin":3031,"Shaikhom":3032,"##iton":3033,"##oubi":3034,"##neo":3035,"Simte":3036,"##ayenbam":3037,"##LHING":3038,"Chinglen":3039,"##pheng":3040,"Thum":3041,"CHIN":3042,"Khumujam":3043,"Huining":3044,"Moirangmayum":3045,"Sarah":3046,"Wangmayum":3047,"Yens":3048,"Mano":3049,"##otama":3050,"HUI":3051,"##yi":3052,"Salima":3053,"Hema":3054,"Louri":3055,"Lokendro":3056,"Hring":3057,"##ary":3058,"Alam":3059,"Gom":3060,"NAM":3061,"Pukhrimayum":3062,"##jagur":3063,"Wayenbam":3064,"##aram":3065,"##HOU":3066,"Chingshubam":3067,"Malemnganbi":3068,"Kil":3069,"Shinglai":3070,"LONG":3071,"Meinam":3072,"Sharmila":3073,"Momocha":3074,"Bdr":3075,"##zar":3076,"##inai":3077,"##yamayum":3078,"THOUN":3079,"Bikramjit":3080,"VAIPH":3081,"##jagurumayum":3082,"AR":3083,"si":3084,"##inii":3085,"Naresh":3086,"Athikho":3087,"TAKH":3088,"##van":3089,"##thangbam":3090,"##isii":3091,"Shatsang":3092,"##zani":3093,"Bandana":3094,"Hom":3095,"lI":3096,"##jeet":3097,"Lair":3098,"Azi":3099,"Jim":3100,"Hamida":3101,"Anju":3102,"Adaphro":3103,"Jes":3104,"KSH":3105,"##IDA":3106,"Lupheng":3107,"Shimrah":3108,"Indrakumar":3109,"Pradhan":3110,"Stephen":3111,"##chuiliu":3112,"Apik":3113,"Thoinu":3114,"Ranbir":3115,"Thoiding":3116,"Khangjrakpam":3117,"TAKHEL":3118,"Ding":3119,"KIM":3120,"Singha":3121,"##urei":3122,"Ngal":3123,"Thoidingjam":3124,"##c.":3125,"Jayanta":3126,"Shahni":3127,"KOM":3128,"Habi":3129,"SHAR":3130,"Chris":3131,"Rebecca":3132,"Louriyam":3133,"BAS":3134,"##omacha":3135,"##che":3136,"##esha":3137,"Dhananjoy":3138,"Ge":3139,"RI":3140,"##HN":3141,"Luxmi":3142,"Ruhini":3143,"Monsang":3144,"##nah":3145,"##DROM":3146,"Chhetry":3147,"Nom":3148,"##chim":3149,"Asharani":3150,"##MILA":3151,"Laithangbam":3152,"Keina":3153,"##ruot":3154,"LH":3155,"##ABAM":3156,"Seh":3157,"KUMAR":3158,"Ngo":3159,"Kabi":3160,"Chawang":3161,"##mujam":3162,"Ningol":3163,"Goura":3164,"##ANDA":3165,"Sajina":3166,"##rangthem":3167,"Sumita":3168,"Kanan":3169,"##yaola":3170,"Poudel":3171,"##angai":3172,"##lawm":3173,"##CHONG":3174,"##era":3175,"Rajina":3176,"Juli":3177,"Tilotama":3178,"Ral":3179,"Sk":3180,"Sub":3181,"##zaching":3182,"Chithung":3183,"Rk.":3184,"Sanaton":3185,"##ETRIMAYUM":3186,"Laimujam":3187,"##isana":3188,"##tanga":3189,"HUIDROM":3190,"Jah":3191,"##WOR":3192,"Rajendro":3193,"THOI":3194,"BIN":3195,"Dem":3196,"Dina":3197,"Sil":3198,"##one":3199,"Maipakpi":3200,"Raja":3201,"Losa":3202,"Rs":3203,"Alex":3204,"##LEM":3205,"##tinthang":3206,"Bidyapati":3207,"Phusam":3208,"##maya":3209,"ELANGBAM":3210,"KSHETRIMAYUM":3211,"##oti":3212,"##ale":3213,"Kaisa":3214,"Michael":3215,"Ibechaobi":3216,"##tharla":3217,"SHANG":3218,"##far":3219,"Samson":3220,"Bes":3221,"##tya":3222,"Saratchandra":3223,"##UP":3224,"##ingai":3225,"Lairi":3226,"Ingudam":3227,"Ashok":3228,"##paibam":3229,"Zen":3230,"Najima":3231,"ros":3232,"##TIN":3233,"##ASAM":3234,"Hanjabam":3235,"Ashuli":3236,"Mum":3237,"Oli":3238,"WANG":3239,"The":3240,"Hoih":3241,"RAJKUMAR":3242,"Mohd":3243,"##SAM":3244,"##THAM":3245,"Chandramani":3246,"##no":3247,"Prema":3248,"Hatnei":3249,"Lakshmi":3250,"Nil":3251,"##zudin":3252,"Gandhi":3253,"PRI":3254,"Thanglen":3255,"Ngangbi":3256,"Langlen":3257,"NGAI":3258,"Helen":3259,"Ham":3260,"##SEM":3261,"Sud":3262,"##bang":3263,"##SHING":3264,"Naomi":3265,"##kyengbam":3266,"KHANGEMBAM":3267,"Oken":3268,"##uru":3269,"##khomba":3270,"##esana":3271,"Ama":3272,"##RO":3273,"##JA":3274,"##umai":3275,"Mari":3276,"Nian":3277,"Loktongbam":3278,"Pum":3279,"##hem":3280,"Salew":3281,"Diana":3282,"SANASAM":3283,"MON":3284,"Monica":3285,"Ter":3286,"Deban":3287,"Leishi":3288,"##ukhan":3289,"Sadananda":3290,"##tim":3291,"Chand":3292,"##AITE":3293,"##shom":3294,"INAO":3295,"HA":3296,"Yas":3297,"Choud":3298,"Wahida":3299,"Krishn":3300,"Lairikyengbam":3301,"##ona":3302,"##akir":3303,"Muan":3304,"HI":3305,"Kol":3306,"##ge":3307,"##priya":3308,"##MANG":3309,"##inah":3310,"##khanthang":3311,"Chandrakumar":3312,"Ted":3313,"Zi":3314,"THOUNAO":3315,"St.":3316,"##ming":3317,"##shree":3318,"##mati":3319,"Kunja":3320,"##som":3321,"##rim":3322,"Amit":3323,"Tun":3324,"##hra":3325,"Losii":3326,"Basir":3327,"MAYANGLAMBAM":3328,"Bhim":3329,"TONG":3330,"##YO":3331,"##rama":3332,"##reiliu":3333,"Shand":3334,"##OIBAM":3335,"Ok":3336,"##umin":3337,"##atun":3338,"Angang":3339,"Azad":3340,"Lup":3341,"Siam":3342,"Jenny":3343,"Lairellakpam":3344,"##WAI":3345,"##asu":3346,"Thangtin":3347,"##CHON":3348,"Jadumani":3349,"THOUNAOJAM":3350,"Gul":3351,"##KPAM":3352,"Sharangthem":3353,"Hong":3354,"##LIU":3355,"MA":3356,"##MUAN":3357,"##imin":3358,"##thony":3359,"Sorei":3360,"Thaja":3361,"THANGJAM":3362,"Chingkheing":3363,"Pre":3364,"Rit":3365,"##SANA":3366,"##umang":3367,"Khogen":3368,"##zathang":3369,"Kalam":3370,"Solomi":3371,"Rabichandra":3372,"##alakshmi":3373,"Daya":3374,"Pat":3375,"##NA":3376,"##INGAM":3377,"Jian":3378,"Jul":3379,"##DY":3380,"Rat":3381,"##BITA":3382,"NONGTHO":3383,"CHI":3384,"##dinliu":3385,"Babina":3386,"Kenn":3387,"##aluxmi":3388,"NIANG":3389,"##pei":3390,"##yal":3391,"##iph":3392,"ZIM":3393,"##pan":3394,"JOY":3395,"##akini":3396,"HEM":3397,"##yn":3398,"Sabitri":3399,"Thangkho":3400,"Robi":3401,"RAHAM":3402,"LONGJAM":3403,"Soren":3404,"Kangbam":3405,"Noni":3406,"Raji":3407,"Mangte":3408,"##WAIRAKPAM":3409,"Ps":3410,"##jalhing":3411,"Mera":3412,"##banu":3413,"Chitra":3414,"Yensembam":3415,"##inbam":3416,"##jambam":3417,"##thew":3418,"Kennedy":3419,"ZIMIK":3420,"Dorendro":3421,"Hmang":3422,"MANI":3423,"##MAN":3424,"Leiha":3425,"##ulailatpam":3426,"##khanching":3427,"KHWAIRAKPAM":3428,"Ti":3429,"##IB":3430,"##ineng":3431,"##THING":3432,"##DRAKPAM":3433,"Iboton":3434,"Tej":3435,"Buyamayum":3436,"##unai":3437,"##lamani":3438,"Ayub":3439,"Sarjubala":3440,"Bhum":3441,"SEI":3442,"##then":3443,"Rosan":3444,"Khali":3445,"Lhingneikim":3446,"##horjit":3447,"##nuam":3448,"##gam":3449,"##rel":3450,"Siraj":3451,"Serto":3452,"Kilong":3453,"Lila":3454,"##odar":3455,"Gojen":3456,"Rim":3457,"##KHAM":3458,"Anthony":3459,"Madhu":3460,"##thao":3461,"Bipin":3462,"##lungbou":3463,"Bari":3464,"Kuki":3465,"Ras":3466,"##ison":3467,"##phung":3468,"##nii":3469,"Chingngaih":3470,"Khambi":3471,"KHUNDRAKPAM":3472,"Jati":3473,"Simon":3474,"Mandakini":3475,"##alal":3476,"Lungleng":3477,"Daina":3478,"Romio":3479,"Manoj":3480,"IBO":3481,"Phuritsabam":3482,"##CHAM":3483,"##by":3484,"##AIMA":3485,"RAI":3486,"##KRAM":3487,"##akanta":3488,"##ingambi":3489,"Kok":3490,"##mon":3491,"##WI":3492,"Kamson":3493,"ASEM":3494,"Athia":3495,"##awi":3496,"##MBAM":3497,"##khul":3498,"##shok":3499,"Shoro":3500,"##zaniang":3501,"Sajida":3502,"SHAH":3503,"Mohammed":3504,"##minlian":3505,"MARING":3506,"##ilung":3507,"Lalthang":3508,"##CHIN":3509,"Thabal":3510,"Siro":3511,"Ronal":3512,"Newmai":3513,"Sunder":3514,"lbeyaima":3515,"Bhu":3516,"##shana":3517,"Omita":3518,"SHIMRAY":3519,"Um":3520,"Rabina":3521,"Shur":3522,"Kayen":3523,"PAM":3524,"Takhelambam":3525,"KAMEI":3526,"##band":3527,"Mangal":3528,"Gau":3529,"NONGTHOMBAM":3530,"Taslima":3531,"BAITE":3532,"##LU":3533,"Bihari":3534,"##chel":3535,"Nengneilhing":3536,"Manishang":3537,"Pame":3538,"Sanayai":3539,"Ming":3540,"##mini":3541,"Ibohanbi":3542,"Susila":3543,"Puni":3544,"##sumbam":3545,"##jar":3546,"##lianthang":3547,"##OMBAM":3548,"Tombimacha":3549,"Menaka":3550,"CHAO":3551,"Palmei":3552,"Fran":3553,"##radha":3554,"Thanglian":3555,"Haque":3556,"Chihan":3557,"Nando":3558,"Rameshwar":3559,"Dan":3560,"Khal":3561,"##ingson":3562,"Lolia":3563,"Choudhur":3564,"##ep":3565,"Jana":3566,"##kan":3567,"Sara":3568,"Sarda":3569,"MISS":3570,"Kayenpaibam":3571,"##kul":3572,"Chinglem":3573,"Somila":3574,"##zalam":3575,"TOMBI":3576,"##pal":3577,"##hoikim":3578,"Mangang":3579,"##miwon":3580,"Wungnao":3581,"Bishorjit":3582,"##KANG":3583,"Ibema":3584,"##jangam":3585,"Pradip":3586,"##rabot":3587,"KEISHAM":3588,"Mumta":3589,"SOIBAM":3590,"##ful":3591,"##HAK":3592,"##IRA":3593,"Narengbam":3594,"Kenedy":3595,"Farida":3596,"Samina":3597,"##dia":3598,"Shijagurumayum":3599,"Sougaijam":3600,"Ca":3601,"Ket":3602,"##II":3603,"##bali":3604,"##jat":3605,"NINGOMBAM":3606,"(O":3607,"Shit":3608,"Kabu":3609,"Madhum":3610,"Kahmei":3611,"Mir":3612,"Phamdom":3613,"lbo":3614,"##doi":3615,"##PHI":3616,"##rajit":3617,"Daikho":3618,"##RII":3619,"Mahesh":3620,"Ratankumar":3621,"Punima":3622,"Musta":3623,"Omila":3624,"Ws.":3625,"Ph.":3626,"Dolai":3627,"Pushpa":3628,"Amakcham":3629,"##dari":3630,"##okul":3631,"Sandham":3632,"##builiu":3633,"##jei":3634,"##arjan":3635,"Puthem":3636,"##nganbi":3637,"Ingobi":3638,"Braj":3639,"##wangliu":3640,"Anuradha":3641,"##NGAIH":3642,"Say":3643,"##HOR":3644,"Rojen":3645,"Binashakhi":3646,"Neli":3647,"Sharungbam":3648,"Ngathem":3649,"Brajamani":3650,"Got":3651,"Irabot":3652,"KI.":3653,"Rup":3654,"##LAKPAM":3655,"##sen":3656,"##thei":3657,"##asi":3658,"##HO!":3659,"##ziia":3660,"Merina":3661,"ROSH":3662,"Santibala":3663,"Sita":3664,"Bikash":3665,"TAKHELLAMBAM":3666,"Gautam":3667,"##oujam":3668,"##oru":3669,"Angomjambam":3670,"Adah":3671,"MOHAM":3672,"Nepuni":3673,"KANG":3674,"##boy":3675,"Mono":3676,"Jugindro":3677,"##may":3678,"##dy":3679,"Such":3680,"Sari":3681,"Lenin":3682,"Pho":3683,"##ter":3684,"Ibeni":3685,"GANGTE":3686,"##VAH":3687,"##rik":3688,"Meitram":3689,"##jahan":3690,"MAL":3691,"##liam":3692,"Laishom":3693,"Phairenbam":3694,"AH":3695,"Jona":3696,"Kabuini":3697,"KHAI":3698,"##thong":3699,"Biak":3700,"##ulu":3701,"Varei":3702,"##shwor":3703,"Ibethoi":3704,"##MAD":3705,"Nelson":3706,"##aranjan":3707,"##liang":3708,"Roben":3709,"Shamulailatpam":3710,"IBE":3711,"Bidyas":3712,"Pritam":3713,"Nalini":3714,"Vas":3715,"##lum":3716,"##ow":3717,"##JOY":3718,"Nemneilhing":3719,"THONGAM":3720,"Radharani":3721,"##olung":3722,"Somen":3723,"##uiliu":3724,"##pabam":3725,"WAIKHOM":3726,"##guang":3727,"##ingliu":3728,"Konsham":3729,"Ibemma":3730,"##ongliu":3731,"##ory":3732,"##ngamla":3733,"##zavung":3734,"Jibanlata":3735,"##jata":3736,"Manim":3737,"##ENJAM":3738,"Ranibala":3739,"Ahmad":3740,"Linthoingambi":3741,"Abi":3742,"LANG":3743,"##LUNG":3744,"##jad":3745,"##ZA":3746,"##ENA":3747,"Kiranmala":3748,"Gotimayum":3749,"##CY":3750,"##bash":3751,"Lairenmayum":3752,"##mo":3753,"Meipak":3754,"Akbar":3755,"lbemma":3756,"Athoi":3757,"##lah":3758,"##khochong":3759,"Sankhil":3760,"##ngaihching":3761,"Besii":3762,"Pen":3763,"Sm":3764,"##puni":3765,"Memmi":3766,"##OUTHANG":3767,"RON":3768,"Gula":3769,"Guna":3770,"##hri":3771,"Thou":3772,"##ilu":3773,"Khatun":3774,"##bonliu":3775,"GU":3776,"##WUNG":3777,"Bhandari":3778,"Yaiphaba":3779,"##den":3780,"##shir":3781,"Manileima":3782,"Doren":3783,"##jem":3784,"##JAL":3785,"Inaoba":3786,"Lucky":3787,"Manglemjao":3788,"##IKA":3789,"SHAM":3790,"##parani":3791,"##EIRAKPAM":3792,"Lunminthang":3793,"##nga":3794,"##ithang":3795,"Khaw":3796,"Henry":3797,"##zamang":3798,"LUNG":3799,"Thui":3800,"Chinnei":3801,"##alian":3802,"CHONGL":3803,"Nang":3804,"##TON":3805,"##IC":3806,"##khovah":3807,"Lalit":3808,"Khad":3809,"Philip":3810,"Opendro":3811,"Jin":3812,"Loy":3813,"##SE":3814,"##thy":3815,"Anoubam":3816,"##shambam":3817,"Inaotombi":3818,"##UREMBAM":3819,"##UB":3820,"##der":3821,"##khokam":3822,"##ANTHEM":3823,"Thangminlen":3824,"##jahao":3825,"Maku":3826,"##iphro":3827,"##esham":3828,"##angol":3829,"Sanjita":3830,"Inaoton":3831,"Ashikho":3832,"Car":3833,"##n.":3834,"##ANANDA":3835,"Premchandra":3836,"##arish":3837,"##UNGBAM":3838,"Ajitkumar":3839,"Wash":3840,"##tta":3841,"Laltha":3842,"Samurailatpam":3843,"##odem":3844,"Gong":3845,"##JEN":3846,"Pusp":3847,"##umacha":3848,"Arjun":3849,"Anilkumar":3850,"##juri":3851,"Rungsung":3852,"Dolaipabam":3853,"##ata":3854,"Julia":3855,"Ekashini":3856,"SANG":3857,"##anah":3858,"##THIAN":3859,"Hoinu":3860,"Ragui":3861,"##lar":3862,"##ira":3863,"Taj":3864,"Leibaklei":3865,"##undrei":3866,"##ven":3867,"##anii":3868,"##reiyo":3869,"Nengneikim":3870,"Loushambam":3871,"Mayum":3872,"Samir":3873,"##beda":3874,"##chouba":3875,"Hangsing":3876,"MAT":3877,"Ver":3878,"##ungam":3879,"##uila":3880,"Leiya":3881,"Lamneilhing":3882,"##jathang":3883,"##khenbi":3884,"Tak":3885,"Waribam":3886,"##imila":3887,"##SHEM":3888,"Yaiphabi":3889,"##bai":3890,"##enbam":3891,"##reiphy":3892,"Thaodem":3893,"##OMCHA":3894,"##zah":3895,"##jid":3896,"Amujao":3897,"Renuka":3898,"Lembi":3899,"HEISNAM":3900,"THOIBI":3901,"Lalnei":3902,"Thajam":3903,"Guru":3904,"Ashangbam":3905,"Geor":3906,"##sy":3907,"##mabam":3908,"##olini":3909,"##chimayum":3910,"AS.":3911,"Khulem":3912,"HI.":3913,"Ts":3914,"##tei":3915,"##ISH":3916,"##inliu":3917,"Akha":3918,"##jibur":3919,"Priyan":3920,"Shyamkumar":3921,"##MAWI":3922,"Soyam":3923,"NAMEIRAKPAM":3924,"Dhar":3925,"Jol":3926,"Pai":3927,"##PI":3928,"Aslam":3929,"Teresa":3930,"Lupho":3931,"Bad":3932,"##ler":3933,"##phal":3934,"##ESHWOR":3935,"Mamtaj":3936,"Singhajit":3937,"HAT":3938,"TOUTHANG":3939,"Shin":3940,"##ukhi":3941,"##var":3942,"##esw":3943,"Thuan":3944,"Bimolata":3945,"Zingkhai":3946,"Rasida":3947,"RAHAMAN":3948,"##bani":3949,"##ron":3950,"Saha":3951,"SANA":3952,"##GIN":3953,"Gangarani":3954,"Wahidur":3955,"Aziz":3956,"VASH":3957,"Hemchandra":3958,"Jag":3959,"Nawaz":3960,"Thajamanbi":3961,"##hun":3962,"##tling":3963,"##EK":3964,"##zad":3965,"Mayo":3966,"Lhingneichong":3967,"Somorendro":3968,"##ITE":3969,"Dham":3970,"##ac":3971,"##fer":3972,"##khitombi":3973,"Lalring":3974,"KHAM":3975,"JOHN":3976,"Pas":3977,"Chingkhi":3978,"Adahrii":3979,"##GOLSEM":3980,"Nup":3981,"##alung":3982,"Angam":3983,"Likmabam":3984,"Ws":3985,"##gun":3986,"##ipou":3987,"ROB":3988,"Jugeshwor":3989,"##hot":3990,"Kamei.":3991,"Nandakumar":3992,"Pfo":3993,"##bitha":3994,"##hiya":3995,"Khag":3996,"##ngaihlian":3997,"Sandhya":3998,"Bani":3999,"KS":4000,"##aning":4001,"##HAT":4002,"##LIEN":4003,"Narendra":4004,"Umakanta":4005,"Padma":4006,"##SHANGBAM":4007,"##po":4008,"Sher":4009,"Nongyai":4010,"Nengneichong":4011,"Dijen":4012,"KAS":4013,"Ngak":4014,"Meikam":4015,"##siliu":4016,"##barta":4017,"Firoz":4018,"George":4019,"Sujata":4020,"Jackson":4021,"Mou.":4022,"Ratna":4023,"##embi":4024,"Lais":4025,"##irei":4026,"Lamneikim":4027,"Dhanapati":4028,"Kul":4029,"NA":4030,"Rus":4031,"Asi":4032,"Tarun":4033,"Lat":4034,"Net":4035,"##oo":4036,"##tala":4037,"##ety":4038,"Surchand":4039,"##shabi":4040,"##DEM":4041,"##THE":4042,"##zachin":4043,"Abdur":4044,"##UNI":4045,"##sun":4046,"##amai":4047,"##hangva":4048,"##oklei":4049,"Mathew":4050,"Nemneikim":4051,"Chinao":4052,"##muankim":4053,"KONTHOUJAM":4054,"Guruaribam":4055,"Biramani":4056,"##tinlal":4057,"##sinliu":4058,"Jonah":4059,"Sadokpam":4060,"Morung":4061,"Jonathan":4062,"Priyanka":4063,"Sabir":4064,"Phajabi":4065,"Imran":4066,"##eruddin":4067,"Mohon":4068,"Kunjo":4069,"Romabati":4070,"OKRAM":4071,"WUNG":4072,"##my":4073,"##jjit":4074,"##khohen":4075,"Nilamani":4076,"Kumarjit":4077,"Gopen":4078,"ANGOM":4079,"##tong":4080,"Seitya":4081,"Ngathing":4082,"Ipham":4083,"Sen":4084,"Maringmei":4085,"##wangbou":4086,"Rosel":4087,"Najir":4088,"Chou":4089,"Las":4090,"NEI":4091,"##gom":4092,"##eingam":4093,"##pram":4094,"##yar":4095,"##zing":4096,"##aljit":4097,"Paukhan":4098,"HAOKIP.":4099,"LOUREMBAM":4100,"Riyajuddin":4101,"GUITE":4102,"Jeni":4103,"##io":4104,"##HAO":4105,"Manju":4106,"Neih":4107,"Surj":4108,"##puilu":4109,"NGANG":4110,"Kasom":4111,"##OKHAIBAM":4112,"Ut":4113,"##NE":4114,"##othy":4115,"##BRAM":4116,"Suk":4117,"Nupimacha":4118,"##zalian":4119,"##omila":4120,"Angkang":4121,"Sunit":4122,"Gracy":4123,"Kaboklei":4124,"SAH":4125,"hao":4126,"##ame":4127,"##raham":4128,"Manichandra":4129,"Arubam":4130,"Hop":4131,"Achar":4132,"Yun":4133,"##thot":4134,"Haolai":4135,"Prabin":4136,"##CHOU":4137,"##shua":4138,"Mathiu":4139,"KAI":4140,"##rung":4141,"##otha":4142,"Siem":4143,"VAIPHEI":4144,"##asudra":4145,"Fl":4146,"##EE":4147,"##Q)":4148,"##MINTHANG":4149,"AD":4150,"TON":4151,"##vis":4152,"##uda":4153,"##jira":4154,"##ley":4155,"MOH":4156,"Jand":4157,"##eer":4158,"Albert":4159,"IBOMCHA":4160,"Nuam":4161,"Shorokhaibam":4162,"HANG":4163,"##cis":4164,"##unei":4165,"Kimboi":4166,"Namasudra":4167,"Johny":4168,"Jubeda":4169,"Chandrajini":4170,"Makunga":4171,"Taruni":4172,"Suchitra":4173,"Yung":4174,"Mayangmayum":4175,"Kaisii":4176,"Lati":4177,"Purna":4178,"Chandrak":4179,"LEISHANG":4180,"Kumud":4181,"Brojendro":4182,"Bidyananda":4183,"Chingkhei":4184,"Isa":4185,"KAR":4186,"##CK":4187,"##ANGAM":4188,"Rami":4189,"Lhingneilam":4190,"Kans":4191,"##ngaihlun":4192,"KHAIDEM":4193,"Lalt":4194,"Lalsiem":4195,"Ngangkham":4196,"(L":4197,"Dis":4198,"Nik":4199,"TOMBA":4200,"##zak":4201,"##chana":4202,"Meme":4203,"Mujibur":4204,"Suranjoy":4205,"Chinkhan":4206,"Joymati":4207,"Lh.":4208,"##nungshi":4209,"Pusparani":4210,"ATHO":4211,"Rui":4212,"##hlun":4213,"Den":4214,"##IMOL":4215,"Gaikhang":4216,"Yangambam":4217,"Fat":4218,"Usha":4219,"##JENGBAM":4220,"##jamayum":4221,"##eshil":4222,"##zamuan":4223,"Muhammad":4224,"SOROKHAIBAM":4225,"Hou":4226,"##NENG":4227,"##anlung":4228,"##khosat":4229,"##AIL":4230,"Nengboi":4231,"##nath":4232,"Khaimin":4233,"Tabitha":4234,"Asheibam":4235,"Madhabi":4236,"Ngaihte":4237,"Chakpram":4238,"Khamrang":4239,"Kuber":4240,"TONGBRAM":4241,"(OQ)":4242,"##jani":4243,"##neineng":4244,"Ningthemjao":4245,"Rupachandra":4246,"LEISHANGTHEM":4247,"Anam":4248,"RS":4249,"Res":4250,"Zang":4251,"##uma":4252,"Thom":4253,"Pechimayum":4254,"Goutam":4255,"Ajay":4256,"KONJENGBAM":4257,"Shilla":4258,"Aji":4259,"##uri":4260,"Mocha":4261,"Shangkhu":4262,"Nureda":4263,"Raghu":4264,"Dilipkumar":4265,"AWUNG":4266,"Fero":4267,"Vik":4268,"##ngel":4269,"Sanju":4270,"Heirang":4271,"##ziya":4272,"Kunjabi":4273,"##NEIKIM":4274,"Angouba":4275,"Bishwar":4276,"Dipak":4277,"Kananbala":4278,"Dahrii":4279,"Nk.":4280,"We":4281,"##SING":4282,"Ibung":4283,"Theng":4284,"##reiso":4285,"##lenmang":4286,"Hafi":4287,"Joyson":4288,"Muivah":4289,"CHONGLOI":4290,"##agar":4291,"##ankei":4292,"NGAM":4293,"JANG":4294,"Rol":4295,"Sr":4296,"##hiam":4297,"##EIBAM":4298,"Ananda":4299,"Marem":4300,"Seiminthang":4301,"Subhash":4302,"Habibur":4303,"Bh":4304,"Bri":4305,"Safi":4306,"Lov":4307,"##zuol":4308,"WANGKH":4309,"##zhi":4310,"##anath":4311,"Rachel":4312,"Sarmila":4313,"##ENDRO":4314,"Bidyalaxmi":4315,"Chingkheinganba":4316,"Hming":4317,"Leihao":4318,"Shahi":4319,"Khon":4320,"##thieng":4321,"Kirankumar":4322,"MAK":4323,"##PHY":4324,"RANJIT":4325,"Aya":4326,"GO":4327,"Ira":4328,"Nen":4329,"Bijiya":4330,"Was":4331,"##mun":4332,"Anjana":4333,"Reg":4334,"Ibotomba":4335,"##angamba":4336,"KAP":4337,"Lhang":4338,"Rv.":4339,"##pra":4340,"##jakim":4341,"##lianching":4342,"BO":4343,"Em":4344,"##shun":4345,"##imudin":4346,"Chesham":4347,"William":4348,"Tedar":4349,"(L)":4350,"Wis":4351,"##O!":4352,"##oja":4353,"Lamneichong":4354,"Thei":4355,"##lianmang":4356,"Joshua":4357,"##diliu":4358,"Heni":4359,"Urikhinbam":4360,"Mv":4361,"Pari":4362,"##ug":4363,"##jing":4364,"Laip":4365,"##okanta":4366,"##thuilung":4367,"Nonibala":4368,"Guni":4369,"##CE":4370,"##neiching":4371,"Sahid":4372,"Maharabam":4373,"Durga":4374,"Nesha":4375,"Roj":4376,"##IRAN":4377,"Francis":4378,"##undreimayum":4379,"Hirom":4380,"Jou":4381,"Ns.":4382,"Zar":4383,"Langol":4384,"Athili":4385,"LOIT":4386,"haokip":4387,"Jaya":4388,"Hemolata":4389,"Longmei":4390,"Hatneikim":4391,"HU":4392,"Shon":4393,"##kangbam":4394,"##bul":4395,"##asakhi":4396,"Ruksana":4397,"Bishworjit":4398,"Gitarani":4399,"MK":4400,"##orei":4401,"Hanglem":4402,"Bishnu":4403,"Tarubi":4404,"CHAOBA":4405,"Langam":4406,"Sushma":4407,"Kapani":4408,"Gunamani":4409,"##araj":4410,"Nilakanta":4411,"Muhamad":4412,"##ut":4413,"##LEI":4414,"##rong":4415,"##arei":4416,"Shari":4417,"##THI":4418,"##shakhi":4419,"Radh":4420,"##chunliu":4421,"##PHA":4422,"##bana":4423,"##uanlung":4424,"##ullah":4425,"Kumudini":4426,"##shon":4427,"##itin":4428,"Abeda":4429,"Kung":4430,"##inganbi":4431,"##biek":4432,"Daihrii":4433,"ongbi":4434,"##emba":4435,"Dhanabir":4436,"HEN":4437,"LI":4438,"Nisa":4439,"Nandarani":4440,"Sera":4441,"Nanaobi":4442,"Dhanachandra":4443,"Khulpu":4444,"Chitaranjan":4445,"AHAM":4446,"BAB":4447,"Warish":4448,"##gh":4449,"Thangnei":4450,"Chet":4451,"Samila":4452,"##zahat":4453,"Seema":4454,"Tual":4455,"SHANTI":4456,"Sakhi":4457,"Lalhming":4458,"Romola":4459,"Raihing":4460,"Raikhan":4461,"##chipem":4462,"Sharatchandra":4463,"Pushparani":4464,"Chinglemba":4465,"Kin":4466,"##eli":4467,"##ongam":4468,"Yumkham":4469,"##roy":4470,"##chen":4471,"Rajiya":4472,"Ronita":4473,"CHANAM":4474,"Satya":4475,"Dha":4476,"Hr":4477,"##dina":4478,"##dhar":4479,"Mayar":4480,"Lot":4481,"Shyamjai":4482,"Sira":4483,"KHUL":4484,"Shiv":4485,"Heirangkhongjam":4486,"Langoljam":4487,"Niran":4488,"Vum":4489,"##mir":4490,"##iu":4491,"##pil":4492,"Matia":4493,"##zia":4494,"##muanching":4495,"Borni":4496,"Mukta":4497,"Mik":4498,"##hujam":4499,"##tai":4500,"##BEM":4501,"##gongliu":4502,"Okendro":4503,"Laipubam":4504,"GIN":4505,"LUN":4506,"Dhaneshwori":4507,"##NEILHING":4508,"MEMCHA":4509,"Tantanga":4510,"AKOIJAM":4511,"Hb.":4512,"MEET":4513,"Up":4514,"##cilla":4515,"SINGSON":4516,"Dimngel":4517,"Mangijao":4518,"KO":4519,"Levi":4520,"Ot":4521,"##iting":4522,"Ngari":4523,"##SHIM":4524,"Basei":4525,"Kanghujam":4526,"THONG":4527,"Komuni":4528,"Tara":4529,"Bariam":4530,"Thaballei":4531,"Randhoni":4532,"##gang":4533,"##ole":4534,"Puk":4535,"##BIAK":4536,"Ibeyai":4537,"Ngaoni":4538,"KONSAM":4539,"Ashokumar":4540,"##akap":4541,"##untala":4542,"Thanglal":4543,"Shyamo":4544,"SAPAM":4545,"NGANGOM":4546,"Ly":4547,"##nal":4548,"##sum":4549,"##hom":4550,"##umei":4551,"Khati":4552,"Thambalsana":4553,"Tamubi":4554,"Tah":4555,"##UE":4556,"##oranjan":4557,"##thiem":4558,"##puii":4559,"##chungliu":4560,"Linda":4561,"##jinliu":4562,"AWUNGSHI":4563,"Ajoy":4564,"##PAK":4565,"##olu":4566,"##dinang":4567,"Sureiya":4568,"Bindiya":4569,"BIDY":4570,"##muon":4571,"Subashini":4572,"Nobin":4573,"Hal":4574,"Jat":4575,"Todar":4576,"Lalsang":4577,"Lungai":4578,"IBEMCHA":4579,"IROM":4580,"Ghan":4581,"Rou":4582,"ee":4583,"##oba":4584,"Saban":4585,"Sundar":4586,"SARANGTHEM":4587,"Jasmin":4588,"Hamom":4589,"Land":4590,"Tul":4591,"Puja":4592,"##houwa":4593,"Alice":4594,"##chungla":4595,"Momina":4596,"Bel":4597,"Dh":4598,"Ur":4599,"##VEI":4600,"Tampakleima":4601,"##dhu":4602,"##POKPAM":4603,"Pavei":4604,"Daimei":4605,"Padam":4606,"CHONGTHAM":4607,"Besa":4608,"Sung":4609,"SUM":4610,"##WAR":4611,"##tap":4612,"Indram":4613,"##tinmang":4614,"Hatneilhing":4615,"Hera":4616,"Open":4617,"SE":4618,"##AIJAM":4619,"##reiphi":4620,"Rosy":4621,"Hassan":4622,"Rashid":4623,"Leirentombi":4624,"CHOTHE":4625,"Carol":4626,"Chandrakala":4627,"Boni":4628,"Amos":4629,"Karna":4630,"Adaha":4631,"##malsawm":4632,"Christina":4633,"Bram":4634,"BIMOL":4635,"PUR":4636,"khan":4637,"##khanniang":4638,"Nemneichong":4639,"##chinthang":4640,"Kanhai":4641,"##chiin":4642,"ATHOKPAM":4643,"LOITONGBAM":4644,"KAN":4645,"Moni":4646,"##L.":4647,"##shumbam":4648,"Premika":4649,"##akhup":4650,"Marina":4651,"Beda":4652,"##sida":4653,"##HANBI":4654,"Thiumai":4655,"Jaykumar":4656,"Ren":4657,"Thangboi":4658,"Khangenbam":4659,"Liang":4660,"Daili":4661,"Kapesa":4662,"SHYAM":4663,"LEIMAPOKPAM":4664,"Paominthang":4665,"Arif":4666,"Nomita":4667,"VASHUM":4668,"DA":4669,"Js.":4670,"Lk.":4671,"Vis":4672,"##SO":4673,"##THA":4674,"##hui":4675,"##atombi":4676,"Ina":4677,"##khanlian":4678,"##HOIH":4679,"##ci":4680,"##shnam":4681,"Moti":4682,"Mohen":4683,"Tami":4684,"##wonla":4685,"Kaihrii":4686,"Poudyal":4687,"Jil":4688,"ME":4689,"##yson":4690,"##WA":4691,"Laikangbam":4692,"Ibemnungshi":4693,"Makan":4694,"##zalal":4695,"Dor":4696,"Jar":4697,"##tlu":4698,"Khunjamayum":4699,"Yangya":4700,"Ngoubi":4701,"Bhogen":4702,"Zai":4703,"##punii":4704,"##khual":4705,"Madina":4706,"##jel":4707,"##hori":4708,"##neihat":4709,"Anish":4710,"Dasumati":4711,"MAISNAM":4712,"MEMA":4713,"Imocha":4714,"##brata":4715,"Il":4716,"Jal":4717,"NAN":4718,"PAN":4719,"##rungbam":4720,"Deva":4721,"Loitam":4722,"Shangh":4723,"Tompok":4724,"Raleng":4725,"Noyon":4726,"##dal":4727,"##tri":4728,"##hanu":4729,"Angela":4730,"Tonsing":4731,"Tomui":4732,"lbecha":4733,"Ngoun":4734,"Olivia":4735,"KI":4736,"MER":4737,"##uba":4738,"##MED":4739,"##ayan":4740,"##ipem":4741,"Kash":4742,"Rajmani":4743,"##AKHAM":4744,"Somo":4745,"Somola":4746,"##GOLSHEM":4747,"##HRII":4748,"##SHO":4749,"##hlim":4750,"Romina":4751,"Lhingneithem":4752,"Gambhir":4753,"Bidyasagar":4754,"Bik":4755,"Hemo":4756,"Panti":4757,"GUR":4758,"JA":4759,"##pen":4760,"##PU":4761,"##zou":4762,"##ingamliu":4763,"Bishwa":4764,"Luikham":4765,"Mangolnganbi":4766,"Kanshouwa":4767,"Rv":4768,"##udi":4769,"Thasana":4770,"##khanmang":4771,"Shyamchand":4772,"##thailung":4773,"Cather":4774,"Isaac":4775,"Bit":4776,"VUNG":4777,"##yile":4778,"Bil":4779,"##ipi":4780,"##ando":4781,"Shum":4782,"Tharo":4783,"##ingamla":4784,"LAIR":4785,"Tomchou":4786,"Khullakpam":4787,"Bishwarjit":4788,"Gl":4789,"ro":4790,"##hlu":4791,"##jamang":4792,"##antak":4793,"Daimai":4794,"Athisii":4795,"Rukeiya":4796,"Adahra":4797,"Sabanam":4798,"##Ning":4799,"##g.":4800,"##uo":4801,"##DUR":4802,"Suni":4803,"Neta":4804,"##odam":4805,"Shanglakpam":4806,"Nurul":4807,"##SA":4808,"##ailung":4809,"Thangminlun":4810,"Josh":4811,"Nelia":4812,"##balmayum":4813,"Priyobarta":4814,"RAHMAN":4815,"HIJAM":4816,"Bei":4817,"DHAN":4818,"Shoi":4819,"##IBALA":4820,"##GOU":4821,"##irani":4822,"And":4823,"Kammei":4824,"Rekha":4825,"##wibou":4826,"##khongbam":4827,"Bidyaluxmi":4828,"Lemba":4829,"Wilson":4830,"DAI":4831,"Leng":4832,"Ong":4833,"Zakir":4834,"##muang":4835,"##anuel":4836,"Iboyai":4837,"IND":4838,"Nimaichand":4839,"Ngouba":4840,"Timothy":4841,"Heng":4842,"HUS":4843,"Tal":4844,"##ula":4845,"##nganba":4846,"Bobi":4847,"Guang":4848,"##muanthang":4849,"##goumang":4850,"##thonliu":4851,"AY":4852,"Ed":4853,"Hodam":4854,"Lala":4855,"Pr.":4856,"##SUAN":4857,"##TO":4858,"##fia":4859,"Biram":4860,"Amumacha":4861,"Suantak":4862,"Maniton":4863,"Luikang":4864,"KHUMANTHEM":4865,"Ketuki":4866,"##bei":4867,"Ngoru":4868,"##elu":4869,"Sachi":4870,"##andram":4871,"Chingsubam":4872,"Rajendra":4873,"##IRU":4874,"Shimrei":4875,"##thianlal":4876,"Maso":4877,"Noor":4878,"##SAIN":4879,"Haridas":4880,"Binodkumar":4881,"Mana":4882,"##je":4883,"##ze":4884,"Bisho":4885,"Ngur":4886,"Nag":4887,"Maning":4888,"Eloni":4889,"##phamani":4890,"Pradeep":4891,"##chard":4892,"Win":4893,"##lom":4894,"##lur":4895,"##kin":4896,"##jik":4897,"##anjali":4898,"##biya":4899,"Thanga":4900,"Chingngai":4901,"Nengneithem":4902,"Phundreimayum":4903,"##ustin":4904,"Keinahanbi":4905,"Achoi":4906,"Kao":4907,"Lakh":4908,"PE":4909,"Teshil":4910,"##ush":4911,"Samar":4912,"Nengneilam":4913,"##orence":4914,"Chamroy":4915,"Thuam":4916,"Kunjabihari":4917,"AZ":4918,"Sik":4919,"##sini":4920,"##liana":4921,"Leisang":4922,"##INEI":4923,"##kahao":4924,"Joel":4925,"##ILI":4926,"Mikhu":4927,"Mery":4928,"Manorama":4929,"Sorensangbam":4930,"Madhumati":4931,"Tuan":4932,"##NAO":4933,"##UNGD":4934,"Tamphamani":4935,"LAMKANG":4936,"CHINGAKHAM":4937,"##woshi":4938,"Korung":4939,"Hinga":4940,"Mot":4941,"##ingah":4942,"##khoting":4943,"Sunolata":4944,"Somokanta":4945,"lbema":4946,"Kaping":4947,"##gapam":4948,"MAH":4949,"##les":4950,"##neithang":4951,"Thangminlal":4952,"Lhingboi":4953,"Malsawm":4954,"Sandyarani":4955,"lbempishak":4956,"Helena":4957,"##UKCHAM":4958,"GANGMEI":4959,"Gomti":4960,"Dinachandra":4961,"Indramani":4962,"Elam":4963,"Luan":4964,"Lunghar":4965,"Law":4966,"Nabad":4967,"##ISHAK":4968,"Thangsuan":4969,"Naosh":4970,"Phen":4971,"Rebita":4972,"##tone":4973,"##neh":4974,"Nilachandra":4975,"Sw.":4976,"Shoibam":4977,"ASH":4978,"TING":4979,"##ten":4980,"##reni":4981,"Mashangva":4982,"Jonson":4983,"Sanjitkumar":4984,"Manaobi":4985,"Nazima":4986,"##SAN":4987,"Bebe":4988,"Ashiphro":4989,"Umabati":4990,"Madhubala":4991,"Sharif":4992,"Inaomacha":4993,"Akh":4994,"Rum":4995,"##zakim":4996,"##rak":4997,"##HANI":4998,"Kanga":4999,"##ziini":5000,"##ashyam":5001,"Khundom":5002,"Geetarani":5003,"Hopeson":5004,"Bang":5005,"DI":5006,"KASH":5007,"Pol":5008,"Tomcha":5009,"##HU":5010,"##R.":5011,"##jt":5012,"##VA":5013,"##shin":5014,"##iman":5015,"##hongbam":5016,"Angel":5017,"Birendra":5018,"Mamata":5019,"Braja":5020,"Ronald":5021,"DANG":5022,"Nesa":5023,"RAD":5024,"##dum":5025,"##ss":5026,"Somananda":5027,"Tarao":5028,"##guiliu":5029,"Kabrabam":5030,"Sakila":5031,"Yasmin":5032,"Mumtaz":5033,"Kr.":5034,"Tokpam":5035,"YENG":5036,"##tak":5037,"Rap":5038,"Ningkhan":5039,"NGAN":5040,"Yaish":5041,"YUMK":5042,"##ziio":5043,"Taibang":5044,"Chhetri":5045,"Hingba":5046,"Veronica":5047,"LET":5048,"Sui":5049,"SAI":5050,"##yenjam":5051,"##buddin":5052,"Abel":5053,"##leu":5054,"Achoibam":5055,"Mit":5056,"Mombi":5057,"VS":5058,"ae":5059,"##oung":5060,"##jee":5061,"##anjit":5062,"Ngay":5063,"Kajal":5064,"##jinang":5065,"Domini":5066,"KHUMUKCHAM":5067,"Ngaran":5068,"MATE":5069,"HUSSAIN":5070,"Kr":5071,"Nakh":5072,"##BAL":5073,"##fel":5074,"##QUE":5075,"##vine":5076,"##rihongbam":5077,"Haorungbam":5078,"Lalrin":5079,"##THOI":5080,"##thanliu":5081,"Dolly":5082,"Tembi":5083,"SUSH":5084,"Laisram":5085,"Fatima":5086,"YUMKHAIBAM":5087,"Bd":5088,"Hakim":5089,"Kem":5090,"NAJ":5091,"Zia":5092,"##zangai":5093,"##anjay":5094,"Sh.":5095,"Sunanda":5096,"Manit":5097,"Thambou":5098,"Rajiv":5099,"Naoshekpam":5100,"RK.":5101,"##XMI":5102,"Haojam":5103,"Richard":5104,"Bimota":5105,"##ziine":5106,"##horla":5107,"Hoikhoneng":5108,"BIJ":5109,"Linthoi":5110,"Santikumar":5111,"Lhanghal":5112,"Kri":5113,"VEI":5114,"YAI":5115,"##ko":5116,"##PUI":5117,"##jou":5118,"##umuan":5119,"##khoching":5120,"##erjan":5121,"Roshi":5122,"Amjad":5123,"Chau":5124,"Mawi":5125,"Gaitha":5126,"##ace":5127,"##RANG":5128,"##khokai":5129,"##khoman":5130,"Soro":5131,"Ranita":5132,"##lenthang":5133,"Samim":5134,"##leibi":5135,"Nurjahan":5136,"##othabam":5137,"Yaishkul":5138,"Nun":5139,"Rd.":5140,"##NUN":5141,"##win":5142,"##khoniang":5143,"Sagapam":5144,"Thangkholun":5145,"Thao":5146,"Pukhrihongbam":5147,"Nongthon":5148,"Sony":5149,"Rone":5150,"Hoineikim":5151,"Mangoljao":5152,"LHINGNEI":5153,"Dinam":5154,"##lhai":5155,"##nou":5156,"##ANU":5157,"Haoro":5158,"Nandak":5159,"##ERO":5160,"##pyari":5161,"##C.":5162,"##bet":5163,"Lalruot":5164,"##lunching":5165,"##eela":5166,"Kimneilhing":5167,"##chonbam":5168,"Mona":5169,"Nancy":5170,"Syl":5171,"Nazir":5172,"Leihaothabam":5173,"Bur":5174,"Eng":5175,"ING":5176,"NAND":5177,"Biken":5178,"Phul":5179,"Khadi":5180,"##AYA":5181,"Subash":5182,"##hoihkim":5183,"Kayina":5184,"MOHD":5185,"Sala":5186,"SOU":5187,"##NEM":5188,"##eir":5189,"##erou":5190,"Saf":5191,"##asana":5192,"##chet":5193,"##sial":5194,"Binasakhi":5195,"##khansuan":5196,"Krishnam":5197,"KHUND":5198,"Modhubala":5199,"Pfokre":5200,"BIR":5201,"Bd.":5202,"HOI":5203,"POU":5204,"Tanu":5205,"##mui":5206,"##pon":5207,"##imbam":5208,"##lauddin":5209,"Mainam":5210,"Maichon":5211,"Ibosana":5212,"##john":5213,"Angousana":5214,"Florence":5215,"Dash":5216,"E.":5217,"Mv.":5218,"##ng.":5219,"Shad":5220,"Shus":5221,"Khoin":5222,"##japao":5223,"Modar":5224,"##goulal":5225,"##CHUNG":5226,"Temba":5227,"##pineng":5228,"BAHA":5229,"##mita":5230,"##ubou":5231,"##joi":5232,"Kambam":5233,"##minlien":5234,"##UNA":5235,"Grac":5236,"Janaki":5237,"##AILAT":5238,"##tson":5239,"##urani":5240,"Chui":5241,"Abraham":5242,"##UMAYUM":5243,"Hajar":5244,"Nandita":5245,"Sunilkumar":5246,"Sanjrambam":5247,"Danii":5248,"##ayenti":5249,"KHOM":5250,"Geetchandra":5251,"Huiningshumbam":5252,"Haorokcham":5253,"HAS":5254,"##bing":5255,"##santa":5256,"Manimacha":5257,"Haomin":5258,"##piyari":5259,"##biaklian":5260,"##khonliu":5261,"Bobby":5262,"Munal":5263,"##EETA":5264,"##relo":5265,"MOHAMMAD":5266,"Ling":5267,"Ravi":5268,"Leichonbam":5269,"##ander":5270,"Sarina":5271,"##harmayum":5272,"Nabak":5273,"##ngaihkim":5274,"##suanthang":5275,"Hajarimayum":5276,"GAI":5277,"Sok":5278,"Leirik":5279,"Margar":5280,"Lhingneihoi":5281,"Hatneichong":5282,"Subhachandra":5283,"##ishore":5284,"Sarif":5285,"##AILATPAM":5286,"Hit":5287,"Sp":5288,"kipgen":5289,"##bun":5290,"Shakhitombi":5291,"Kadi":5292,"Rameshwor":5293,"Shanglai":5294,"##thabam":5295,"Khommei":5296,"Tingnei":5297,"Ronel":5298,"##lakliu":5299,"##lakbou":5300,"Hasan":5301,"Boyai":5302,"Kip":5303,"Toni":5304,"Tika":5305,"##POK":5306,"Abhi":5307,"Bind":5308,"##KHU":5309,"##CHU":5310,"Hasim":5311,"Khiu":5312,"Ata":5313,"Akash":5314,"Dah":5315,"Oni":5316,"##sila":5317,"##elam":5318,"Khumal":5319,"Sova":5320,"##imawi":5321,"Jee":5322,"LA":5323,"##bini":5324,"##bia":5325,"Aso":5326,"Meitankei":5327,"##uanang":5328,"Surendra":5329,"Shankar":5330,"##bed":5331,"Toshil":5332,"Temui":5333,"Dominic":5334,"Lol":5335,"##PATI":5336,"##RING":5337,"##JU":5338,"##isi":5339,"##hoichong":5340,"##ngaiching":5341,"Henia":5342,"##rew":5343,"Deepa":5344,"Shuba":5345,"KEISHING":5346,"THINGUJAM":5347,"BAHADUR":5348,"Dy":5349,"LIAN":5350,"##vak":5351,"##kholian":5352,"Thangchin":5353,"Rohen":5354,"Ele":5355,"Chisa":5356,"Lax":5357,"Raising":5358,"##AJIT":5359,"Rahamani":5360,"Broj":5361,"Silas":5362,"KHUNDONGBAM":5363,"Alung":5364,"Kombi":5365,"KONG":5366,"YANG":5367,"##dit":5368,"##buanliu":5369,"##FI":5370,"##emi":5371,"##pamacha":5372,"Thanggin":5373,"##atum":5374,"Mayon":5375,"##ARE":5376,"Khamnam":5377,"##AJUDDIN":5378,"##eroda":5379,"Rashida":5380,"Momota":5381,"Bormani":5382,"Hriini":5383,"##rabai":5384,"Khelen":5385,"Kunjabati":5386,"Chauhan":5387,"SINAM":5388,"##hyarani":5389,"##bel":5390,"##bila":5391,"Puina":5392,"##BIR":5393,"Mazi":5394,"Lamkhoneng":5395,"##ABATI":5396,"##NIANG":5397,"Hesh":5398,"NI.":5399,"Saya":5400,"##NU":5401,"##dan":5402,"Singa":5403,"Leirang":5404,"##siiru":5405,"##shad":5406,"##bitra":5407,"BA":5408,"##eh":5409,"##onai":5410,"##bahadur":5411,"##anial":5412,"Hap":5413,"##suanching":5414,"Chanamthabam":5415,"Khadka":5416,"PURN":5417,"Af":5418,"##tung":5419,"Laldin":5420,"Haokip.":5421,"##eed":5422,"##zagin":5423,"Thoibisana":5424,"SHAI":5425,"##CHAND":5426,"Latif":5427,"MEETEI":5428,"Jila":5429,"NAS":5430,"##aih":5431,"##rawon":5432,"Thohrii":5433,"Amurei":5434,"Sareo":5435,"Sangom":5436,"THOT":5437,"##kishwar":5438,"Mish":5439,"Rabiya":5440,"Bharat":5441,"Urikhimbam":5442,"Manitomba":5443,"Khoinaijam":5444,"Awon":5445,"KAB":5446,"##NGAN":5447,"Lamneithem":5448,"Shangrei":5449,"Dinah":5450,"Lanchen":5451,"Dinamani":5452,"Jum":5453,"KUN":5454,"SIT":5455,"WOR":5456,"##w.":5457,"##riang":5458,"Sakhenbi":5459,"Sama":5460,"Samad":5461,"Sharon":5462,"Tama":5463,"##AJO":5464,"Jibon":5465,"Bidyalakshmi":5466,"Jimmy":5467,"Ithoi":5468,"King":5469,"LAN":5470,"SAK":5471,"Ze":5472,"##P.":5473,"##rui":5474,"##thoki":5475,"##dash":5476,"##lianlal":5477,"Samandram":5478,"Kangba":5479,"##jaobi":5480,"Joyshree":5481,"Sian":5482,"##sinlung":5483,"Ish":5484,"##hii":5485,"Moshil":5486,"##BIJAM":5487,"##liankim":5488,"Amuchou":5489,"Rahamjan":5490,"Thanil":5491,"Rukshana":5492,"Tolen":5493,"Khalida":5494,"Shitaljit":5495,"KANGABAM":5496,"Acharya":5497,"Ber":5498,"Dik":5499,"Shong":5500,"##JANA":5501,"##khini":5502,"##hiamliu":5503,"Mark":5504,"##ENI":5505,"Pukhram":5506,"Daime":5507,"Sushilkumar":5508,"NUR":5509,"##NY":5510,"##KHAI":5511,"##aiba":5512,"##javah":5513,"Panthoi":5514,"Komol":5515,"##mawii":5516,"MAYENGBAM":5517,"JAMES":5518,"Keinya":5519,"Chouhan":5520,"Urmila":5521,"JAJO":5522,"##zakap":5523,"##ent":5524,"Thoit":5525,"##neiting":5526,"DEB":5527,"Shri":5528,"##shikumar":5529,"Rejiya":5530,"Liv":5531,"Dhaneshwor":5532,"Jangkholun":5533,"##under":5534,"Itocha":5535,"RAJKUMARI":5536,"Gokul":5537,"TIN":5538,"##khojam":5539,"Rosem":5540,"Louni":5541,"Elow":5542,"Buda":5543,"Tungshil":5544,"Hoineilhing":5545,"##gopal":5546,"Joute":5547,"Lydia":5548,"AHONG":5549,"##RUJAM":5550,"Maj":5551,"Rahima":5552,"Nasim":5553,"IM":5554,"LOK":5555,"Lv.":5556,"Nai":5557,"##gan":5558,"##ura":5559,"Moireng":5560,"Sofia":5561,"Prasanta":5562,"##IROM":5563,"Langhu":5564,"Veikho":5565,"##thuom":5566,"Adakho":5567,"Khumallambam":5568,"Chai":5569,"Hanah":5570,"SY":5571,"Sima":5572,"##PAO":5573,"Saka":5574,"Lallawm":5575,"Manoranjan":5576,"Mohan":5577,"Nengneihoi":5578,"Thiu":5579,"Malik":5580,"NINGSH":5581,"Debananda":5582,"SAGOLSEM":5583,"Hoineichong":5584,"MARY":5585,"Gulapi":5586,"##UNGDIM":5587,"IS":5588,"Panii":5589,"RING":5590,"##tip":5591,"##arson":5592,"##charimayum":5593,"Lalzar":5594,"Meri":5595,"##ingamlung":5596,"Shama":5597,"Pamai":5598,"Karung":5599,"Ngambi":5600,"Peace":5601,"Tinkhoneng":5602,"Miya":5603,"Vahneilhing":5604,"MANGLEM":5605,"SONIA":5606,"Subol":5607,"Khagokpam":5608,"Resma":5609,"SI":5610,"##M.":5611,"Sagar":5612,"Lalhm":5613,"Lalbiek":5614,"Kaba":5615,"##INE":5616,"Chal":5617,"Machin":5618,"Boinu":5619,"Shangeeta":5620,"Minar":5621,"##fiya":5622,"##MINLUN":5623,"Sweet":5624,"Wezah":5625,"Bs.":5626,"Mc.":5627,"SAJ":5628,"##nang":5629,"##elei":5630,"##andi":5631,"Chawng":5632,"Salim":5633,"Mothil":5634,"Tongsin":5635,"Malika":5636,"Letminthang":5637,"##chuilung":5638,"##buibou":5639,"##gailu":5640,"Luithui":5641,"MAYA":5642,"Jel":5643,"Ping":5644,"ZING":5645,"Shapam":5646,"Samte":5647,"##ngaikim":5648,"Sekho":5649,"##suanmung":5650,"Sonamani":5651,"Imti":5652,"Minakumari":5653,"Budhachandra":5654,"Bungo":5655,"DO":5656,"##yen":5657,"##ver":5658,"##ongthem":5659,"Maibram":5660,"##iso":5661,"Chingri":5662,"Ambra":5663,"Hemba":5664,"##thiam":5665,"Bojen":5666,"Kebi":5667,"##SIAM":5668,"Sorenshangbam":5669,"Leihaor":5670,"KASHUNG":5671,"Hra":5672,"##RAN":5673,"##was":5674,"##chei":5675,"Mangsi":5676,"##hnung":5677,"Boinao":5678,"Ngachon":5679,"Surajkumar":5680,"Lhingneineng":5681,"Lalhri":5682,"##cheal":5683,"Sudhir":5684,"WANGKHEM":5685,"Ghanashyam":5686,"KHOMD":5687,"LUI":5688,"Asa":5689,"Char":5690,"##odhoni":5691,"Veine":5692,"##NEICHONG":5693,"lbet":5694,"Damu":5695,"Jenita":5696,"##uangliu":5697,"Sahidur":5698,"SUNITA":5699,"Jessi":5700,"Khulpuwa":5701,"Cl":5702,"It":5703,"Jao":5704,"lli":5705,"##tou":5706,"##LE":5707,"##jor":5708,"##fo":5709,"##(O)":5710,"K.S.":5711,"Reziya":5712,"Shyamananda":5713,"Kothil":5714,"##biaklun":5715,"Mohendro":5716,"Wakongthem":5717,"Muktar":5718,"Kulachandra":5719,"LHUNGDIM":5720,"Bam":5721,"GON":5722,"KIRAN":5723,"##gu":5724,"##dong":5725,"##ingou":5726,"Leikham":5727,"##eshyam":5728,"Chandr":5729,"Shenjam":5730,"##khanlal":5731,"Amuthoi":5732,"Radhi":5733,"HAOBIJAM":5734,"Kanmila":5735,"Mirabai":5736,"Mahendra":5737,"##MINLEN":5738,"AMAR":5739,"WAIR":5740,"ARI":5741,"VAH":5742,"##langam":5743,"##BU":5744,"##vek":5745,"##khram":5746,"Ngat":5747,"##eso":5748,"Mashun":5749,"Karaila":5750,"SAND":5751,"Yangoijam":5752,"Ingoba":5753,"##khoih":5754,"Rimai":5755,"Jolly":5756,"Uttam":5757,"Leisangthem":5758,"Joi":5759,"Yo":5760,"##OJ":5761,"##ambou":5762,"##andar":5763,"##HON":5764,"Moinam":5765,"Basan":5766,"Binokumari":5767,"##ESHO":5768,"##shwori":5769,"Julie":5770,"Andrew":5771,"Sylvia":5772,"Vin":5773,"##Thang":5774,"##EDA":5775,"##MALA":5776,"Manlun":5777,"Suman":5778,"Paominlen":5779,"Kolom":5780,"Avi":5781,"Pul":5782,"##DAM":5783,"Thanglun":5784,"##hongnao":5785,"##chek":5786,"Bogi":5787,"Karim":5788,"Deep":5789,"Katwal":5790,"Jaheda":5791,"Moirengjam":5792,"Dhak":5793,"Dk.":5794,"##thin":5795,"##kholien":5796,"Sachin":5797,"Lamtha":5798,"Sob":5799,"##khanvung":5800,"##khanpau":5801,"Loukham":5802,"##usuan":5803,"Amutombi":5804,"Nganing":5805,"Subhas":5806,"Jemson":5807,"ROBIN":5808,"Caroline":5809,"##raba":5810,"##rot":5811,"Lallien":5812,"##ire":5813,"Lambam":5814,"##khamliu":5815,"##bedi":5816,"Chinneilhing":5817,"Sumitra":5818,"Rahena":5819,"VAIPHE!":5820,"Mangsidam":5821,"Duan":5822,"Lor":5823,"RIN":5824,"##RU":5825,"##hira":5826,"Anupama":5827,"Thengujam":5828,"DIN":5829,"LHOU":5830,"SIM":5831,"##OD":5832,"##BE":5833,"##vio":5834,"##theng":5835,"##ungmayum":5836,"Lama":5837,"Pris":5838,"Seikholen":5839,"Mohamad":5840,"##hoihching":5841,"Nungshithoi":5842,"Taiyenjam":5843,"Singamayum":5844,"PRIY":5845,"WAIROKPAM":5846,"Fim":5847,"NAR":5848,"##SEI":5849,"##dah":5850,"##cin":5851,"Lalthan":5852,"Gaipui":5853,"Pratap":5854,"##tinlen":5855,"Gangmei.":5856,"Robertson":5857,"Tharong":5858,"Leishungbam":5859,"Ruivah":5860,"Bishwajit":5861,"En":5862,"Kongbam":5863,"MV":5864,"Nor":5865,"RASH":5866,"ZOU":5867,"##TAR":5868,"##muddin":5869,"##wana":5870,"##hila":5871,"##ete":5872,"Sahida":5873,"Ambika":5874,"Lamneihoi":5875,"Salman":5876,"Marg":5877,"Paumin":5878,"Nemneilam":5879,"##kamliu":5880,"Kunje":5881,"##thailu":5882,"Tikendrajit":5883,"##deih":5884,"Memicha":5885,"Nengneivah":5886,"Keinatombi":5887,"Leishiwon":5888,"NINGSHEN":5889,"Lamthaka":5890,"Jun":5891,"Kis":5892,"PF":5893,"Shor":5894,"##ner":5895,"##ying":5896,"##sou":5897,"##amang":5898,"##EIMAYUM":5899,"##yambam":5900,"Love":5901,"Lamminthang":5902,"Hoikholhing":5903,"Reisang":5904,"Newmei":5905,"Balang":5906,"Angangcha":5907,"Radheshyam":5908,"Aug":5909,"Dr.":5910,"Jer":5911,"Ker":5912,"PHA":5913,"##ker":5914,"Rajak":5915,"Nipamacha":5916,"Kimneichong":5917,"Ronra":5918,"Minarjan":5919,"Hormila":5920,"Leibakleima":5921,"AJ":5922,"Akashini":5923,"Iq":5924,"Kod":5925,"Tot":5926,"Utam":5927,"##Shim":5928,"##hin":5929,"##op":5930,"##aman":5931,"Kheroda":5932,"Thangal":5933,"Maria":5934,"##hoithem":5935,"##shak":5936,"Chiphang":5937,"Paolen":5938,"Borish":5939,"Alta":5940,"Babud":5941,"Thabaton":5942,"Rashitombi":5943,"PRIYA":5944,"IBECHA":5945,"Sunitibala":5946,"Bramha":5947,"Lar":5948,"MOM":5949,"##ie":5950,"##per":5951,"##yui":5952,"##JAO":5953,"##uman":5954,"##khe":5955,"Big":5956,"Nganba":5957,"Maikho":5958,"Kamini":5959,"Muinao":5960,"Khunungmayum":5961,"Hajira":5962,"##chunglu":5963,"Dhanajit":5964,"Subhashini":5965,"Firoj":5966,"SANATOMBI":5967,"##mayo":5968,"Smt.":5969,"Laltlan":5970,"HUIR":5971,"Lambamayum":5972,"Koren":5973,"Lk":5974,"Mol":5975,"Ris":5976,"SK":5977,"THAM":5978,"##dongbam":5979,"##itha":5980,"Martin":5981,"Mag":5982,"##ziisa":5983,"Shangai":5984,"Hatneilam":5985,"Paka":5986,"Mahung":5987,"Vashi":5988,"Tarunkumar":5989,"Karnajit":5990,"YENGKHOM":5991,"Jakir":5992,"##ochana":5993,"##alekha":5994,"##hama":5995,"Lalth":5996,"Kagui":5997,"Bed":5998,"Nengpi":5999,"##THER":6000,"Lid":6001,"AMU":6002,"Thoitak":6003,"Lud":6004,"MI":6005,"Umar":6006,"Yui":6007,"##au":6008,"##aj":6009,"Laibi":6010,"Raingam":6011,"Thangmei":6012,"Lohe":6013,"Rameshwori":6014,"Manjuri":6015,"Meen":6016,"Wanglembam":6017,"Ibemu":6018,"##THUNG":6019,"Abdullah":6020,"##ngaihvung":6021,"##shungmi":6022,"Premijit":6023,"Abungcha":6024,"Urirei":6025,"LANGPOK":6026,"Netrajit":6027,"Mishra":6028,"Sweety":6029,"Radhika":6030,"Bong":6031,"Ky":6032,"Pro":6033,"##nali":6034,"##LY":6035,"##MAR":6036,"##shyam":6037,"Khem":6038,"Ashak":6039,"##shatabam":6040,"Matou":6041,"Sonali":6042,"Tungdar":6043,"Ela":6044,"##RAH":6045,"##zas":6046,"Leila":6047,"##tish":6048,"Nongpok":6049,"Chingthian":6050,"##reipam":6051,"##ENDRA":6052,"##veio":6053,"Matai":6054,"Rahamtun":6055,"Phanei":6056,"ANAL":6057,"Athisa":6058,"PREMILA":6059,"NEW":6060,"##hmingthang":6061,"Shyamkesho":6062,"Aba":6063,"Bm":6064,"##THAR":6065,"##long":6066,"##LAI":6067,"Shun":6068,"Raman":6069,"Chongboi":6070,"Joshila":6071,"Kimneihoi":6072,"NAOBI":6073,"##JALI":6074,"NANAO":6075,"Bramhacharimayum":6076,"LANGPOKLAKPAM":6077,"DIL":6078,"ELI":6079,"Ghim":6080,"Nk":6081,"Un":6082,"##dila":6083,"##wor":6084,"##D.":6085,"##laudin":6086,"Bijita":6087,"Sahe":6088,"Yumshang":6089,"##thangpui":6090,"Asani":6091,"##ariya":6092,"##zapau":6093,"Lunkim":6094,"##NEITHEM":6095,"Ngachan":6096,"Heramani":6097,"Priyadar":6098,"Gaf":6099,"Kasomwoshi":6100,"Motilal":6101,"BU":6102,"KAL":6103,"Nolini":6104,"Poi":6105,"Wan":6106,"##lani":6107,"##yak":6108,"##stone":6109,"##ret":6110,"##anga":6111,"##aola":6112,"Leisan":6113,"Lali":6114,"Abo":6115,"Kholia":6116,"Manbi":6117,"Thiam":6118,"Hena":6119,"##ngaihniang":6120,"Lamkhonei":6121,"Priyojit":6122,"Mongbijam":6123,"Kullachandra":6124,"BEM":6125,"Run":6126,"Ray":6127,"Vel":6128,"##NAI":6129,"##T.":6130,"##TING":6131,"##RE":6132,"##VUM":6133,"##ngang":6134,"Deni":6135,"Thanglien":6136,"Salo":6137,"Neikim":6138,"KHUP":6139,"Vivek":6140,"Sureshkumar":6141,"Waha":6142,"##MINLAL":6143,"THEM":6144,"Goma":6145,"YEN":6146,"##lui":6147,"##LENG":6148,"##BATI":6149,"##VUNG":6150,"Debo":6151,"##imliu":6152,"Katia":6153,"##AKUMAR":6154,"Hatneithem":6155,"Narayan":6156,"Madan":6157,"Phungshok":6158,"Monorama":6159,"Jandho":6160,"Regina":6161,"Hil":6162,"Lesh":6163,"Tari":6164,"THAN":6165,"##cila":6166,"##khopau":6167,"##ayo":6168,"##erzan":6169,"Sadam":6170,"##atai":6171,"Anwar":6172,"Kamsuan":6173,"Mathu":6174,"##uniang":6175,"Namram":6176,"Gunindro":6177,"Miranda":6178,"Pand":6179,"SHING":6180,"##manuel":6181,"##imang":6182,"Gaicham":6183,"Niangthian":6184,"Shimph":6185,"Jitendra":6186,"MUHAM":6187,"JU":6188,"##buk":6189,"##ailu":6190,"##uidang":6191,"Lalng":6192,"Keishang":6193,"Niam":6194,"Paud":6195,"##thaolung":6196,"Rahina":6197,"##sudra":6198,"Parbati":6199,"Ashiho":6200,"Ashihrii":6201,"Dilbung":6202,"##sundar":6203,"Khondram":6204,"Ngounila":6205,"DIM":6206,"##pri":6207,"##zuddin":6208,"##mada":6209,"Nambam":6210,"Kapai":6211,"Nungle":6212,"BID":6213,"Kongrailatpam":6214,"Lamkholhing":6215,"Dolen":6216,"##dev":6217,"Choudhury":6218,"Rapunga":6219,"LHOUVUM":6220,"Akim":6221,"Kel":6222,"MAS":6223,"##mohon":6224,"##jila":6225,"##zek":6226,"##ungliu":6227,"Iben":6228,"Sopem":6229,"Maja":6230,"Thadoi":6231,"Nengtin":6232,"Seikhohao":6233,"Chipem":6234,"Karuna":6235,"##ekhar":6236,"##shimi":6237,"Lamkhochin":6238,"Chitr":6239,"Lhingneivah":6240,"Budhichandra":6241,"lIbo":6242,"Jeevan":6243,"MAJ":6244,"TA":6245,"##SU":6246,"##jak":6247,"##aruddin":6248,"##alei":6249,"##khel":6250,"##oton":6251,"Pati":6252,"Sangai":6253,"Monal":6254,"Boboy":6255,"Khelendro":6256,"Itobi":6257,"Birachandra":6258,"Bheigyabati":6259,"Amitkumar":6260,"Shandhyarani":6261,"Shimphrui":6262,"Ara":6263,"Vai":6264,"##sakhi":6265,"##MU":6266,"##shia":6267,"##khanmuan":6268,"Chinneikim":6269,"Jib":6270,"##dutta":6271,"Menjor":6272,"Hamid":6273,"HORAM":6274,"Chinglensana":6275,"Echan":6276,"Kn":6277,"##dhon":6278,"##PANA":6279,"##sel":6280,"##ingla":6281,"##aso":6282,"##INAO":6283,"Manibabu":6284,"##eev":6285,"Ruhana":6286,"Komu":6287,"Kunjamani":6288,"##khawl":6289,"Islamuddin":6290,"RANJITA":6291,"ARAMBAM":6292,"Lel":6293,"MIN":6294,"SOL":6295,"WON":6296,"##thuanliu":6297,"##imu":6298,"Kheir":6299,"Haorei":6300,"##ulal":6301,"Mubi":6302,"##hoiching":6303,"Sid":6304,"##THO!":6305,"Biju":6306,"Lamkhohoi":6307,"Lenthang":6308,"##phami":6309,"##phamayum":6310,"Somiwon":6311,"Hemapati":6312,"Lilabati":6313,"HANGSHING":6314,"Matouleibi":6315,"Norendro":6316,"Ve":6317,"##iliu":6318,"##kui":6319,"##sunder":6320,"Thourani":6321,"Rakh":6322,"Sag":6323,"Muzi":6324,"Ruangmei":6325,"Hepuni":6326,"Gafar":6327,"Sulochana":6328,"CHAB":6329,"Tangkhul":6330,"Nawaj":6331,"Mh":6332,"Vangam":6333,"Nazi":6334,"Thien":6335,"Prava":6336,"Tony":6337,"##chunghnung":6338,"Sadhana":6339,"Ome":6340,"Loyangamba":6341,"Bet":6342,"Dk":6343,"Non":6344,"Wik":6345,"##aobi":6346,"Satar":6347,"Machun":6348,"##hne":6349,"Shyamsundar":6350,"Govin":6351,"##muanlal":6352,"##biakkim":6353,"Preety":6354,"Ahum":6355,"Km":6356,"NIR":6357,"##ME!":6358,"##anhai":6359,"##ino":6360,"##indra":6361,"Asma":6362,"Subedi":6363,"Muhini":6364,"Bash":6365,"Sanjjit":6366,"RAJEN":6367,"Kharaijam":6368,"Kabrambam":6369,"SORAI":6370,"Korimayum":6371,"Keinahal":6372,"##CKY":6373,"Happ":6374,"Iqbal":6375,"HEL":6376,"Nak":6377,"PAR":6378,"##TAM":6379,"##goi":6380,"##nila":6381,"##uram":6382,"##——":6383,"##inang":6384,"##entina":6385,"##olo":6386,"##reichan":6387,"Jamkho":6388,"Lhingkhonei":6389,"Niangngai":6390,"##wangle":6391,"BISH":6392,"##thanlung":6393,"Vahneikim":6394,"Pooja":6395,"Mohd.":6396,"##HARANI":6397,"Valley":6398,"Shandham":6399,"##ustine":6400,"##buktongbam":6401,"Apam":6402,"Akhom":6403,"Bt.":6404,"Nilla":6405,"##H.":6406,"##oma":6407,"##liani":6408,"Thangjal":6409,"Lalmalsawm":6410,"Manira":6411,"Paogin":6412,"Henam":6413,"##suanlian":6414,"##ERT":6415,"Hekim":6416,"##gougin":6417,"Hriip":6418,"##miniun":6419,"Biramangol":6420,"AHONGSHANGBAM":6421,"Agui":6422,"Gor":6423,"PRAM":6424,"##eb":6425,"Rabei":6426,"Biro":6427,"Leishabi":6428,"Meiraba":6429,"##hnu":6430,"Shyamchandra":6431,"Shamchet":6432,"Pouram":6433,"Karaiba":6434,"Dhaneshwari":6435,"Veinai":6436,"##janglung":6437,"##gailung":6438,"Sania":6439,"Washima":6440,"Sherpa":6441,"MAKAK":6442,"Baseimayum":6443,"CHABUNGBAM":6444,"Aro":6445,"Pong":6446,"Tri":6447,"##Ng":6448,"##kulung":6449,"##rika":6450,"##ilkumar":6451,"##oyaima":6452,"R.K":6453,"Majid":6454,"KHUR":6455,"CHUNG":6456,"Kene":6457,"Shekho":6458,"##jonliu":6459,"Giri":6460,"Pfokreni":6461,"Pradipkumar":6462,"ROSHAN":6463,"Neihsial":6464,"Nongthonbam":6465,"Graceson":6466,"AT":6467,"Nay":6468,"Pani":6469,"Rn":6470,"##vang":6471,"##bidhu":6472,"Shem":6473,"Chingkham":6474,"Martina":6475,"Khumba":6476,"Nengcha":6477,"Dhanbir":6478,"Raina":6479,"##henba":6480,"ANJALI":6481,"Nula":6482,"Boicha":6483,"Shyamkanhai":6484,"lIbe":6485,"Dayabati":6486,"Choudhurimayum":6487,"Pfokrehrii":6488,"Priyadarshini":6489,"Bhak":6490,"Benu":6491,"Doi":6492,"TOM":6493,"##SAW":6494,"##TOMBI":6495,"##ke":6496,"##khal":6497,"##pani":6498,"##wari":6499,"##zel":6500,"##onliu":6501,"Saza":6502,"Lalcha":6503,"Supriya":6504,"##BIKA":6505,"##jian":6506,"##using":6507,"##yoti":6508,"Dhaneshwar":6509,"Jaychandra":6510,"NGA":6511,"Binata":6512,"Jenni":6513,"Modun":6514,"Jeena":6515,"CHIIN":6516,"Punimashi":6517,"Ngariyambam":6518,"Hitler":6519,"Sangomsumbam":6520,"Ashakiran":6521,"##OW":6522,"##juanliu":6523,"##ngah":6524,"##erudin":6525,"DEV":6526,"Lhingjaneng":6527,"Chinngai":6528,"Ricky":6529,"Dhananjay":6530,"##NEILAM":6531,"CHES":6532,"Kuame":6533,"Rahim":6534,"Huimila":6535,"Maipaksana":6536,"##khotinthang":6537,"NEP":6538,"Kalachand":6539,"Dhamen":6540,"Margaret":6541,"##lao":6542,"##yel":6543,"##rita":6544,"##zang":6545,"Devika":6546,"##rasi":6547,"Shaha":6548,"Sanoujam":6549,"SINGAM":6550,"Thiem":6551,"Lut":6552,"##jiliu":6553,"Lunkhomang":6554,"Ronai":6555,"Damayenti":6556,"##DINI":6557,"ANITA":6558,"Prabhabati":6559,"Pfokrelo":6560,"##eswori":6561,"KASAR":6562,"Briam":6563,"DANGSHA":6564,"Khadijan":6565,"Muzibur":6566,"Achung":6567,"Him":6568,"NUNG":6569,"Paite":6570,"POT":6571,"SIR":6572,"##ME":6573,"##khohau":6574,"##uile":6575,"##lamching":6576,"Romibala":6577,"Khunumayum":6578,"Reema":6579,"Rish":6580,"Alf":6581,"##dimliu":6582,"##taranjan":6583,"Abemcha":6584,"Katini":6585,"Kadir":6586,"Linthoinganbi":6587,"Kt.":6588,"RAT":6589,"VAR":6590,"Yak":6591,"##we":6592,"##BOU":6593,"##jari":6594,"##ngou":6595,"##ond":6596,"Ninglum":6597,"Mainali":6598,"Amin":6599,"Inka":6600,"Romoni":6601,"##lalmuan":6602,"##thien":6603,"Rebati":6604,"Ruthi":6605,"Boboi":6606,"Hatkhoneng":6607,"Tonai":6608,"##mawia":6609,"Narmada":6610,"Merai":6611,"Madhur":6612,"##thuam":6613,"Manoharmayum":6614,"Meipakpi":6615,"Baniya":6616,"Wasima":6617,"Ngachonmi":6618,"GONMEI":6619,"Krit":6620,"PS":6621,"Pit":6622,"##kat":6623,"##vita":6624,"##maso":6625,"Chaphamayum":6626,"Leimahal":6627,"Binakumari":6628,"Praful":6629,"Daiho":6630,"##sanam":6631,"Lokeshwar":6632,"Birchandra":6633,"Darshim":6634,"Pf.":6635,"Rangla":6636,"Punshi":6637,"SUND":6638,"Thanglenmang":6639,"Pashot":6640,"Jasmine":6641,"PANMEI":6642,"Bangkim":6643,"Lalhriet":6644,"Lovejoy":6645,"Mathura":6646,"Omega":6647,"Bles":6648,"Met":6649,"REN":6650,"Sd.":6651,"##ror":6652,"##ZAM":6653,"Shakhenbi":6654,"Naga":6655,"Elo":6656,"##lunkim":6657,"##THU":6658,"Karong":6659,"##KHONG":6660,"##neingah":6661,"Hoikim":6662,"Chaobihal":6663,"Athini":6664,"Hmangai":6665,"MALEM":6666,"AHEIBAM":6667,"Kombirei":6668,"Ghimire":6669,"Bokul":6670,"Nat":6671,"Ss.":6672,"SUL":6673,"Talu":6674,"##SUNG":6675,"##hlung":6676,"##pat":6677,"##thuan":6678,"##elo":6679,"Heishnam":6680,"Ramthar":6681,"Sorin":6682,"Surendro":6683,"Lunkholal":6684,"Nirmal":6685,"SHEI":6686,"##suang":6687,"Geetanjali":6688,"##yio":6689,"MONSANG":6690,"Lanchenba":6691,"SER":6692,"Tor":6693,"##lee":6694,"##eon":6695,"##sur":6696,"##sak":6697,"##V.":6698,"Dewan":6699,"##remba":6700,"Bidi":6701,"##namei":6702,"Shachi":6703,"Lalminthang":6704,"Rameshor":6705,"Bebi":6706,"Niv":6707,"Joycy":6708,"##thaipou":6709,"Tajuddin":6710,"##khongmayum":6711,"Buong":6712,"##veen":6713,"HOINEI":6714,"Mustakim":6715,"SYED":6716,"BINA":6717,"GRA":6718,"##RY":6719,"##BO":6720,"##zat":6721,"##onjam":6722,"Aboy":6723,"##IMUDDIN":6724,"Manikho":6725,"Binota":6726,"##arashi":6727,"Sultan":6728,"SHIMRAH":6729,"Sapuni":6730,"Kokngang":6731,"Shubadani":6732,"Gaffar":6733,"HAM":6734,"Jeet":6735,"RAK":6736,"YAIMA":6737,"##lon":6738,"##ulak":6739,"##jah":6740,"##akshi":6741,"Thangsei":6742,"Laldit":6743,"Amo":6744,"Kadam":6745,"##ade":6746,"Shyamsunder":6747,"Bidhu":6748,"Sandeep":6749,"Vicky":6750,"Ashe":6751,"LAMKHO":6752,"Manimohon":6753,"LAIRENJAM":6754,"PEBAM":6755,"HUNG":6756,"Kishor":6757,"Sir":6758,"##Ram":6759,"##wmi":6760,"##jeng":6761,"##aolou":6762,"##eru":6763,"Sarika":6764,"Saroj":6765,"Sofiya":6766,"Jack":6767,"##MACHA":6768,"##chungnung":6769,"Priyobrata":6770,"Thambaltombi":6771,"##nunnem":6772,"Chittaranjan":6773,"CHON":6774,"PURNIMA":6775,"Bs":6776,"HID":6777,"oe":6778,"##pung":6779,"##zakhup":6780,"##bamliu":6781,"##inda":6782,"Thangkhopao":6783,"##VID":6784,"Niro":6785,"Pabitra":6786,"##bemma":6787,"Ibemsana":6788,"##jib":6789,"##ATUN":6790,"Bocha":6791,"Maloti":6792,"##sophy":6793,"Alimuddin":6794,"##biaksang":6795,"Ibungobi":6796,"Hasina":6797,"Newton":6798,"Harip":6799,"Chingkheinganbi":6800,"Jagat":6801,"AHAMED":6802,"Ongnam":6803,"Tanuja":6804,"Bane":6805,"Nis":6806,"Pik":6807,"##kiran":6808,"##hol":6809,"##asing":6810,"Thangmin":6811,"Nengkholhing":6812,"Chinneilam":6813,"##damani":6814,"Tabo":6815,"IBET":6816,"Ashma":6817,"##shol":6818,"Nasima":6819,"Chonmila":6820,"##linliu":6821,"Sobhachandra":6822,"Lalhmang":6823,"Mungrei":6824,"Nomo":6825,"##bands":6826,"Paisho":6827,"##pilhing":6828,"Lidziisa":6829,"Hman":6830,"Kari":6831,"Or":6832,"Rima":6833,"Rt.":6834,"SHI":6835,"Ven":6836,"##yananda":6837,"##ngak":6838,"Bidiya":6839,"Sabita":6840,"Leikhram":6841,"##old":6842,"Anoubi":6843,"Kaphung":6844,"Ranj":6845,"Samjet":6846,"Nengkhohoi":6847,"##thoibi":6848,"Seikholun":6849,"##thansang":6850,"SHAGOLSEM":6851,"##gain":6852,"##CHUI":6853,"Tondonbi":6854,"Juge":6855,"Genevi":6856,"Kabichandra":6857,"Her":6858,"JIB":6859,"RI.":6860,"ZAM":6861,"##CHI":6862,"##rala":6863,"##MUNG":6864,"##nganing":6865,"Ibesana":6866,"Leina":6867,"Leishem":6868,"##iniang":6869,"Chara":6870,"Rame":6871,"Surmala":6872,"##otombi":6873,"Sanglakpam":6874,"Gopeshwor":6875,"Sanii":6876,"Anuwar":6877,"Sakuntala":6878,"Ganesh":6879,"Gojendro":6880,"Gulap":6881,"Ibungomacha":6882,"SHAIZA":6883,"lbetombi":6884,"Abas":6885,"JEN":6886,"Jyoti":6887,"Luni":6888,"##eila":6889,"Thonai":6890,"##lama":6891,"Shadang":6892,"##aton":6893,"##lungbe":6894,"##otla":6895,"Pahari":6896,"##khansiam":6897,"##chamliu":6898,"Gaisin":6899,"##UNGEL":6900,"Letkholun":6901,"Letkholal":6902,"##suanlal":6903,"Dangsa":6904,"Ringphami":6905,"Eliza":6906,"SOPHI":6907,"Mariam":6908,"Mumtaj":6909,"##ESHWORI":6910,"Altaf":6911,"Pay":6912,"Tlang":6913,"anal":6914,"##dik":6915,"##trim":6916,"##CA":6917,"##DDIN":6918,"##liss":6919,"##chul":6920,"##akhu":6921,"Nek":6922,"Neha":6923,"Shamom":6924,"ROH":6925,"Kunjalata":6926,"##PHRAKPAM":6927,"ANAND":6928,"##woda":6929,"Lalhlim":6930,"##basimayum":6931,"##THINGLA":6932,"Khatiwoda":6933,"Shadokpam":6934,"ES":6935,"Keshor":6936,"##KI":6937,"##oda":6938,"##sina":6939,"##Lei":6940,"##EO":6941,"##BOI":6942,"##uning":6943,"##neivah":6944,"Roel":6945,"Shashikanta":6946,"Ramani":6947,"Nashir":6948,"##HANA":6949,"Nengkim":6950,"##zahau":6951,"##KHOLAL":6952,"Hefa":6953,"Mohindro":6954,"Modhuchandra":6955,"Ritu":6956,"SANAHANBI":6957,"##ILIU":6958,"CHESAM":6959,"Lon":6960,"ST":6961,"VI":6962,"Zah":6963,"##nalata":6964,"##red":6965,"##hoil":6966,"##khanlun":6967,"##veiru":6968,"Lawm":6969,"##AJAO":6970,"Khulak":6971,"Bimolchand":6972,"Laksh":6973,"ANGOU":6974,"Shahid":6975,"Dahri":6976,"Babudhon":6977,"Nomosudra":6978,"Bui":6979,"Ithem":6980,"Keng":6981,"LIN":6982,"MUNG":6983,"Wei":6984,"Zon":6985,"##LHOU":6986,"##khochon":6987,"##khovung":6988,"##khra":6989,"Rabin":6990,"Biek":6991,"Chanda":6992,"Roz":6993,"Naoton":6994,"Chalam":6995,"##lunglu":6996,"Khawl":6997,"Haq":6998,"Labuktongbam":6999,"##puia":7000,"Bhag":7001,"CHANAMBAM":7002,"##biakhoih":7003,"Lis":7004,"Py":7005,"RUNG":7006,"RAS":7007,"RANI":7008,"Sina":7009,"SAT":7010,"VI.":7011,"##phon":7012,"Ningam":7013,"Rojina":7014,"Laltan":7015,"Shana":7016,"Maham":7017,"Hatkholhing":7018,"##KHOLUN":7019,"NGANGBAM":7020,"BIS":7021,"##thuilu":7022,"Sonika":7023,"Huyam":7024,"Leibakmacha":7025,"SURJIT":7026,"IBEMHAL":7027,"Machinao":7028,"HUIREM":7029,"Aar":7030,"Aton":7031,"BH":7032,"Punii":7033,"##IO":7034,"##hay":7035,"##ity":7036,"##urou":7037,"##andai":7038,"Muhi":7039,"Jamkholun":7040,"Nengkholam":7041,"Nemjahat":7042,"Karoung":7043,"Jangminthang":7044,"Phaning":7045,"Tula":7046,"Param":7047,"Nodiya":7048,"CHINGTHAM":7049,"Wahid":7050,"Merajao":7051,"Ayajuddin":7052,"GURUMAYUM":7053,"Jessica":7054,"BEMBEM":7055,"Duidang":7056,"Hrai":7057,"Ns":7058,"Nip":7059,"Obed":7060,"##A.":7061,"##YON":7062,"##judin":7063,"##amayum":7064,"##oile":7065,"##tawon":7066,"##thanglien":7067,"Sanjana":7068,"##aikhomba":7069,"Thak":7070,"Job":7071,"Nemneithem":7072,"Ruhi":7073,"Jacin":7074,"Dhani":7075,"Letkhogin":7076,"Basantakumar":7077,"##thuoi":7078,"Khular":7079,"Nobo":7080,"Tungnung":7081,"IRENGBAM":7082,"##chaoba":7083,"##timala":7084,"INAOBI":7085,"Julekha":7086,"##guangliu":7087,"##cilia":7088,"Sovachandra":7089,"Ci":7090,"Jalal":7091,"Nin":7092,"Rd":7093,"Wol":7094,"WARE":7095,"##LO":7096,"##YAIMA":7097,"##'e":7098,"##thengbam":7099,"Khung":7100,"Laleng":7101,"Lohra":7102,"##sibou":7103,"##dinbou":7104,"##otang":7105,"Macha":7106,"##seh":7107,"Letkhohao":7108,"Tenden":7109,"RANJANA":7110,"BIMOLA":7111,"DANGSHAWA":7112,"Ct.":7113,"JIT":7114,"Kali":7115,"Ms":7116,"Tit":7117,"Vak":7118,"##OCHA":7119,"##z.":7120,"##amte":7121,"##eitei":7122,"##bat":7123,"##engam":7124,"Ratana":7125,"##urai":7126,"##riangliu":7127,"Thangkholal":7128,"Premjjit":7129,"Gaigong":7130,"Lii":7131,"Dhaneshori":7132,"Ngamkholun":7133,"##wati":7134,"##khongah":7135,"Yaithengbam":7136,"Sheitya":7137,"RAG":7138,"Lalremruot":7139,"BINO":7140,"Alexander":7141,"Bhubon":7142,"Luckyson":7143,"Surjalata":7144,"Rosemary":7145,"Bom":7146,"Kina":7147,"##wak":7148,"##yaphi":7149,"Shabitri":7150,"##chum":7151,"Huileng":7152,"##lunthang":7153,"Mahai":7154,"Nemkholhing":7155,"Lhingkhohoi":7156,"##AYEN":7157,"Neikholhing":7158,"Hoikholam":7159,"Ringpha":7160,"##muanial":7161,"##zanem":7162,"lbethoi":7163,"Kharka":7164,"PAU":7165,"PAUL":7166,"Apikpi":7167,"Jatra":7168,"KUNJ":7169,"AMARJIT":7170,"ESTHER":7171,"NIM":7172,"Vr.":7173,"##nim":7174,"##PISHAK":7175,"##yon":7176,"##roi":7177,"##wip":7178,"##MOI":7179,"##zur":7180,"##inga":7181,"##khovei":7182,"Sare":7183,"Pashel":7184,"Jamila":7185,"##URAILATPAM":7186,"##suanmang":7187,"Helim":7188,"Faroo":7189,"Bishwanath":7190,"Jayantakumar":7191,"Tedun":7192,"Khogendro":7193,"Zarzo":7194,"DAVID":7195,"Puinabati":7196,"Priscilla":7197,"Shorai":7198,"HE":7199,"MAD":7200,"Phar":7201,"##gita":7202,"##PHAM":7203,"##sim":7204,"##LEMBAM":7205,"##jjt":7206,"##zakham":7207,"##hanba":7208,"##ele":7209,"Thangjangam":7210,"Lalboi":7211,"##eshang":7212,"Kaji":7213,"##sia":7214,"Khumlo":7215,"##KHOLAM":7216,"Kapang":7217,"SHAGOLSHEM":7218,"Shom":7219,"##railakpam":7220,"PHEI":7221,"Dharm":7222,"Mikoi":7223,"Onia":7224,"SITLHOU":7225,"Augustine":7226,"Madhuri":7227,"ASHI":7228,"DAS":7229,"Id":7230,"Kou":7231,"Kud":7232,"Kikim":7233,"LEN":7234,"PAK":7235,"##UEL":7236,"##lhun":7237,"##phom":7238,"##trimayum":7239,"##soi":7240,"##cus":7241,"##Wung":7242,"##viya":7243,"##omang":7244,"##chaobi":7245,"Chinkhoneng":7246,"Arn":7247,"##singliu":7248,"IBOT":7249,"Debarani":7250,"Shok":7251,"##biakching":7252,"Tharmila":7253,"Mathibo":7254,"SANATOMBA":7255,"Tejmani":7256,"Muktarei":7257,"Dangsawa":7258,"Abash":7259,"Bliss":7260,"Joni":7261,"LK":7262,"LS":7263,"Vr":7264,"##singam":7265,"##rul":7266,"##WANG":7267,"##she":7268,"Sa.":7269,"Leishimi":7270,"Lalngai":7271,"Lalpi":7272,"Bashir":7273,"Sochipem":7274,"Jogen":7275,"##eera":7276,"Nemneihoi":7277,"Basira":7278,"##heiba":7279,"Neilam":7280,"Neikhoneng":7281,"Kanon":7282,"##thianching":7283,"Tombing":7284,"Sitarjan":7285,"Holy":7286,"Luwangthem":7287,"Ronaldo":7288,"lliyas":7289,"PRAMO":7290,"(N":7291,"##AZ":7292,"##eth":7293,"##anai":7294,"##imai":7295,"Thoung":7296,"Khud":7297,"##ella":7298,"##isho":7299,"DEE":7300,"Sheela":7301,"##SHINI":7302,"Surjeet":7303,"##janliu":7304,"Hatlhing":7305,"Nara":7306,"Mira":7307,"##nyson":7308,"##heing":7309,"Thanmila":7310,"Remei":7311,"HEIK":7312,"Shakuntala":7313,"SUB":7314,"Khaling":7315,"AHAMAD":7316,"Levis":7317,"Nabadip":7318,"HUNGYO":7319,"Aw":7320,"Jei":7321,"LOU":7322,"TAR":7323,"VIC":7324,"Zak":7325,"##KY":7326,"##kao":7327,"##omala":7328,"##khinbam":7329,"Thangmang":7330,"Charani":7331,"Maren":7332,"Ramyo":7333,"##siirou":7334,"Medar":7335,"Manikanta":7336,"Nemtin":7337,"##dibou":7338,"Ngainei":7339,"Arbin":7340,"Ruh":7341,"Sanga":7342,"Jangkhohao":7343,"##ringla":7344,"##kamal":7345,"##yanbam":7346,"Birbal":7347,"##khaw":7348,"##hauching":7349,"PHIL":7350,"Pungsumbam":7351,"Nityai":7352,"Ngalung":7353,"Jandhabi":7354,"INDIRA":7355,"Itomcha":7356,"Mh.":7357,"Akhongbam":7358,"HL":7359,"KEN":7360,"Loni":7361,"Neni":7362,"bi":7363,"##yola":7364,"##ankumar":7365,"Thone":7366,"##chanphy":7367,"Lamneng":7368,"##adas":7369,"##niliu":7370,"Nishikanta":7371,"Mawon":7372,"Magar":7373,"##tinsei":7374,"Lunminlal":7375,"Jangkholen":7376,"Kuba":7377,"Phanit":7378,"Damud":7379,"##ABE":7380,"Dolendro":7381,"PUYAM":7382,"Ngaopuni":7383,"RUH":7384,"Dutta":7385,"Huiningsubam":7386,"ARUN":7387,"Seityabati":7388,"Serabanu":7389,"Budathoki":7390,"MAKAKMAYUM":7391,"Buan":7392,"ED":7393,"GA":7394,"Ms.":7395,"Nad":7396,"Paikhomba":7397,"SONG":7398,"Tra":7399,"Urit":7400,"##lson":7401,"##eka":7402,"##uingam":7403,"##yani":7404,"##RIN":7405,"##zom":7406,"##theibam":7407,"##ipri":7408,"Sakhitombi":7409,"##ilou":7410,"Kamlal":7411,"##shibala":7412,"Shanjit":7413,"##lunmang":7414,"##chingla":7415,"##thiu":7416,"Khaba":7417,"Kimneilam":7418,"Nambram":7419,"Hatnu":7420,"##jangliu":7421,"Micheal":7422,"##jalal":7423,"Kateni":7424,"Boynao":7425,"Shakmacha":7426,"Selung":7427,"THAPA":7428,"THINGB":7429,"MONIKA":7430,"##thaoliu":7431,"JOHNSON":7432,"Leihaorungbam":7433,"HERO":7434,"Jv.":7435,"Lul":7436,"RITA":7437,"RUK":7438,"##TY":7439,"##kota":7440,"##wma":7441,"Tholung":7442,"Thangkhohao":7443,"Rockson":7444,"Lalsan":7445,"Anna":7446,"Rajeshwar":7447,"##lungle":7448,"Diam":7449,"##muansang":7450,"Khutheibam":7451,"Tombin":7452,"Khullak":7453,"Ajmir":7454,"ROMITA":7455,"##chuingam":7456,"Yahiya":7457,"##suiliu":7458,"Manimala":7459,"##ngachan":7460,"Dhamendra":7461,"Catherine":7462,"BABITA":7463,"ATH":7464,"BAR":7465,"SM":7466,"SHO":7467,"Swar":7468,"Wo":7469,"##nan":7470,"##fam":7471,"##onam":7472,"Ani":7473,"Chingkhan":7474,"Mane":7475,"##bema":7476,"Takhen":7477,"Hemjit":7478,"Seikhomang":7479,"Paosei":7480,"Sii":7481,"Hoilam":7482,"Tahira":7483,"SAGOLSHEM":7484,"Sharatkumar":7485,"PHUNG":7486,"SUNIL":7487,"Bankim":7488,"Niranjan":7489,"Jumera":7490,"DOUNGEL":7491,"Nongpoknganba":7492,"MALEMNGAN":7493,"ACHOU":7494,"Hul":7495,"Kus":7496,"##bor":7497,"##shong":7498,"##ingak":7499,"##khongai":7500,"##liangliu":7501,"Khrasi":7502,"##ilo":7503,"Rajani":7504,"Marry":7505,"##nie":7506,"Meh":7507,"Mechek":7508,"##ONI":7509,"Gaid":7510,"Nemlhing":7511,"Nemchin":7512,"Rubani":7513,"##kiu":7514,"##tamani":7515,"Koshil":7516,"##IKANTA":7517,"Geetabali":7518,"Paulal":7519,"PREMJIT":7520,"Abecha":7521,"Ngouni":7522,"LUNGLENG":7523,"##SEPH":7524,"Chingkhiu":7525,"Laskar":7526,"Ishei":7527,"Jacinta":7528,"Oz":7529,"##KAM":7530,"##GRAKPAM":7531,"##inem":7532,"Thangkhomang":7533,"##ALI":7534,"Jamkhogin":7535,"##upou":7536,"##chonghoi":7537,"##chinkhup":7538,"Namdi":7539,"Nanaocha":7540,"LEIT":7541,"LALH":7542,"Padama":7543,"##deikim":7544,"Sapunii":7545,"Vikram":7546,"Glory":7547,"Rumthao":7548,"SULT":7549,"HEIKRUJAM":7550,"HOR":7551,"LIM":7552,"MS":7553,"Mm":7554,"Yul":7555,"##THAN":7556,"##pfo":7557,"##LAH":7558,"##YAO":7559,"##WO":7560,"Ningtam":7561,"##irin":7562,"Nenglam":7563,"Nengkhochin":7564,"Aruni":7565,"Niangkhan":7566,"Jangvei":7567,"Sumanta":7568,"MOYON":7569,"SANJOY":7570,"Naobicha":7571,"Kiu":7572,"##gouthang":7573,"Remmei":7574,"Radhapyari":7575,"JOSEPH":7576,"RABI":7577,"Bhumeshwar":7578,"Yunglama":7579,"##ANGAMBAM":7580,"Subhashchandra":7581,"Jennifer":7582,"Goi":7583,"KOIJAM":7584,"Nisha":7585,"Pui":7586,"##bhama":7587,"##hoineng":7588,"##arjit":7589,"##omai":7590,"##lie":7591,"Ningtho":7592,"Thangkhosei":7593,"Abesana":7594,"Lamboi":7595,"##shangla":7596,"##lungpou":7597,"Gain":7598,"##LIA":7599,"Debendro":7600,"Thanmi":7601,"Brajam":7602,"Islammuddin":7603,"Thekho":7604,"CHITHUNG":7605,"##mond":7606,"##bashimayum":7607,"Shusila":7608,"##amanjuri":7609,"BRO":7610,"##ger":7611,"##zen":7612,"##angailiu":7613,"Ninghorla":7614,"Meihou":7615,"Anj":7616,"Chinglian":7617,"##pher":7618,"Lokhon":7619,"Mukhi":7620,"##ngamba":7621,"Mobi":7622,"Seimang":7623,"Dineshwar":7624,"Tinneilhing":7625,"Yangmila":7626,"Vahnei":7627,"Thambalngou":7628,"ROJ":7629,"##lyn":7630,"Ragini":7631,"##thuingam":7632,"Wonmila":7633,"Padamani":7634,"Seleibam":7635,"Kayam":7636,"Changsan":7637,"Ngarai":7638,"Madhumangol":7639,"##jeiliu":7640,"Loveson":7641,"Living":7642,"Bul":7643,"FAR":7644,"Ht.":7645,"Ishwar":7646,"Sng.":7647,"Zu":7648,"##dson":7649,"##ZI":7650,"##biliu":7651,"##khuanliu":7652,"##chanphi":7653,"Maik":7654,"Abul":7655,"Jamkhomang":7656,"Jamkhothang":7657,"Lhingkhoneng":7658,"Paolal":7659,"##muanlian":7660,"##NEIH":7661,"Kunjak":7662,"##ASHI":7663,"Pres":7664,"Noh":7665,"Deven":7666,"##UKI":7667,"##deon":7668,"Paominlun":7669,"##eppam":7670,"Roseline":7671,"Suniti":7672,"Lovingson":7673,"SAIKHOM":7674,"Sokha":7675,"KHOMDRAM":7676,"THINGBAIJAM":7677,"Meihoubam":7678,"Alen":7679,"GOL":7680,"PO":7681,"PHAN":7682,"##guni":7683,"##bee":7684,"##YARANI":7685,"##inganba":7686,"##chak":7687,"Chanbi":7688,"Lalpar":7689,"Sorodhoni":7690,"Nenghoi":7691,"Seigin":7692,"Kaine":7693,"Adam":7694,"Gondai":7695,"Tonu":7696,"##ELO":7697,"Wungrei":7698,"##kangmai":7699,"Merry":7700,"Tomal":7701,"ROS":7702,"Kunjeshwori":7703,"Rabikanta":7704,"Jibanmala":7705,"Rako":7706,"##dhaja":7707,"Hoineithem":7708,"Chonjon":7709,"##KHOMANG":7710,"Thangkhanlal":7711,"Lhaineikim":7712,"Memthoibi":7713,"##ghtson":7714,"Ngariyanbam":7715,"BIDYA":7716,"HEROJIT":7717,"BANU":7718,"Cin":7719,"Hr.":7720,"Lyn":7721,"MIL":7722,"Rao":7723,"Tok":7724,"Zv.":7725,"##gum":7726,"##nes":7727,"##patimayum":7728,"##uhon":7729,"##shai":7730,"##wri":7731,"Kaha":7732,"Kath":7733,"Lamlhing":7734,"Nash":7735,"Naham":7736,"##luliu":7737,"##rence":7738,"Aktar":7739,"Ruhani":7740,"SANABAM":7741,"Minthang":7742,"Piyari":7743,"Riyaj":7744,"Boishi":7745,"ROSHNI":7746,"Khadangbam":7747,"##tluong":7748,"Mikhubi":7749,"Ngaranmi":7750,"RUNGSUNG":7751,"Thoungamba":7752,"Athui":7753,"THAR":7754,"##SIT":7755,"##TU":7756,"##lesh":7757,"##eho":7758,"##ion":7759,"##dul":7760,"##amlung":7761,"Rasai":7762,"Thangminlian":7763,"##lamu":7764,"##ilal":7765,"Nongdam":7766,"Surja":7767,"Mek":7768,"##lut":7769,"##bemcha":7770,"##khankhual":7771,"##thiuliu":7772,"##janei":7773,"##lemba":7774,"Ruol":7775,"Bos":7776,"##neu":7777,"Shija":7778,"##wada":7779,"##JITA":7780,"Rahimuddin":7781,"Saratkumar":7782,"Tungnai":7783,"Barun":7784,"Bhabini":7785,"Yarmila":7786,"Riyaz":7787,"Paominlal":7788,"PRAS":7789,"Victory":7790,"INAOCHA":7791,"THAMBAL":7792,"Shamchetshabam":7793,"Chalamba":7794,"Bak":7795,"Pil":7796,"Tei":7797,"YAR":7798,"##thal":7799,"##bashini":7800,"Thangkholen":7801,"##khombi":7802,"Mangshatabam":7803,"Pausuan":7804,"##liansang":7805,"Chinneithem":7806,"Matum":7807,"##naisui":7808,"##goulun":7809,"Guneshwar":7810,"Jean":7811,"Manaoton":7812,"Radhapiyari":7813,"Somipam":7814,"Thoithoiba":7815,"Lalitabi":7816,"Priyolata":7817,"SANGITA":7818,"Surjakanta":7819,"Purnachandra":7820,"Burhan":7821,"SANDH":7822,"ELIZ":7823,"Uritkhinbam":7824,"Tombinou":7825,"Dao":7826,"Eas":7827,"Mali":7828,"Tr":7829,"##oli":7830,"##VE":7831,"##angla":7832,"Ningtharla":7833,"Sajid":7834,"##orani":7835,"Lallung":7836,"Lophro":7837,"Romes":7838,"##reilung":7839,"Nath":7840,"Khangrah":7841,"Manihal":7842,"Kimneithem":7843,"##KHOHAO":7844,"Lunkhohao":7845,"Hoikhochin":7846,"##zaman":7847,"Birla":7848,"Devala":7849,"Nungshirei":7850,"##garwal":7851,"Sanahalbi":7852,"Valui":7853,"Yunus":7854,"Feroj":7855,"BIDYARANI":7856,"Elezabeth":7857,"Kodun":7858,"Arish":7859,"DANI":7860,"Hay":7861,"Janu":7862,"Kodar":7863,"NS":7864,"##obala":7865,"##ute":7866,"##LATA":7867,"##vul":7868,"Thangpao":7869,"Shakhen":7870,"Shumati":7871,"Paveinai":7872,"Heman":7873,"Chinlam":7874,"Chinneihoi":7875,"##zahoi":7876,"Ngaineikim":7877,"Laingam":7878,"##oria":7879,"##anbiak":7880,"##kambou":7881,"Vahneichong":7882,"Pokh":7883,"KHAD":7884,"Kharel":7885,"Giang":7886,"Gideon":7887,"Premapati":7888,"Minarzan":7889,"ZINGKHAI":7890,"Samjetsabam":7891,"Diamond":7892,"Acham":7893,"Jud":7894,"Kingson":7895,"##Shang":7896,"##land":7897,"##ida":7898,"##POU":7899,"##hid":7900,"Sajana":7901,"Lalam":7902,"Kaz":7903,"##ikesh":7904,"Aboi":7905,"Sut":7906,"Mufi":7907,"Nap":7908,"Nengjahat":7909,"Seiminlen":7910,"Kaning":7911,"Jaymati":7912,"##thiankim":7913,"##mary":7914,"lboyaima":7915,"lbeyai":7916,"Koirala":7917,"Lamneineng":7918,"Faruk":7919,"Leishipem":7920,"BASANTA":7921,"Dayapati":7922,"IBOHAL":7923,"##minial":7924,"Hafiz":7925,"SOLOM":7926,"LE":7927,"Star":7928,"TAS":7929,"##ringam":7930,"##GAR":7931,"##zem":7932,"##hok":7933,"Mayori":7934,"Ango":7935,"Mothang":7936,"Joymala":7937,"Bobita":7938,"Sandharani":7939,"Ashakumar":7940,"SAD":7941,"Latasana":7942,"Bhagi":7943,"Hormi":7944,"Munan":7945,"Chandramukhi":7946,"Tamijur":7947,"Bai":7948,"DAR":7949,"NAW":7950,"##TONGBAM":7951,"##sar":7952,"##jok":7953,"##JUDDIN":7954,"##ZAL":7955,"##eijam":7956,"##rati":7957,"##akliu":7958,"Pusham":7959,"Ramsan":7960,"Ramtawon":7961,"Sunny":7962,"Naulak":7963,"Nengchin":7964,"Lhingjahat":7965,"Soma":7966,"Seiminlal":7967,"##tinkim":7968,"Paokho":7969,"THOIT":7970,"Robinchandra":7971,"##OLA":7972,"Helal":7973,"KAMALA":7974,"##uben":7975,"Poudyel":7976,"Telen":7977,"##deva":7978,"##shwari":7979,"##SII":7980,"SHARMA":7981,"THOIBA":7982,"AHMED":7983,"Bhup":7984,"Meitankeishangbam":7985,"Margret":7986,"##SAWM":7987,"Isheihanbi":7988,"Gla":7989,"GEETA":7990,"Sn.":7991,"##ikho":7992,"##BIN":7993,"##angi":7994,"##anglu":7995,"##ithai":7996,"##unu":7997,"##ungshi":7998,"Ningamla":7999,"##ahring":8000,"Kamminthang":8001,"Kahao":8002,"Charoibam":8003,"Babi":8004,"Ksh.":8005,"Jamir":8006,"Reh":8007,"##buing":8008,"SANAJAO":8009,"Khusida":8010,"##KHUP":8011,"##changliu":8012,"Huimi":8013,"Paonai":8014,"Hoineilam":8015,"Sobhashini":8016,"SHIMREI":8017,"Swami":8018,"SURESH":8019,"Debajani":8020,"Medhapati":8021,"RIY":8022,"PAMEI":8023,"WAREPAM":8024,"Apao":8025,"Ds":8026,"Dir":8027,"Ek":8028,"Lv":8029,"NO":8030,"O.":8031,"SUAN":8032,"##TINA":8033,"##eve":8034,"##dini":8035,"##sol":8036,"##eiliu":8037,"Debika":8038,"##khoson":8039,"##khuan":8040,"##neimoi":8041,"Rajmohon":8042,"Lovel":8043,"Lambalmayum":8044,"##lunniang":8045,"Chaothoi":8046,"LAITON":8047,"Radhak":8048,"Ginlal":8049,"Alina":8050,"##kamang":8051,"Konghay":8052,"Sona":8053,"SHAT":8054,"Gouramani":8055,"Thambalshang":8056,"Pangeijam":8057,"Pakpa":8058,"Sitara":8059,"AMOM":8060,"##rabhanu":8061,"ROMA":8062,"Gyaneshwar":8063,"Tondonba":8064,"YANGLEM":8065,"Komuhra":8066,"LEITANTHEM":8067,"Gondaimei":8068,"Kana":8069,"MAM":8070,"Pran":8071,"Zan":8072,"##UAM":8073,"##dailiu":8074,"##JANG":8075,"##ff":8076,"Satish":8077,"Thangsabam":8078,"Rameshwari":8079,"##minhao":8080,"Moita":8081,"Nengjalam":8082,"##jianliu":8083,"Seida":8084,"Tontanga":8085,"Vijay":8086,"Wungram":8087,"Bisheshwar":8088,"YUMLEMBAM":8089,"Brajabi":8090,"Christo":8091,"##timla":8092,"Hmangte":8093,"MOHAMMED":8094,"Nikita":8095,"Vikash":8096,"SERAM":8097,"Jarina":8098,"Polem":8099,"Sobharani":8100,"Vangamla":8101,"LAITONJAM":8102,"Km.":8103,"MEN":8104,"Rn.":8105,"Set":8106,"Tina":8107,"Zin":8108,"##UBALA":8109,"##TOR":8110,"##lel":8111,"##pul":8112,"##bananda":8113,"##rety":8114,"##ZO":8115,"##anang":8116,"##thul":8117,"##race":8118,"Ningrei":8119,"##yabati":8120,"Kameshwar":8121,"Kazing":8122,"Chapa":8123,"Lamnu":8124,"Salma":8125,"Ramina":8126,"##otomba":8127,"##liankhup":8128,"##zahoih":8129,"Seithang":8130,"Hatkholam":8131,"##KHOLEN":8132,"KHU":8133,"Shimreichon":8134,"Hoila":8135,"Kiranjit":8136,"Sushmita":8137,"Marynah":8138,"Surjitkumar":8139,"##sinang":8140,"Pret":8141,"##chunlung":8142,"##khenthang":8143,"SURAJ":8144,"Priyananda":8145,"Bheigyachandra":8146,"Cl.":8147,"SIMTE":8148,"YENDR":8149,"NIRMALA":8150,"Marenmai":8151,"Bol":8152,"Fak":8153,"GUN":8154,"Ghat":8155,"Girani":8156,"MM":8157,"Per":8158,"Way":8159,"##KAR":8160,"##bri":8161,"##EW":8162,"##jol":8163,"##jakhup":8164,"##DANI":8165,"Dey":8166,"##khokhai":8167,"##oilo":8168,"##lik":8169,"##AMANI":8170,"Naose":8171,"##sonlian":8172,"Nawas":8173,"##rene":8174,"Nemhoi":8175,"##sangi":8176,"Neelam":8177,"Chinkholhing":8178,"Rub":8179,"Paothang":8180,"##ginthang":8181,"Ronika":8182,"Bisheshwor":8183,"##IKUMAR":8184,"Gunad":8185,"##suok":8186,"Islao":8187,"Asholi":8188,"Rameshchandra":8189,"Habib":8190,"Chinglembi":8191,"##thienghlim":8192,"Dhakal":8193,"##yakat":8194,"##ABETH":8195,"Gay":8196,"Ik":8197,"##tini":8198,"##MAS":8199,"##DANG":8200,"##vina":8201,"##uno":8202,"##ayanti":8203,"##kheni":8204,"##thangmawi":8205,"##yaphy":8206,"Sanarei":8207,"Lamthang":8208,"Moso":8209,"Meera":8210,"Thangjamang":8211,"Inaotomba":8212,"##piliu":8213,"Ngamsei":8214,"Seingam":8215,"LAIMAYUM":8216,"##thianmuan":8217,"Khuol":8218,"Wareppam":8219,"Atao":8220,"Simeon":8221,"Poonam":8222,"Rosni":8223,"Tungshang":8224,"Baruni":8225,"Ngaopunii":8226,"Ngashan":8227,"REBIKA":8228,"Lhaineichong":8229,"Taruba":8230,"Asiisa":8231,"Vishal":8232,"YENDREMBAM":8233,"Agarwal":8234,"Bao":8235,"Jak":8236,"Judi":8237,"KUM":8238,"Nou":8239,"PISHAK":8240,"SANI":8241,"TAY":8242,"Wel":8243,"YAM":8244,"##KHA":8245,"##HE":8246,"##lot":8247,"##prang":8248,"##yu":8249,"##yala":8250,"##zai":8251,"##DEI":8252,"##ratabam":8253,"##charan":8254,"Haopu":8255,"SINGSIT":8256,"Mangkung":8257,"##jagin":8258,"Ranju":8259,"R.S.":8260,"S.K":8261,"Pukhrem":8262,"Kharay":8263,"Lhingjahoi":8264,"##jaoba":8265,"Rijal":8266,"Hoping":8267,"Jugol":8268,"Sushima":8269,"##RISH":8270,"Rinchui":8271,"Bidyabati":8272,"Jeho":8273,"Shantakumar":8274,"Shilshi":8275,"Hannah":8276,"Tuithung":8277,"TAMANG":8278,"RATAN":8279,"##hoilhing":8280,"Lynda":8281,"Pokhrel":8282,"Hun":8283,"Hani":8284,"Isha":8285,"LUK":8286,"SR":8287,"Vu":8288,"VAL":8289,"##lana":8290,"##ial":8291,"##thum":8292,"Rock":8293,"Khole":8294,"Rama":8295,"Ramshang":8296,"Samita":8297,"Nemboi":8298,"Khayi":8299,"Seikholet":8300,"Ibechoubi":8301,"Thongratabam":8302,"Shimreila":8303,"Letkhomang":8304,"NINGTHO":8305,"Tingneilhing":8306,"ASHA":8307,"Tinkholhing":8308,"Romashini":8309,"Konghar":8310,"Telien":8311,"Ariina":8312,"Dingku":8313,"Anamika":8314,"BABY":8315,"Herachandra":8316,"Ngoruw":8317,"Nakhuru":8318,"SHEIKH":8319,"(N)":8320,"ELIZABETH":8321,"AP":8322,"Ayam":8323,"Ful":8324,"Gani":8325,"NAHA":8326,"##oh":8327,"##ohan":8328,"##ubi":8329,"##b.":8330,"##G.":8331,"##juan":8332,"##zina":8333,"##angal":8334,"##inthang":8335,"##eshkumar":8336,"Shre":8337,"Manglal":8338,"K.S":8339,"Bedamani":8340,"Chongnei":8341,"Thieng":8342,"Nemjalam":8343,"Rebi":8344,"Reamei":8345,"##AKIM":8346,"##unice":8347,"Shimreingam":8348,"##chuilu":8349,"Romapati":8350,"Ngaon":8351,"Kut":8352,"##zaneng":8353,"##ISA":8354,"Pungdila":8355,"Honpam":8356,"SANATHOI":8357,"Sirajuddin":8358,"NAZ":8359,"Irabanta":8360,"##prakash":8361,"Pukeho":8362,"Khatiwada":8363,"Ngoruh":8364,"##ESHORI":8365,"Thouranishabi":8366,"JITEN":8367,"Arnold":8368,"Nongdamba":8369,"Alu":8370,"KR":8371,"Kani":8372,"KUKI":8373,"Lao":8374,"Late":8375,"REI":8376,"Rm.":8377,"TS":8378,"VAN":8379,"##okho":8380,"##shum":8381,"##shanta":8382,"##ungai":8383,"##AMA":8384,"Ningmila":8385,"##ellei":8386,"##EIMA":8387,"##EIYA":8388,"Sukumar":8389,"Sansam":8390,"Sampar":8391,"Tombirei":8392,"Seikholal":8393,"##KHONENG":8394,"Seraj":8395,"##ruwng":8396,"MOD":8397,"##kish":8398,"##ELA":8399,"Yangmi":8400,"Ringkangmai":8401,"Sanjram":8402,"Parhai":8403,"Wontharla":8404,"Ngaorai":8405,"Rohlu":8406,"KHOIS":8407,"SUBA":8408,"Rasid":8409,"Ngalaton":8410,"Ngalawon":8411,"NGAIH":8412,"##uminthang":8413,"Khaleng":8414,"RONRA":8415,"Sikandar":8416,"Tharongou":8417,"SINGAMAYUM":8418,"HIDAM":8419,"Lalhmangai":8420,"JIBAN":8421,"BUD":8422,"Feli":8423,"ICHAN":8424,"Js":8425,"Rm":8426,"Leimui":8427,"Kabir":8428,"Moshang":8429,"Wangshol":8430,"Thagoi":8431,"##khanchin":8432,"##khanmung":8433,"Nemkholam":8434,"Prati":8435,"##ITOMBI":8436,"Pamlei":8437,"Hatneng":8438,"Sijagurumayum":8439,"Ngamkholal":8440,"Shipo":8441,"Philangam":8442,"Daisy":8443,"##OREN":8444,"##NEIHO!":8445,"Wungshungmi":8446,"Songam":8447,"Shingnaisui":8448,"ANGKANG":8449,"Sanamatum":8450,"Hrangbung":8451,"Khoibam":8452,"Thangtinlen":8453,"##banduram":8454,"Chihanpam":8455,"GOP":8456,"MERCY":8457,"Subhaschandra":8458,"DINESH":8459,"Bhagat":8460,"VICTOR":8461,"BROJEN":8462,"Christopher":8463,"Jet":8464,"TEN":8465,"##toi":8466,"##sor":8467,"##LAN":8468,"##MAL":8469,"##jul":8470,"##angbi":8471,"##angjam":8472,"##khozam":8473,"Ninghor":8474,"Sahana":8475,"Chini":8476,"##VIN":8477,"Asane":8478,"Konai":8479,"Kavita":8480,"Angamba":8481,"Thes":8482,"Chongpi":8483,"##lembi":8484,"Chir":8485,"Mr.":8486,"Riz":8487,"##lienthang":8488,"Hoineng":8489,"Letkhothang":8490,"Sushitra":8491,"SANAY":8492,"Tinneichong":8493,"##thuibou":8494,"SHAHANI":8495,"Islauddin":8496,"##zalun":8497,"Lamneiting":8498,"Farid":8499,"Krishnachandra":8500,"lbopishak":8501,"Thouchom":8502,"Dharma":8503,"Sungnem":8504,"Nabadwip":8505,"Mayonmi":8506,"##jakai":8507,"##KHONGJAM":8508,"GRACE":8509,"Leishemba":8510,"Ashini":8511,"HR":8512,"Hesam":8513,"Mimi":8514,"leima":8515,"##dombi":8516,"##rar":8517,"##ngh":8518,"##imala":8519,"##unliu":8520,"##mat":8521,"##urjit":8522,"Thangkholet":8523,"Kaw":8524,"Mangvung":8525,"Angrung":8526,"Sunila":8527,"Samsad":8528,"Ruwng":8529,"##IREI":8530,"Dhanamanjuri":8531,"Jangkholal":8532,"Bemcha":8533,"Tinkholam":8534,"##gaipou":8535,"Thambalmacha":8536,"Thambalmani":8537,"Tomu":8538,"Raku":8539,"MUS":8540,"Baratun":8541,"Lhingneihat":8542,"MANGI":8543,"Victoriya":8544,"Phamila":8545,"Philachon":8546,"Rafijuddin":8547,"Yunush":8548,"##banabi":8549,"Pulamte":8550,"Dharmendra":8551,"SHATSANG":8552,"Ce":8553,"GOU":8554,"RESH":8555,"Ud":8556,"Zem":8557,"evi":8558,"##hero":8559,"##nis":8560,"##CHANG":8561,"##somi":8562,"##liya":8563,"Bisham":8564,"Bicky":8565,"##HONI":8566,"Ame":8567,"Charan":8568,"Mangminthang":8569,"Leimaton":8570,"Marim":8571,"Suren":8572,"##upi":8573,"Nemkhochin":8574,"Hazi":8575,"Seikhogin":8576,"Lungtha":8577,"Karuan":8578,"Bije":8579,"##boti":8580,"Tinneikim":8581,"##jalen":8582,"Wungkhai":8583,"Ngaomei":8584,"##shori":8585,"Athishu":8586,"Masen":8587,"Chonchon":8588,"Wakila":8589,"Dayarani":8590,"Riyazudin":8591,"ROMEN":8592,"ROMESH":8593,"KHOIROM":8594,"Kimneineng":8595,"##phangbam":8596,"Dingthoi":8597,"Ningolleima":8598,"##IBUR":8599,"Bhujel":8600,"Nongyaimayum":8601,"KHULAKPAM":8602,"Dhungel":8603,"Deborah":8604,"Pharung":8605,"Lovely":8606,"Abir":8607,"Dila":8608,"Ked":8609,"MUM":8610,"MAO":8611,"Nes":8612,"Rand":8613,"Silla":8614,"##nel":8615,"##nghak":8616,"##enti":8617,"##ongo":8618,"##oulen":8619,"Chani":8620,"Lalvar":8621,"Mangan":8622,"##reilu":8623,"Elvis":8624,"Jamkholal":8625,"##sanga":8626,"##ingamba":8627,"Riyas":8628,"##ILY":8629,"Shangita":8630,"Hatkhochin":8631,"Pancham":8632,"Neinu":8633,"Dineshwor":8634,"Tingneikim":8635,"BI.":8636,"##ETA":8637,"Shairem":8638,"##angamliu":8639,"Wairakpam":8640,"Tennyson":8641,"Menai":8642,"Taslim":8643,"Gyaneshwori":8644,"Bonny":8645,"Medhabati":8646,"Sahri":8647,"KUMARI":8648,"Khawbung":8649,"Sukur":8650,"Lawrence":8651,"YAIPHA":8652,"Roshibina":8653,"Jibolata":8654,"FARI":8655,"Sz.":8656,"Tad":8657,"Zk.":8658,"##tom":8659,"##buan":8660,"##DON":8661,"Rob":8662,"Naotombi":8663,"Chingnei":8664,"Chahongnao":8665,"Leimajam":8666,"Ramchandra":8667,"Kshet":8668,"##lunlal":8669,"##shamayum":8670,"##lubou":8671,"Manikumar":8672,"##sanglian":8673,"Haji":8674,"N.S.":8675,"##kishwor":8676,"Naran":8677,"Binapani":8678,"Heram":8679,"Shoren":8680,"Kumu":8681,"Ningthemba":8682,"Nasi":8683,"##ESA":8684,"Malasana":8685,"##SANGBAM":8686,"SAMOM":8687,"##IDUR":8688,"##choihoi":8689,"SOMI":8690,"Chandrika":8691,"Manojkumar":8692,"IBEYAIMA":8693,"ROBERT":8694,"Ramijuddin":8695,"Gloria":8696,"Imtiyas":8697,"Bhakta":8698,"##khalem":8699,"IBETOMBI":8700,"Yulhung":8701,"Av":8702,"Bhar":8703,"Lad":8704,"LAK":8705,"ZV":8706,"##Ang":8707,"##ap":8708,"##LET":8709,"##WM":8710,"##emai":8711,"##inbou":8712,"Laiphangbam":8713,"Rati":8714,"Rabita":8715,"##ril":8716,"Leitam":8717,"##orty":8718,"Yumjao":8719,"Nongjai":8720,"Koning":8721,"Chakho":8722,"Lamtin":8723,"Soreingam":8724,"##lenlal":8725,"Akoi":8726,"##ginlal":8727,"Nandalal":8728,"##boineng":8729,"Kanam":8730,"Pramod":8731,"Nepo":8732,"Sunday":8733,"Ahanjao":8734,"Songate":8735,"Dipu":8736,"##neihkim":8737,"Tanoubi":8738,"Yaomila":8739,"Valte":8740,"Homendro":8741,"Zion":8742,"SHAHNI":8743,"Gunabati":8744,"Thouba":8745,"Ushakiran":8746,"Satyajit":8747,"Pandey":8748,"Sopemla":8749,"POTSHANGBAM":8750,"Aaron":8751,"Titus":8752,"PRASAD":8753,"Januka":8754,"KT":8755,"Rt":8756,"SL":8757,"Zeni":8758,"##enao":8759,"##khonieng":8760,"##remi":8761,"##riliu":8762,"##drajit":8763,"Thangkhogin":8764,"Chim":8765,"Marjit":8766,"Machung":8767,"Samukcham":8768,"Gaitri":8769,"Reuben":8770,"Khat":8771,"Jahan":8772,"Sibo":8773,"##KHOTHANG":8774,"##ney":8775,"Lunthang":8776,"Hoikhohat":8777,"Tap":8778,"Letkhosei":8779,"Rahamatun":8780,"HAOR":8781,"Kanmi":8782,"##thianmang":8783,"##biakmuan":8784,"Romenkumar":8785,"Sanjeev":8786,"Wijun":8787,"Wairok":8788,"Chakrab":8789,"TAMPHA":8790,"##thotmi":8791,"Ajijur":8792,"GURUNG":8793,"Kemdina":8794,"SHINGLAI":8795,"Chipemmi":8796,"SULTANA":8797,"Rubeiya":8798,"AHAN":8799,"DAY":8800,"Kevi":8801,"Manda":8802,"Tani":8803,"Uda":8804,"WI":8805,"Zei":8806,"##OBI":8807,"##kum":8808,"##dhan":8809,"##swal":8810,"##JOU":8811,"##aoddin":8812,"##ipa":8813,"Sajabam":8814,"##AIN":8815,"Kata":8816,"##SHIL":8817,"Sunar":8818,"Jamang":8819,"Maw":8820,"Binot":8821,"##khankhup":8822,"##nash":8823,"##AKANTA":8824,"Somaya":8825,"Haukhan":8826,"Seiba":8827,"Pouken":8828,"Alip":8829,"##heile":8830,"##aiphu":8831,"Neilal":8832,"Jangkhogin":8833,"Hoilhing":8834,"Hoidina":8835,"HAOBAM":8836,"Tinneithem":8837,"Kunjeshori":8838,"##zamawi":8839,"Watham":8840,"##suon":8841,"##nunmawi":8842,"Vashim":8843,"Aimson":8844,"ROMILA":8845,"Lamneihat":8846,"Bhorot":8847,"SOMOR":8848,"Hongray":8849,"Shorojini":8850,"##asiam":8851,"Ibungcha":8852,"KABUI":8853,"Jelly":8854,"Lisam":8855,"Kazingmei":8856,"Ds.":8857,"F.":8858,"Lani":8859,"Molung":8860,"shar":8861,"##bol":8862,"##BAR":8863,"##JUR":8864,"##angmi":8865,"##aodin":8866,"##oula":8867,"Ningthar":8868,"Ngem":8869,"##tian":8870,"Kag":8871,"Saroja":8872,"Ramthing":8873,"Manu":8874,"Max":8875,"Gaining":8876,"##usu":8877,"Liba":8878,"MD.":8879,"Hatneihoi":8880,"Thongkholun":8881,"Veikhoneng":8882,"##shanti":8883,"Sandhiya":8884,"Thamangjam":8885,"BIK":8886,"##rishna":8887,"Kunjeshwari":8888,"Nepal":8889,"Bimolchandra":8890,"PUS":8891,"Gyaneshwor":8892,"SONIYA":8893,"Irabati":8894,"PHEIR":8895,"Damudor":8896,"Judith":8897,"Udadin":8898,"AC":8899,"Kup":8900,"PANGAMBAM":8901,"##ae":8902,"##yanba":8903,"##cah":8904,"##arudin":8905,"##alin":8906,"Ningting":8907,"##hamani":8908,"Thanglet":8909,"Moirangleima":8910,"##ileima":8911,"Kamba":8912,"##INU":8913,"Khanam":8914,"##nian":8915,"##minsei":8916,"Jamkholen":8917,"Nengjahoi":8918,"##dion":8919,"##ngaihnem":8920,"Liyakat":8921,"##veirou":8922,"Dhanabati":8923,"Shiva":8924,"Merung":8925,"Gouri":8926,"##ESHOR":8927,"INDR":8928,"Hriinii":8929,"MEMMA":8930,"Munindro":8931,"##HALATA":8932,"SOBITA":8933,"##eswor":8934,"##LEIMA":8935,"THONGRAM":8936,"Ngaonii":8937,"Tahera":8938,"Hemochandra":8939,"BEN":8940,"BHAN":8941,"DI.":8942,"Eunice":8943,"Kui":8944,"LHA":8945,"Mes":8946,"TO":8947,"khong":8948,"meitei":8949,"##lini":8950,"##hel":8951,"##hus":8952,"##phan":8953,"##bom":8954,"##jailiu":8955,"##alam":8956,"Ningreingam":8957,"##ery":8958,"Sheet":8959,"##SHU":8960,"Ramror":8961,"Jacky":8962,"Shamila":8963,"##veinii":8964,"Lungmila":8965,"Neikholam":8966,"##KHOGIN":8967,"Dili":8968,"Jangminlal":8969,"Khual":8970,"Priyabati":8971,"Paonei":8972,"##deiching":8973,"Krishnananda":8974,"Tiwari":8975,"Gunachandra":8976,"Netra":8977,"Khaiminthang":8978,"Feroz":8979,"Roland":8980,"Uprety":8981,"LAIREN":8982,"Lalhmun":8983,"Ambrabati":8984,"##priyari":8985,"Bosco":8986,"AJIT":8987,"FIR":8988,"Hekha":8989,"Jek":8990,"Mok":8991,"SP":8992,"UDDIN":8993,"##lina":8994,"##IJAN":8995,"##run":8996,"##wel":8997,"##emayum":8998,"##imasi":8999,"##ongpou":9000,"##neilal":9001,"##anding":9002,"Anou":9003,"Aman":9004,"##phui":9005,"##kimi":9006,"##minao":9007,"Sounai":9008,"Nicky":9009,"Jamson":9010,"Tharawon":9011,"Nengjalhing":9012,"Hii":9013,"Gaitho":9014,"Lhingkhochin":9015,"Basi":9016,"##RAMANI":9017,"##ATE":9018,"Irai":9019,"Shangam":9020,"Dijamani":9021,"##ASA":9022,"Henkholen":9023,"Jangminlen":9024,"Kanchan":9025,"ASHALATA":9026,"BIKRAM":9027,"Lamkhotin":9028,"Lamkhonem":9029,"Kasim":9030,"ROSE":9031,"MUJ":9032,"Poune":9033,"Tikendra":9034,"##YAMAYUM":9035,"Bony":9036,"Inakhunba":9037,"##SHABAM":9038,"Nemneivah":9039,"Shuresh":9040,"CHAOBI":9041,"Netaji":9042,"Lalchaw":9043,"Alfred":9044,"Kriti":9045,"KHOISNAM":9046,"Chakraborty":9047,"DAM":9048,"Garam":9049,"Kt":9050,"Lakhi":9051,"Rune":9052,"kamei":9053,"##pson":9054,"##tarani":9055,"##shor":9056,"##ingmei":9057,"##hauniang":9058,"##onglung":9059,"##erson":9060,"##ANTI":9061,"##ulo":9062,"##ropui":9063,"##phu":9064,"Ab.":9065,"Soror":9066,"##ALU":9067,"Paumuan":9068,"##IMI":9069,"##bek":9070,"Seita":9071,"##tinkhup":9072,"Paokhomang":9073,"Bimo":9074,"##ILLA":9075,"##IPEM":9076,"Langonjam":9077,"Malang":9078,"Letthang":9079,"##thelakpam":9080,"##zamung":9081,"Damayanti":9082,"Vare":9083,"Ibochaoba":9084,"Meghajit":9085,"Zingyo":9086,"Peimila":9087,"Somichon":9088,"Tayeb":9089,"Lalhma":9090,"Lamneivah":9091,"LHUN":9092,"Bipinchandra":9093,"Chingngaihlian":9094,"Jatishwar":9095,"Lalthangpui":9096,"Badal":9097,"WANGKHEIMAYUM":9098,"Chetan":9099,"Bhogendro":9100,"Asakho":9101,"MUHAMMAD":9102,"Apambi":9103,"KHURAIJAM":9104,"Wijunamai":9105,"Aliu":9106,"Athu":9107,"Dzi":9108,"Ik.":9109,"Omi":9110,"Pon":9111,"SW":9112,"TOIJAM":9113,"YAO":9114,"##tur":9115,"##tul":9116,"##BO!":9117,"##vol":9118,"##qur":9119,"Thangja":9120,"##eswar":9121,"##SHIKANTA":9122,"Marjina":9123,"Keithelakpam":9124,"Shanj":9125,"##sanglien":9126,"Prab":9127,"Lhingneng":9128,"Karang":9129,"Diben":9130,"Veinii":9131,"##phabi":9132,"Chochong":9133,"##suong":9134,"RAJU":9135,"Najimuddin":9136,"Yaikhomba":9137,"CHANU.":9138,"Prabhapati":9139,"JAMUNA":9140,"Stand":9141,"Leishichon":9142,"NABA":9143,"Lotjem":9144,"Bilkish":9145,"BIREN":9146,"Dashumati":9147,"Abhiram":9148,"Toto":9149,"Rakhesh":9150,"Takhenchangbam":9151,"Rasaily":9152,"SANDHYARANI":9153,"NINGTHOU":9154,"Dp":9155,"Eshia":9156,"Hum":9157,"JAN":9158,"Kn.":9159,"Lah":9160,"##tra":9161,"##beni":9162,"##YAI":9163,"##chalung":9164,"Sabana":9165,"##neichin":9166,"Ind":9167,"##paul":9168,"Ramanda":9169,"##shida":9170,"##khamlung":9171,"Maji":9172,"##janem":9173,"##jianlung":9174,"Kimlhing":9175,"Serabhanu":9176,"Veineilhing":9177,"Pepe":9178,"Miu":9179,"Hangmila":9180,"Babul":9181,"Kashak":9182,"##chihan":9183,"CHIRU":9184,"Paone":9185,"Pfot":9186,"Nutan":9187,"NEH":9188,"Philawon":9189,"Silvia":9190,"Sayed":9191,"##TOSH":9192,"Chandralekha":9193,"Punshiba":9194,"##famkim":9195,"LIMBU":9196,"Naosekpam":9197,"Br":9198,"Dini":9199,"Jur":9200,"Ss":9201,"Zul":9202,"##nong":9203,"##pik":9204,"##ose":9205,"##bok":9206,"##sungbam":9207,"##zasiam":9208,"##khothong":9209,"Khil":9210,"Raha":9211,"##ipu":9212,"Shag":9213,"##EMA":9214,"Ramdin":9215,"Thaor":9216,"Thadou":9217,"##thiang":9218,"Nemja":9219,"Nemjalhing":9220,"Lhinglam":9221,"Arti":9222,"Shyamashakhi":9223,"Poukin":9224,"Athon":9225,"Niangngaih":9226,"NINGTHEM":9227,"lbemsana":9228,"##buile":9229,"##acharimayum":9230,"Nuri":9231,"##zoor":9232,"Guneshwor":9233,"##sut":9234,"MAIPAK":9235,"Thaikho":9236,"Tikaram":9237,"RAJESH":9238,"Bidyachandra":9239,"##zalhing":9240,"##khonlu":9241,"Modhum":9242,"Thuing":9243,"Debajit":9244,"Rasheshwari":9245,"Khelemba":9246,"Valentina":9247,"Rojesh":9248,"##olean":9249,"Beishamayum":9250,"Lalijan":9251,"Rishikesh":9252,"Metankei":9253,"Akho":9254,"BARI":9255,"DON":9256,"LATA":9257,"Ror":9258,"RANG":9259,"Saiphu":9260,"TUI":9261,"##sir":9262,"##LING":9263,"##YAN":9264,"##JAHA":9265,"##ayung":9266,"Khen":9267,"Khui":9268,"Roger":9269,"Salem":9270,"Maram":9271,"Jamthang":9272,"##lianmung":9273,"Takhellei":9274,"Nemngai":9275,"Khathingla":9276,"##ITRA":9277,"Kimthian":9278,"Rubina":9279,"Langamba":9280,"Veineichong":9281,"##ward":9282,"Tingneilam":9283,"Jayanti":9284,"NGAS":9285,"Mizo":9286,"##eshowri":9287,"##OLATA":9288,"Khuptong":9289,"Ahongjao":9290,"Yais":9291,"ABUJAM":9292,"##eshore":9293,"Tokho":9294,"Ashish":9295,"Baral":9296,"Zingthan":9297,"Leah":9298,"Hauzel":9299,"Tampaklei":9300,"Shamjetsabam":9301,"##eswari":9302,"Leirikmacha":9303,"Ranjeeta":9304,"Farooque":9305,"Ghatani":9306,"Ayo":9307,"Cr.":9308,"Dwi":9309,"Dp.":9310,"Fu":9311,"MC":9312,"MI.":9313,"Num":9314,"PUN":9315,"Wit":9316,"et":9317,"##ULI":9318,"##mbi":9319,"##eu":9320,"##khar":9321,"##bum":9322,"##jom":9323,"##jas":9324,"##engliu":9325,"##chawng":9326,"Ningkhalem":9327,"Thanggoulen":9328,"Ana":9329,"Kashing":9330,"Lamjaneng":9331,"Rameshori":9332,"Nikhil":9333,"Paveine":9334,"Jamkhongam":9335,"Manir":9336,"##thoiba":9337,"Nekhini":9338,"Chis":9339,"Sangi":9340,"Bidhum":9341,"##chuiwon":9342,"Nabakanta":9343,"SANJ":9344,"Bablu":9345,"IBOY":9346,"Gabri":9347,"Thaisii":9348,"Barik":9349,"Ichanbi":9350,"Ichantombi":9351,"Baleshwar":9352,"Muhamda":9353,"KABITA":9354,"Bheig":9355,"KANGJAM":9356,"Emmanuel":9357,"ARIBAM":9358,"Woleng":9359,"Ngaraipam":9360,"NAHAKPAM":9361,"Metankeisangbam":9362,"Athe":9363,"Bun":9364,"Gre":9365,"Ghana":9366,"JE":9367,"JAH":9368,"Ler":9369,"Leo":9370,"PHAL":9371,"TUNG":9372,"Uy":9373,"##tsii":9374,"##talak":9375,"##aring":9376,"Thoisana":9377,"Savi":9378,"Sahina":9379,"##namai":9380,"Thangjang":9381,"Chanchal":9382,"##inamai":9383,"Lalbiak":9384,"Shree":9385,"Suhana":9386,"Rome":9387,"Leimatombi":9388,"Marcy":9389,"Waheda":9390,"Maz":9391,"Kimngai":9392,"Hathoi":9393,"##chinlian":9394,"Rishi":9395,"Karan":9396,"##PAMA":9397,"Neichong":9398,"Ngamthang":9399,"Ngamkhohao":9400,"Veineikim":9401,"SANJIT":9402,"Alima":9403,"##sinlu":9404,"Gopendro":9405,"Luke":9406,"##REILA":9407,"Koibi":9408,"##roula":9409,"Bijoykumar":9410,"IRUNGBAM":9411,"Moulana":9412,"Huiningsumbam":9413,"IBOCHOU":9414,"Umananda":9415,"Roselyn":9416,"Winner":9417,"Krishnamohon":9418,"Govind":9419,"CHUNGKHAM":9420,"Genevieve":9421,"Keshorjit":9422,"Hefajuddin":9423,"Thakur":9424,"Lalpieng":9425,"Hulang":9426,"GOLMEI":9427,"Heramot":9428,"Garamjan":9429,"Thaoroijam":9430,"Bod":9431,"Jv":9432,"Kek":9433,"Pis":9434,"Zho":9435,"##tal":9436,"##rina":9437,"##hope":9438,"##aru":9439,"##lish":9440,"##ANT":9441,"##thanga":9442,"Kachak":9443,"Low":9444,"Lamani":9445,"##lendro":9446,"##lianmawi":9447,"Nenglhing":9448,"Khay":9449,"Chinneichong":9450,"Haom":9451,"Mrin":9452,"Rizal":9453,"##singla":9454,"Lunkhosei":9455,"##ckel":9456,"Nungs":9457,"##thianmuang":9458,"A.S.":9459,"Debendra":9460,"##gouhao":9461,"##muong":9462,"Prin":9463,"LAMNEI":9464,"Jaiswal":9465,"AMIR":9466,"Bharati":9467,"Remruot":9468,"Ahrai":9469,"Seltun":9470,"Leishinao":9471,"SHARON":9472,"Mirin":9473,"KASOM":9474,"Shahidur":9475,"Sirajan":9476,"Bedajit":9477,"##GOULEN":9478,"Taibanganba":9479,"Meitankeisangbam":9480,"NASIR":9481,"Nepolian":9482,"Ac.":9483,"BOR":9484,"Ht":9485,"Jus":9486,"Lom":9487,"Mur":9488,"PET":9489,"WS":9490,"##IZ":9491,"##LIM":9492,"##MING":9493,"##amala":9494,"##hoiniang":9495,"##anglung":9496,"##ald":9497,"##aleng":9498,"##bihari":9499,"##lis":9500,"##HAU":9501,"Naot":9502,"##yawon":9503,"Lalra":9504,"Lalmal":9505,"Shud":9506,"Memory":9507,"Kawi":9508,"Lamvah":9509,"Musha":9510,"Ramo":9511,"Mati":9512,"Mathotmi":9513,"Phun":9514,"Gaidim":9515,"Chinkholam":9516,"Kimnu":9517,"Paokholun":9518,"Khomba":9519,"Hanghal":9520,"BIJEN":9521,"Chourjit":9522,"Pangray":9523,"Zamir":9524,"##biaklal":9525,"##nunhoi":9526,"Varah":9527,"Worthing":9528,"Menao":9529,"##ANDRAM":9530,"##SIEM":9531,"Kimneihat":9532,"Bungcha":9533,"LUCY":9534,"THINGNAM":9535,"##asuh":9536,"Phool":9537,"Jenifer":9538,"SUSHILA":9539,"Imtiya":9540,"Blessing":9541,"RAKESH":9542,"##chullo":9543,"TAYENJAM":9544,"RESHMA":9545,"khongsai":9546,"BALA":9547,"DH":9548,"Jor":9549,"Penu":9550,"##keng":9551,"##ppam":9552,"##dhani":9553,"##joujam":9554,"##ain":9555,"##aipou":9556,"##angbou":9557,"##aklung":9558,"##isan":9559,"Premanda":9560,"Charen":9561,"Lamkholun":9562,"Manglen":9563,"Najiya":9564,"Suran":9565,"Shani":9566,"Pavi":9567,"Jamminthang":9568,"Joh":9569,"Baspatimayum":9570,"M.C.":9571,"Prithi":9572,"##sawn":9573,"Hatkim":9574,"Ngamkholen":9575,"Hoikhonei":9576,"LAIPHRAKPAM":9577,"Khomdombi":9578,"Jubi":9579,"Jiya":9580,"Pramila":9581,"Tinkhonei":9582,"##thuipou":9583,"Ngazek":9584,"Priyoshakhi":9585,"Fajila":9586,"Gambhi":9587,"Leena":9588,"REBE":9589,"Yada":9590,"Ojitkumar":9591,"Hongsha":9592,"Khalique":9593,"Chingngaihlun":9594,"Ngathingkhui":9595,"##rahaman":9596,"Yungkham":9597,"##jikliu":9598,"BUYAMAYUM":9599,"Ibenungshi":9600,"SORAISAM":9601,"Happyson":9602,"Zonun":9603,"Jane":9604,"LEM":9605,"Lasuh":9606,"PHI":9607,"SI.":9608,"Zhi":9609,"##ojit":9610,"##zangam":9611,"##eile":9612,"##imaya":9613,"Ngongo":9614,"##iprii":9615,"Sab":9616,"##udang":9617,"Laln":9618,"Shining":9619,"Rajo":9620,"Suj":9621,"Mangcha":9622,"Khunaijam":9623,"Nathan":9624,"Manithoi":9625,"Surmila":9626,"##ukta":9627,"Hemchand":9628,"Nemjahoi":9629,"Lhingpineng":9630,"Arina":9631,"Boris":9632,"Shangjam":9633,"Athouba":9634,"Lunkhothang":9635,"Lunkhogin":9636,"Henary":9637,"Jangthang":9638,"Bijando":9639,"##wangbe":9640,"Souda":9641,"SANTOSH":9642,"SHAK":9643,"Khuyen":9644,"Arunjit":9645,"Ibohalbi":9646,"Hriiy":9647,"SOROJ":9648,"PRAD":9649,"Agani":9650,"Hatneiting":9651,"Krishnakanta":9652,"Danny":9653,"##derson":9654,"LISHAM":9655,"Cather'e":9656,"Dashu":9657,"Asosii":9658,"Sheetal":9659,"Bidhumukhi":9660,"Dane":9661,"PI":9662,"TANG":9663,"WIL":9664,"Yelam":9665,"##king":9666,"##WNG":9667,"##khohou":9668,"##ANBI":9669,"Che":9670,"Cheng":9671,"Shaya":9672,"##chena":9673,"##INENG":9674,"##INDRO":9675,"Abu":9676,"Subon":9677,"Lamyanba":9678,"Roman":9679,"Pujari":9680,"Sarou":9681,"Ramkumar":9682,"Huisen":9683,"##liansiam":9684,"##khanlam":9685,"Manibala":9686,"Khap":9687,"Ngainu":9688,"Kimkhohoi":9689,"Sharubam":9690,"Priyarani":9691,"Sangkar":9692,"Paokhothang":9693,"Shamananda":9694,"Bora":9695,"##ziinai":9696,"Labang":9697,"##KHOLHING":9698,"Dihe":9699,"Shishak":9700,"Letminlen":9701,"Sandip":9702,"##jalun":9703,"##TAZ":9704,"Nilakamal":9705,"SAMUEL":9706,"Thumra":9707,"Homen":9708,"SHARAT":9709,"Rupo":9710,"Mayowon":9711,"Radhesana":9712,"Samarjit":9713,"MAHUNG":9714,"NANDEIBAM":9715,"Magdal":9716,"KALPANA":9717,"Chapagain":9718,"Achan":9719,"APA":9720,"BM":9721,"Dit":9722,"Elung":9723,"Fi":9724,"Irish":9725,"Juma":9726,"MONG":9727,"##N.":9728,"##SIAN":9729,"##LIMA":9730,"##res":9731,"##rimawi":9732,"##BINA":9733,"##cee":9734,"##val":9735,"##anam":9736,"##hoiting":9737,"##inlung":9738,"##raf":9739,"##eshini":9740,"Kaj":9741,"##INC":9742,"Nashi":9743,"Moson":9744,"Rej":9745,"Khaute":9746,"Arvin":9747,"Siak":9748,"Neilhing":9749,"Shimreishang":9750,"Jangkhomang":9751,"Hoikhonem":9752,"Rajenkumar":9753,"Kongjengbam":9754,"Lianminthang":9755,"CHIROM":9756,"Phalguni":9757,"Nehru":9758,"Punsi":9759,"Piy":9760,"Rukiya":9761,"##REIWON":9762,"SARAT":9763,"Thabatombi":9764,"Benao":9765,"##PAU":9766,"Lalnunmawi":9767,"Sinruwng":9768,"##ingaih":9769,"Thangtinlal":9770,"Brojeshwori":9771,"LOKTONGBAM":9772,"LUIRAM":9773,"##Shimray":9774,"Nunglepam":9775,"Niroda":9776,"Paishola":9777,"Tracy":9778,"Livingstone":9779,"Khuyenthem":9780,"AA":9781,"Irene":9782,"KUL":9783,"##TAK":9784,"##ebi":9785,"##phai":9786,"##ye":9787,"##GO":9788,"##ZII":9789,"##shembam":9790,"Kheda":9791,"##hil":9792,"Sashikanta":9793,"##thangi":9794,"Suai":9795,"Sujita":9796,"Mangboi":9797,"Najira":9798,"Medun":9799,"Mashung":9800,"Sami":9801,"Gaimei":9802,"##piang":9803,"Shyamson":9804,"Shyamkishwar":9805,"Bimala":9806,"Shimtharla":9807,"Rainii":9808,"Lamkhohat":9809,"Helhing":9810,"lbelei":9811,"Solem":9812,"Birkumar":9813,"Athihrii":9814,"Bimolini":9815,"##khonlung":9816,"Piyai":9817,"SARJU":9818,"Hril":9819,"Zote":9820,"##sianmuan":9821,"Ruthy":9822,"Agnes":9823,"Tarula":9824,"Yaoreila":9825,"Preet":9826,"HEMAM":9827,"Adahe":9828,"Thoubalmayum":9829,"Samarendra":9830,"Chitralekha":9831,"Pretty":9832,"SOROJINI":9833,"Bron":9834,"Dm.":9835,"JON":9836,"LOI":9837,"My":9838,"##KANTA":9839,"##SIN":9840,"##tlung":9841,"##sara":9842,"##fan":9843,"Deli":9844,"##onga":9845,"##engou":9846,"##rick":9847,"##etu":9848,"##atha":9849,"Kaur":9850,"Chag":9851,"Pukho":9852,"Manini":9853,"Jamkhosei":9854,"Jamkholet":9855,"Mahongnao":9856,"Tharik":9857,"##sangkim":9858,"##AKA":9859,"L.S":9860,"Luckson":9861,"Seikhongam":9862,"Sangroula":9863,"Paolun":9864,"Shamjai":9865,"Lungrei":9866,"Kailal":9867,"Ngamminthang":9868,"NGAR":9869,"##thuiyang":9870,"CHU":9871,"Bishal":9872,"Gunita":9873,"MUINAO":9874,"Devananda":9875,"Nungshiton":9876,"Barna":9877,"Millan":9878,"Lhunkhomang":9879,"Punam":9880,"Tampakmayum":9881,"Yaomi":9882,"Soyar":9883,"Rojibala":9884,"Gulam":9885,"Umesh":9886,"Vareiyo":9887,"Nangsha":9888,"Rustam":9889,"Chourajit":9890,"##zhiini":9891,"Ziaur":9892,"ISLAM":9893,"Pakahao":9894,"Valleyrose":9895,"AHANTHEM":9896,"Uyok":9897,"AG":9898,"Athem":9899,"DOU":9900,"Dhung":9901,"JAY":9902,"Lhi":9903,"Mc":9904,"Vemai":9905,"WI.":9906,"##pur":9907,"##imohon":9908,"Khino":9909,"Sabina":9910,"Maickel":9911,"Aning":9912,"Mangkholen":9913,"Ramnganing":9914,"Chongneo":9915,"##minchong":9916,"Jamsei":9917,"S.A":9918,"Joti":9919,"Praveen":9920,"Somatai":9921,"Ngaineilhing":9922,"Abdulla":9923,"Paotin":9924,"Paokam":9925,"##ginmang":9926,"Ngamkhothang":9927,"Dineshwori":9928,"Jibal":9929,"Allaudin":9930,"Choro":9931,"Ngahan":9932,"##siami":9933,"Lukamani":9934,"##bonang":9935,"V.S.":9936,"Ibungochouba":9937,"##MICHON":9938,"Has.":9939,"##linton":9940,"Roshita":9941,"Ngasam":9942,"Yarmi":9943,"Shilpa":9944,"Sakina":9945,"SUNIBALA":9946,"Kullabidhu":9947,"Pemmila":9948,"Dale":9949,"##pingbou":9950,"MISAO":9951,"Angangmacha":9952,"Umarani":9953,"Mingyaola":9954,"Mustafa":9955,"Brajakumar":9956,"Vasty":9957,"Sahabuddin":9958,"Bdr.":9959,"Lalzarzo":9960,"Yumshangbi":9961,"Tarique":9962,"Bidiyarani":9963,"##thalembi":9964,"APABI":9965,"Athar":9966,"BILA":9967,"KRISH":9968,"NK":9969,"Nita":9970,"Pah":9971,"TIK":9972,"Yi":9973,"YUR":9974,"kumar":9975,"##UT":9976,"##mis":9977,"##hnieng":9978,"##BR":9979,"##WL":9980,"##ingbam":9981,"##umpui":9982,"Khetrimayum":9983,"Moibung":9984,"Rohini":9985,"##esori":9986,"Kondum":9987,"Sankar":9988,"Aron":9989,"Adim":9990,"Adane":9991,"Ngamkholet":9992,"Henlal":9993,"##phaba":9994,"Tathot":9995,"Purnimasi":9996,"##RIS":9997,"Ronei":9998,"CHANDR":9999}}}