{"version":"1.0","truncation":null,"padding":null,"added_tokens":[{"id":0,"special":true,"content":"[UNK]","single_word":false,"lstrip":false,"rstrip":false,"normalized":false},{"id":1,"special":true,"content":"[CLS]","single_word":false,"lstrip":false,"rstrip":false,"normalized":false},{"id":2,"special":true,"content":"[SEP]","single_word":false,"lstrip":false,"rstrip":false,"normalized":false},{"id":3,"special":true,"content":"[PAD]","single_word":false,"lstrip":false,"rstrip":false,"normalized":false},{"id":4,"special":true,"content":"[MASK]","single_word":false,"lstrip":false,"rstrip":false,"normalized":false}],"normalizer":{"type":"Sequence","normalizers":[{"type":"NFD"}]},"pre_tokenizer":{"type":"WhitespaceSplit"},"post_processor":{"type":"BertProcessing","sep":["[SEP]",2],"cls":["[CLS]",1]},"decoder":null,"model":{"type":"WordPiece","unk_token":"[UNK]","continuing_subword_prefix":"##","max_input_chars_per_word":100,"vocab":{"[UNK]":0,"[CLS]":1,"[SEP]":2,"[PAD]":3,"[MASK]":4,"!":5,"\"":6,"#":7,"$":8,"%":9,"&":10,"'":11,"(":12,")":13,"*":14,"+":15,",":16,"-":17,".":18,"/":19,"0":20,"1":21,"2":22,"3":23,"4":24,"5":25,"6":26,"7":27,"8":28,"9":29,":":30,";":31,"<":32,"=":33,">":34,"?":35,"@":36,"[":37,"\\":38,"]":39,"_":40,"a":41,"b":42,"c":43,"d":44,"e":45,"f":46,"g":47,"h":48,"i":49,"j":50,"k":51,"l":52,"m":53,"n":54,"o":55,"p":56,"q":57,"r":58,"s":59,"t":60,"u":61,"v":62,"w":63,"x":64,"y":65,"z":66,"{":67,"|":68,"}":69,"~":70,"¢":71,"£":72,"¥":73,"§":74,"©":75,"«":76,"®":77,"°":78,"»":79,"́":80,"—":81,"‘":82,"’":83,"“":84,"”":85,"€":86,"™":87,"##o":88,"##y":89,"##a":90,"##h":91,"##k":92,"##s":93,"##n":94,"##e":95,"##m":96,"##p":97,"##r":98,"##b":99,"##l":100,"##u":101,"##c":102,"##i":103,"##t":104,"##d":105,"##v":106,"##g":107,"##z":108,"##j":109,"##.":110,"##w":111,"##-":112,"##!":113,"##_":114,"##/":115,"##x":116,"##:":117,"##f":118,"##q":119,"##,":120,"##)":121,"##]":122,"##|":123,"##¥":124,"##(":125,"##1":126,"##}":127,"##'":128,"##‘":129,"##;":130,"##®":131,"##4":132,"##\"":133,"##\\":134,"##7":135,"##[":136,"##—":137,"##“":138,"##€":139,"##3":140,"##$":141,"##’":142,"##¢":143,"##”":144,"##́":145,"##~":146,"##2":147,"##*":148,"##?":149,"##°":150,"##5":151,"##>":152,"##&":153,"##@":154,"##9":155,"##0":156,"##8":157,"##%":158,"##6":159,"##{":160,"##«":161,"##§":162,"##=":163,"##»":164,"##<":165,"##+":166,"##™":167,"###":168,"##©":169,"##£":170,"##an":171,"##ar":172,"##sh":173,"##in":174,"##am":175,"##al":176,"##um":177,"##ha":178,"##umar":179,"kumar":180,"##ee":181,"##ra":182,"##ma":183,"##ing":184,"##it":185,"##ang":186,"##on":187,"sh":188,"ra":189,"##vi":190,"de":191,"##er":192,"##en":193,"##un":194,"sing":195,"##at":196,"singh":197,"devi":198,"##han":199,"##il":200,"##esh":201,"##ish":202,"##ur":203,"##ak":204,"##ta":205,"##ik":206,"##ad":207,"##as":208,"##ay":209,"##ho":210,"##ir":211,"an":212,"lal":213,"##ita":214,"##em":215,"##oh":216,"##ti":217,"##la":218,"##ri":219,"raj":220,"sa":221,"##der":222,"shar":223,"##ong":224,"##and":225,"##har":226,"ram":227,"##ul":228,"ka":229,"sharma":230,"##im":231,"##th":232,"##na":233,"##ani":234,"##ch":235,"##ya":236,"su":237,"##li":238,"pra":239,"##or":240,"mar":241,"man":242,"##om":243,"ch":244,"##up":245,"##ai":246,"sang":247,"##kar":248,"san":249,"sha":250,"chan":251,"##ash":252,"na":253,"##ari":254,"##eep":255,"##ana":256,"moh":257,"##ati":258,"##el":259,"##ah":260,"##ab":261,"ja":262,"##ung":263,"##hu":264,"sun":265,"##ei":266,"ar":267,"##eet":268,"##uk":269,"##ok":270,"sangma":271,"##upta":272,"gupta":273,"##oj":274,"##id":275,"pr":276,"##dra":277,"##to":278,"##ender":279,"##jay":280,"##ia":281,"##ud":282,"am":283,"par":284,"##es":285,"marak":286,"##aw":287,"##od":288,"ash":289,"##bam":290,"##een":291,"##ek":292,"##av":293,"##aj":294,"##ng":295,"cha":296,"kh":297,"##ala":298,"##et":299,"##ina":300,"##is":301,"sar":302,"##ed":303,"mohd":304,"##us":305,"##bi":306,"##ol":307,"kam":308,"kaur":309,"##hi":310,"kumari":311,"##ila":312,"po":313,"##eng":314,"##bha":315,"##ush":316,"##iv":317,"khan":318,"##eg":319,"##ant":320,"##ip":321,"go":322,"##'s":323,"##ba":324,"chand":325,"bha":326,"##ika":327,"##shi":328,"##ank":329,"##ali":330,"##eena":331,"sur":332,"ga":333,"son":334,"deep":335,"ro":336,"nar":337,"yad":338,"##wal":339,"mo":340,"##inder":341,"rani":342,"##ni":343,"la":344,"kr":345,"yadav":346,"##ram":347,"##eh":348,"jain":349,"##pa":350,"##kash":351,"##mi":352,"##eeta":353,"sum":354,"##ey":355,"pal":356,"##ther":357,"##lam":358,"##ut":359,"##ath":360,"th":361,"##ther's":362,"other's":363,"##ini":364,"##ju":365,"har":366,"ab":367,"##war":368,"vi":369,"md":370,"bab":371,"##raj":372,"##isha":373,"##sha":374,"##jam":375,"##gar":376,"##endra":377,"sat":378,"##ind":379,"##kh":380,"##ja":381,"##cha":382,"mal":383,"jo":384,"ah":385,"sunita":386,"beg":387,"mah":388,"kha":389,"##ura":390,"vin":391,"##sang":392,"##sad":393,"##pu":394,"##pal":395,"##anj":396,"rai":397,"##chan":398,"##veen":399,"##ap":400,"kan":401,"nong":402,"##ii":403,"ver":404,"may":405,"##ub":406,"ma":407,"shan":408,"prakash":409,"ban":410,"##ro":411,"##wan":412,"rajesh":413,"rah":414,"nee":415,"muk":416,"##ata":417,"rak":418,"##si":419,"##lang":420,"##mad":421,"shiv":422,"krish":423,"ali":424,"##yo":425,"##yn":426,"##ep":427,"prasad":428,"##lal":429,"##yam":430,"##wati":431,"kar":432,"verma":433,"##ora":434,"mad":435,"sush":436,"##yng":437,"deepak":438,"##ru":439,"##tosh":440,"tha":441,"cho":442,"bi":443,"pri":444,"sal":445,"##deep":446,"al":447,"prem":448,"sanjay":449,"gur":450,"sam":451,"ng":452,"so":453,"bhar":454,"anita":455,"kish":456,"khar":457,"das":458,"dev":459,"sunil":460,"##jeet":461,"naik":462,"##tar":463,"shah":464,"begum":465,"##sa":466,"##oja":467,"in":468,"##din":469,"mon":470,"##lu":471,"vijay":472,"santosh":473,"anil":474,"##da":475,"##man":476,"ba":477,"bal":478,"##wari":479,"pooja":480,"##ki":481,"##tho":482,"##eema":483,"##vita":484,"lax":485,"##bo":486,"##onam":487,"ne":488,"##iya":489,"amit":490,"##jit":491,"sand":492,"pand":493,"manoj":494,"##maw":495,"##lesh":496,"##ekha":497,"poonam":498,"jha":499,"##dha":500,"##son":501,"ashok":502,"ag":503,"geeta":504,"vik":505,"jyo":506,"rakesh":507,"##ekar":508,"##hom":509,"##shan":510,"mish":511,"kir":512,"dhar":513,"om":514,"kal":515,"##ot":516,"tho":517,"##ev":518,"fer":519,"tar":520,"##wat":521,"ramesh":522,"rahul":523,"##chi":524,"##pam":525,"mishra":526,"ak":527,"kap":528,"##bir":529,"mam":530,"##garwal":531,"van":532,"ph":533,"##gi":534,"ren":535,"jag":536,"mom":537,"seema":538,"##wa":539,"pat":540,"jyoti":541,"maya":542,"##nand":543,"manju":544,"chandra":545,"meena":546,"lyng":547,"suman":548,"fernand":549,"mun":550,"##tia":551,"ri":552,"##ith":553,"ajay":554,"lalr":555,"fernandes":556,"##vinder":557,"##eer":558,"rekha":559,"##jee":560,"ranj":561,"bhu":562,"nir":563,"roh":564,"##anga":565,"ni":566,"din":567,"vish":568,"##ham":569,"vinod":570,"##nam":571,"ha":572,"se":573,"##doh":574,"as":575,"meh":576,"mukesh":577,"chander":578,"suresh":579,"##re":580,"ti":581,"momin":582,"chet":583,"##oor":584,"arora":585,"lo":586,"tam":587,"laxmi":588,"##uddin":589,"##dh":590,"##za":591,"##yal":592,"lam":593,"me":594,"jit":595,"pa":596,"##ib":597,"mamta":598,"kon":599,"##ran":600,"##med":601,"asha":602,"##di":603,"sham":604,"im":605,"mohan":606,"sah":607,"push":608,"shyam":609,"ravi":610,"##onkar":611,"##ph":612,"##os":613,"nit":614,"##ou":615,"bh":616,"shak":617,"usha":618,"parveen":619,"##eli":620,"kiran":621,"##ka":622,"##og":623,"nand":624,"di":625,"jam":626,"##uhan":627,"dinesh":628,"sub":629,"##tri":630,"chak":631,"##end":632,"k.":633,"r.":634,"rawat":635,"##ikh":636,"anj":637,"moham":638,"ning":639,"arun":640,"##ayan":641,"##had":642,"##uri":643,"pandey":644,"priy":645,"bar":646,"##kho":647,"krishna":648,"vanlal":649,"lyngdoh":650,"sandeep":651,"##sal":652,"##puii":653,"##them":654,"##kur":655,"##te":656,"renu":657,"##va":658,"lalh":659,"paw":660,"pin":661,"aggarwal":662,"dh":663,"nisha":664,"##urav":665,"anand":666,"mang":667,"sach":668,"kamlesh":669,"##thang":670,"ko":671,"hem":672,"##hary":673,"gul":674,"lata":675,"bhag":676,"chauhan":677,"##thi":678,"jas":679,"sumit":680,"neha":681,"bas":682,"tan":683,"##if":684,"##mila":685,"lak":686,"##anka":687,"saroj":688,"hari":689,"##eem":690,"##ira":691,"##kumar":692,"##jan":693,"bala":694,"ahmed":695,"laish":696,"##ima":697,"rit":698,"wang":699,"tiwari":700,"nirm":701,"ahmad":702,"neelam":703,"re":704,"##udhary":705,"##toon":706,"manish":707,"mand":708,"gar":709,"##unt":710,"##eela":711,"pushpa":712,"khatoon":713,"var":714,"abh":715,"laishram":716,"##op":717,"priyanka":718,"##ga":719,"rohit":720,"##shu":721,"shanti":722,"##akshi":723,"##dul":724,"##oi":725,"##vind":726,"thang":727,"nath":728,"##yan":729,"khong":730,"ad":731,"ur":732,"bish":733,"chakma":734,"kavita":735,"naresh":736,"##nu":737,"yog":738,"##ujam":739,"##yak":740,"##du":741,"bim":742,"kul":743,"dil":744,"mahesh":745,"ru":746,"##ami":747,"kamal":748,"char":749,"##zu":750,"##le":751,"ib":752,"meen":753,"c.":754,"babita":755,"##su":756,"##ida":757,"m.":758,"shankar":759,"pawan":760,"##eeti":761,"kishor":762,"shab":763,"hus":764,"sangeeta":765,"mohammad":766,"abdul":767,"##tan":768,"thakur":769,"##oni":770,"##ug":771,"ank":772,"dhan":773,"um":774,"pank":775,"preeti":776,"nas":777,"vir":778,"kun":779,"dar":780,"garg":781,"##ne":782,"wati":783,"##ck":784,"saini":785,"##ena":786,"##ori":787,"pankaj":788,"mit":789,"amar":790,"kishan":791,"##we":792,"raju":793,"##vin":794,"sy":795,"satish":796,"##ny":797,"subha":798,"jai":799,"##ej":800,"gaurav":801,"##bor":802,"##so":803,"##bh":804,"##ew":805,"##ama":806,"##angthem":807,"ang":808,"pradeep":809,"gaonkar":810,"alam":811,"##mu":812,"##hadur":813,"bir":814,"chettri":815,"madhu":816,"pan":817,"anju":818,"##ili":819,"##khar":820,"##tha":821,"sarita":822,"##pr":823,"##yum":824,"bahadur":825,"##imi":826,"kaush":827,"##una":828,"##tra":829,"sad":830,"da":831,"pram":832,"far":833,"##yr":834,"pas":835,"pur":836,"narayan":837,"rin":838,"kus":839,"haj":840,"gir":841,"##iman":842,"##qu":843,"sonu":844,"##ji":845,"##lo":846,"krishan":847,"is":848,"##eni":849,"vikas":850,"##dar":851,"##mawii":852,"##sari":853,"surender":854,"babu":855,"##tun":856,"##kpam":857,"bhan":858,"khu":859,"bhutia":860,"##dev":861,"shashi":862,"##thoujam":863,"##uj":864,"##ob":865,"##dhan":866,"##illa":867,"kapoor":868,"lalrin":869,"##ema":870,"soni":871,"rajni":872,"##eetu":873,"##want":874,"pun":875,"rana":876,"suraj":877,"##lin":878,"has":879,"at":880,"nam":881,"savita":882,"nag":883,"sanjee":884,"##uo":885,"subhash":886,"tamang":887,"tom":888,"af":889,"sab":890,"dkhar":891,"lu":892,"ashish":893,"bansal":894,"##sai":895,"jitender":896,"konyak":897,"##preet":898,"jal":899,"##mei":900,"jay":901,"bano":902,"rajender":903,"##ela":904,"dharm":905,"##ton":906,"kusum":907,"gurung":908,"malik":909,"rash":910,"##utam":911,"sachin":912,"sanjeev":913,"lep":914,"monika":915,"##uli":916,"laln":917,"##ishek":918,"naz":919,"##ly":920,"ir":921,"##ukh":922,"reena":923,"ravinder":924,"kamla":925,"neeraj":926,"tal":927,"hajong":928,"##waj":929,"##dr":930,"kom":931,"##ula":932,"##vit":933,"abhishek":934,"per":935,"ta":936,"##angi":937,"s.":938,"bhat":939,"maw":940,"day":941,"wah":942,"##iti":943,"vim":944,"##pi":945,"urmila":946,"akh":947,"tak":948,"lepcha":949,"gopal":950,"bin":951,"##se":952,"yum":953,"gautam":954,"goel":955,"joh":956,"bri":957,"ansari":958,"##mayum":959,"##liana":960,"som":961,"##inam":962,"##ming":963,"##rang":964,"##shad":965,"##sing":966,"rag":967,"##bu":968,"##sain":969,"##riv":970,"priya":971,"harish":972,"ke":973,"bibi":974,"##yl":975,"mandal":976,"sonia":977,"kash":978,"sid":979,"ching":980,"##puia":981,"radha":982,"##hana":983,"##engbam":984,"##bhai":985,"moir":986,"sap":987,"##oy":988,"bis":989,"sw":990,"##eera":991,"sushila":992,"dal":993,"goyal":994,"##saw":995,"rup":996,"sher":997,"##pati":998,"maha":999,"##hun":1000,"wan":1001,"li":1002,"##tin":1003,"##ilash":1004,"##tal":1005,"up":1006,"##hai":1007,"begam":1008,"sim":1009,"az":1010,"##ca":1011,"bharti":1012,"##vir":1013,"h.":1014,"##ain":1015,"##gu":1016,"mohit":1017,"##ola":1018,"ts":1019,"joshi":1020,"ran":1021,"shal":1022,"##cy":1023,"neetu":1024,"##era":1025,"praveen":1026,"min":1027,"jagd":1028,"##van":1029,"moirangthem":1030,"ningthoujam":1031,"##mawia":1032,"sushma":1033,"##cho":1034,"shakunt":1035,"vishal":1036,"nitin":1037,"neg":1038,"tya":1039,"##was":1040,"si":1041,"##az":1042,"##wani":1043,"##chal":1044,"##ber":1045,"sheela":1046,"tyagi":1047,"##ikha":1048,"##chom":1049,"anjali":1050,"##hing":1051,"##mang":1052,"##star":1053,"yash":1054,"##eja":1055,"##ry":1056,"manisha":1057,"mer":1058,"le":1059,"negi":1060,"dut":1061,"t.":1062,"##tu":1063,"mi":1064,"kanta":1065,"sud":1066,"mai":1067,"ay":1068,"lei":1069,"mur":1070,"rish":1071,"umesh":1072,"jagdish":1073,"ankit":1074,"ch.":1075,"hussain":1076,"##hari":1077,"hal":1078,"yogesh":1079,"aar":1080,"sak":1081,"bimla":1082,"##sana":1083,"##hotra":1084,"nirmala":1085,"satya":1086,"sho":1087,"##ikar":1088,"##lem":1089,"ritu":1090,"##anki":1091,"##bani":1092,"bhard":1093,"pho":1094,"khatun":1095,"##jal":1096,"##bah":1097,"##anda":1098,"##bar":1099,"savit":1100,"chaudhary":1101,"haok":1102,"##hak":1103,"##oli":1104,"uma":1105,"patel":1106,"naveen":1107,"##pra":1108,"madan":1109,"kho":1110,"vip":1111,"long":1112,"##vati":1113,"lalit":1114,"bhardwaj":1115,"##tam":1116,"##rivas":1117,"subba":1118,"roy":1119,"##enla":1120,"malhotra":1121,"vid":1122,"##fi":1123,"pramod":1124,"brij":1125,"bho":1126,"kumar,":1127,"##than":1128,"##jun":1129,"##chandra":1130,"##sanga":1131,"av":1132,"dur":1133,"lalita":1134,"himan":1135,"thok":1136,"sushil":1137,"sukh":1138,"##bal":1139,"savitri":1140,"l.":1141,"##long":1142,"##adh":1143,"##iem":1144,"haokip":1145,"prabha":1146,"bisht":1147,"md.":1148,"gud":1149,"radh":1150,"karan":1151,"bhatia":1152,"##zo":1153,"war":1154,"thokchom":1155,"tab":1156,"ong":1157,"rita":1158,"##chana":1159,"sanj":1160,"john":1161,"##min":1162,"narender":1163,"##mo":1164,"sagar":1165,"ap":1166,"veena":1167,"vinay":1168,"inder":1169,"div":1170,"##san":1171,"##boo":1172,"sol":1173,"lok":1174,"chaw":1175,"lalram":1176,"ish":1177,"parkash":1178,"sil":1179,"sin":1180,"ruk":1181,"mittal":1182,"##rivasta":1183,"rom":1184,"sul":1185,"thong":1186,"n.":1187,"##aih":1188,"##rin":1189,"lalnun":1190,"pradhan":1191,"cham":1192,"vand":1193,"mak":1194,"oinam":1195,"syiem":1196,"##bhu":1197,"kuldeep":1198,"rabha":1199,"##alin":1200,"##ku":1201,"lim":1202,"##ty":1203,"##athi":1204,"munni":1205,"##tlu":1206,"b.":1207,"##chu":1208,"gan":1209,"##edi":1210,"amr":1211,"##anti":1212,"bdr":1213,"thapa":1214,"shri":1215,"arvind":1216,"##bin":1217,"mus":1218,"khanna":1219,"##ce":1220,"##vesh":1221,"##itha":1222,"resh":1223,"jan":1224,"sen":1225,"gang":1226,"lang":1227,"yumnam":1228,"##veer":1229,"##eev":1230,"mehta":1231,"##char":1232,"rama":1233,"kailash":1234,"deepa":1235,"nish":1236,"##ilo":1237,"jahan":1238,"##sangi":1239,"meit":1240,"shuk":1241,"aman":1242,"##eira":1243,"lalrem":1244,"choudhary":1245,"##orem":1246,"##hya":1247,"d.":1248,"bharat":1249,"tri":1250,"##inda":1251,"##liu":1252,"mani":1253,"##ara":1254,"##weta":1255,"aarti":1256,"ud":1257,"arjun":1258,"deb":1259,"dip":1260,"##rum":1261,"vai":1262,"##tap":1263,"mas":1264,"##len":1265,"bai":1266,"meenakshi":1267,"##do":1268,"dharam":1269,"paul":1270,"##ife":1271,"sita":1272,"wife":1273,"vas":1274,"rub":1275,"wife's":1276,"dass":1277,"##hoi":1278,"koch":1279,"han":1280,"meera":1281,"##ter":1282,"rat":1283,"ho":1284,"tara":1285,"shub":1286,"##oo":1287,"bag":1288,"kanchan":1289,"shaikh":1290,"##me":1291,"komal":1292,"shukla":1293,"kant":1294,"rajeev":1295,"##he":1296,"##biak":1297,"p.":1298,"##law":1299,"khur":1300,"virender":1301,"pha":1302,"##bai":1303,"##ilesh":1304,"bat":1305,"akash":1306,"meenu":1307,"pink":1308,"himanshu":1309,"mu":1310,"kur":1311,"##gal":1312,"##dari":1313,"##de":1314,"to":1315,"kat":1316,"meitei":1317,"##nei":1318,"viv":1319,"mith":1320,"mahender":1321,"saj":1322,"##embam":1323,"mem":1324,"##etri":1325,"dilip":1326,"soh":1327,"vandana":1328,"##nath":1329,"tarun":1330,"##ekh":1331,"##akar":1332,"sor":1333,"rod":1334,"mary":1335,"##iki":1336,"kapil":1337,"yas":1338,"##ban":1339,"anura":1340,"##ering":1341,"govind":1342,"##sar":1343,"pad":1344,"mat":1345,"shil":1346,"shr":1347,"dam":1348,"##lan":1349,"seng":1350,"##xena":1351,"yam":1352,"a.":1353,"##yap":1354,"sonam":1355,"sudha":1356,"##wang":1357,"pi":1358,"parm":1359,"nongrum":1360,"meg":1361,"sherpa":1362,"##yar":1363,"##zuali":1364,"nik":1365,"##dan":1366,"gaw":1367,"seh":1368,"##rat":1369,"shivani":1370,"##rakpam":1371,"chha":1372,"arti":1373,"##isa":1374,"##gan":1375,"vivek":1376,"##him":1377,"bad":1378,"sethi":1379,"saxena":1380,"##eshwar":1381,"men":1382,"##ine":1383,"vipin":1384,"sumitra":1385,"ganga":1386,"##uja":1387,"tay":1388,"hu":1389,"agarwal":1390,"##lata":1391,"math":1392,"##o)":1393,"archana":1394,"harsh":1395,"##cky":1396,"nid":1397,"##urabh":1398,"##obi":1399,"##ym":1400,"##ben":1401,"devender":1402,"phool":1403,"be":1404,"##ver":1405,"maria":1406,"sapna":1407,"ratho":1408,"do":1409,"bhagwan":1410,"##ris":1411,"giri":1412,"baj":1413,"roshan":1414,"bor":1415,"lalch":1416,"kishore":1417,"naorem":1418,"##ito":1419,"el":1420,"d's":1421,"ajit":1422,"ongbi":1423,"##hani":1424,"pap":1425,"paswan":1426,"##meet":1427,"pinki":1428,"suk":1429,"kaushik":1430,"noor":1431,"bud":1432,"jog":1433,"car":1434,"jos":1435,"nav":1436,"bhaw":1437,"##mal":1438,"##eph":1439,"mis":1440,"khush":1441,"##ombi":1442,"ranjan":1443,"laksh":1444,"##lian":1445,"##ting":1446,"ved":1447,"sudesh":1448,"chawla":1449,"leima":1450,"chopra":1451,"kesh":1452,"##ubey":1453,"say":1454,"jat":1455,"##ching":1456,"chong":1457,"(o)":1458,"##anta":1459,"tr":1460,"##jen":1461,"##thung":1462,"br":1463,"ras":1464,"##be":1465,"pratap":1466,"##liani":1467,"indra":1468,"sunder":1469,"##uni":1470,"##ylla":1471,"kashyap":1472,"srivasta":1473,"shakuntla":1474,"ki":1475,"##baniang":1476,"##ez":1477,"##zuala":1478,"ben":1479,"##uma":1480,"##awati":1481,"##hat":1482,"##bala":1483,"bhup":1484,"marbaniang":1485,"##kong":1486,"nan":1487,"reshma":1488,"chin":1489,"vikram":1490,"##bem":1491,"sudh":1492,"kas":1493,"singhal":1494,"shad":1495,"##chna":1496,"##hal":1497,"fir":1498,"ganesh":1499,"salam":1500,"##mar":1501,"kalp":1502,"dutt":1503,"##ell":1504,"##kimi":1505,"##eel":1506,"kush":1507,"##dhar":1508,"yang":1509,"##go":1510,"ken":1511,"##ruat":1512,"##yang":1513,"khum":1514,"indu":1515,"aksh":1516,"##sin":1517,"##co":1518,"bind":1519,"ya":1520,"##mani":1521,"aj":1522,"##yu":1523,"deepika":1524,"trip":1525,"tong":1526,"##angbam":1527,"maj":1528,"##ade":1529,"##ge":1530,"imran":1531,"##que":1532,"divya":1533,"##huja":1534,"shobha":1535,"ham":1536,"dor":1537,"##ongbam":1538,"gay":1539,"prash":1540,"##ill":1541,"rodri":1542,"ros":1543,"##lambam":1544,"saha":1545,"nat":1546,"##sawm":1547,"ranjeet":1548,"kip":1549,"##ouza":1550,"rajiv":1551,"ari":1552,"sag":1553,"##tina":1554,"rajendra":1555,"tej":1556,"ryn":1557,"##ashi":1558,"##odkar":1559,"##gues":1560,"rakhi":1561,"prati":1562,"chandan":1563,"##haw":1564,"rodrigues":1565,"sharda":1566,"##c.":1567,"lalbiak":1568,"fran":1569,"##umi":1570,"solanki":1571,"##hl":1572,"nay":1573,"tas":1574,"pyn":1575,"shweta":1576,"##ilang":1577,"tul":1578,"##elip":1579,"nikh":1580,"kaushal":1581,"sachdev":1582,"##chand":1583,"dubey":1584,"gaur":1585,"shir":1586,"wa":1587,"##ua":1588,"sudhir":1589,"##cham":1590,"ron":1591,"mehra":1592,"khun":1593,"sinha":1594,"nirmal":1595,"nad":1596,"velip":1597,"joy":1598,"ahuja":1599,"ksh":1600,"##gen":1601,"dol":1602,"swati":1603,"phom":1604,"anup":1605,"mil":1606,"ek":1607,"gyan":1608,"islam":1609,"maibam":1610,"##pe":1611,"##lah":1612,"rajkumar":1613,"sunny":1614,"te":1615,"##urya":1616,"gulshan":1617,"##reen":1618,"##s.":1619,"##chung":1620,"rosh":1621,"beena":1622,"nem":1623,"charan":1624,"kum":1625,"rashmi":1626,"pathak":1627,"##fa":1628,"chanu":1629,"##itra":1630,"jen":1631,"dim":1632,"bij":1633,"was":1634,"neng":1635,"##ilin":1636,"she":1637,"saurabh":1638,"kajal":1639,"gun":1640,"##ikhom":1641,"st":1642,"va":1643,"vimla":1644,"jeet":1645,"##kima":1646,"hemant":1647,"##hel":1648,"##oda":1649,"wal":1650,"laxman":1651,"shubham":1652,"raja":1653,"gaj":1654,"##cis":1655,"tsh":1656,"nidhi":1657,"kala":1658,"ina":1659,"##chin":1660,"gho":1661,"lyngkho":1662,"d'souza":1663,"des":1664,"##thanga":1665,"raman":1666,"he":1667,"sahil":1668,"##mon":1669,"prashant":1670,"##khem":1671,"##gaonkar":1672,"baby":1673,"sachdeva":1674,"##sam":1675,"##lieh":1676,"##io":1677,"##ithem":1678,"##uel":1679,"mala":1680,"don":1681,"##lung":1682,"shabnam":1683,"tem":1684,"##wein":1685,"davi":1686,"##seng":1687,"##bok":1688,"es":1689,"##bas":1690,"##aram":1691,"##endro":1692,"francis":1693,"ratan":1694,"shabana":1695,"saif":1696,"##iri":1697,"##thangi":1698,"##sum":1699,"##muan":1700,"hema":1701,"##iram":1702,"bhushan":1703,"##kan":1704,"shikha":1705,"nikhil":1706,"bid":1707,"##ekhar":1708,"##adi":1709,"##abi":1710,"bra":1711,"pereira":1712,"ray":1713,"anuj":1714,"ku":1715,"madh":1716,"joseph":1717,"alka":1718,"nor":1719,"khurana":1720,"daw":1721,"g.":1722,"thi":1723,"dias":1724,"sandhya":1725,"varun":1726,"shang":1727,"no":1728,"##beni":1729,"fati":1730,"dharmender":1731,"##are":1732,"tang":1733,"taj":1734,"chh":1735,"##ony":1736,"sawant":1737,"dayal":1738,"##bra":1739,"##thu":1740,"koh":1741,"##sw":1742,"asi":1743,"##niang":1744,"bhandari":1745,"prit":1746,"nongsi":1747,"srivastava":1748,"yan":1749,"##tik":1750,"##itya":1751,"rajinder":1752,"nongb":1753,"durga":1754,"jun":1755,"kim":1756,"tok":1757,"##ikho":1758,"shet":1759,"anu":1760,"limboo":1761,"mithlesh":1762,"bdr.":1763,"fatima":1764,"pang":1765,"##far":1766,"##unga":1767,"bik":1768,"rajan":1769,"##mai":1770,"lalruat":1771,"##ved":1772,"dha":1773,"##iliu":1774,"mahto":1775,"##var":1776,"##lun":1777,"##sen":1778,"wahlang":1779,"##chhu":1780,"mel":1781,"swar":1782,"mong":1783,"tap":1784,"##ile":1785,"rong":1786,"##no":1787,"sheet":1788,"sangita":1789,"gula":1790,"bhawna":1791,"ashu":1792,"sk":1793,"dan":1794,"ranjit":1795,"vij":1796,"gulati":1797,"malsawm":1798,"sit":1799,"##eri":1800,"shylla":1801,"shira":1802,"##borlang":1803,"hasan":1804,"mor":1805,"f.":1806,"##ilal":1807,"kali":1808,"sana":1809,"riz":1810,"fai":1811,"kalpana":1812,"##udh":1813,"wahengbam":1814,"babli":1815,"rinku":1816,"##ijam":1817,"law":1818,"##rom":1819,"kak":1820,"ut":1821,"##swal":1822,"pardeep":1823,"band":1824,"batra":1825,"##khan":1826,"##ania":1827,"sheetal":1828,"##omi":1829,"munna":1830,"manjeet":1831,"marwein":1832,"saw":1833,"lyngkhoi":1834,"##uh":1835,"nil":1836,"##abam":1837,"##ree":1838,"mathur":1839,"##kongor":1840,"ranjana":1841,"javed":1842,"bo":1843,"##ungi":1844,"##mita":1845,"jitendra":1846,"##zan":1847,"gawas":1848,"param":1849,"##ful":1850,"##has":1851,"mut":1852,"dat":1853,"suj":1854,"khang":1855,"sanju":1856,"veer":1857,"gro":1858,"##ond":1859,"##rish":1860,"##zi":1861,"anuradha":1862,"shank":1863,"daya":1864,"nongsiej":1865,"##olu":1866,"j.":1867,"sahu":1868,"vikash":1869,"pam":1870,"##hav":1871,"kohli":1872,"vishnu":1873,"shivam":1874,"##oba":1875,"##ohar":1876,"rang":1877,"##pan":1878,"kshetri":1879,"##zam":1880,"kamei":1881,"##das":1882,"arya":1883,"aak":1884,"v.":1885,"sant":1886,"##ojam":1887,"dul":1888,"##bert":1889,"lalhming":1890,"##anand":1891,"chanchal":1892,"bhatt":1893,"tomar":1894,"naj":1895,"##tluanga":1896,"atul":1897,"bam":1898,"##kim":1899,"lalthan":1900,"##gam":1901,"bajaj":1902,"za":1903,"sakshi":1904,"##ling":1905,"rem":1906,"riya":1907,"kshetrimayum":1908,"grover":1909,"kurbah":1910,"##nima":1911,"ibo":1912,"##song":1913,"##fan":1914,"jang":1915,"saras":1916,"varsha":1917,"##zar":1918,"pappu":1919,"lot":1920,"biswas":1921,"dah":1922,"reh":1923,"syiemlieh":1924,"##men":1925,"##atri":1926,"shalini":1927,"maurya":1928,"med":1929,"shim":1930,"ruby":1931,"kyn":1932,"##aria":1933,"##yi":1934,"aditya":1935,"iq":1936,"##ona":1937,"##sem":1938,"kharkongor":1939,"lung":1940,"##tham":1941,"hen":1942,"##ude":1943,"kipgen":1944,"kham":1945,"vidya":1946,"gam":1947,"##snam":1948,"shakuntala":1949,"##lim":1950,"##eek":1951,"pandit":1952,"ashwani":1953,"##aki":1954,"akshay":1955,"tari":1956,"reeta":1957,"gosw":1958,"til":1959,"vash":1960,"##ongla":1961,"##ulu":1962,"ker":1963,"sarkar":1964,"ji":1965,"##ino":1966,"mawlong":1967,"##oram":1968,"eli":1969,"##mati":1970,"aw":1971,"shahna":1972,"##uka":1973,"goswami":1974,"kri":1975,"em":1976,"thouna":1977,"mr":1978,"joginder":1979,"sehgal":1980,"than":1981,"##udam":1982,"##ada":1983,"dessai":1984,"chanda":1985,"zah":1986,"hang":1987,"thangjam":1988,"bhim":1989,"thounaojam":1990,"ara":1991,"pu":1992,"##yay":1993,"##oz":1994,"jaiswal":1995,"##oop":1996,"manj":1997,"ten":1998,"guddi":1999,"hemlata":2000,"mod":2001,"malti":2002,"shahid":2003,"lil":2004,"##chh":2005,"suting":2006,"saifi":2007,"sanat":2008,"lakshmi":2009,"leela":2010,"pari":2011,"wil":2012,"dey":2013,"tripathi":2014,"bhagat":2015,"moni":2016,"##osta":2017,"parsad":2018,"priti":2019,"avin":2020,"kalra":2021,"simran":2022,"sn":2023,"salim":2024,"sharma.":2025,"##chiang":2026,"##ite":2027,"lokesh":2028,"sik":2029,"rachna":2030,"##den":2031,"nok":2032,"##ve":2033,"##nekar":2034,"##bina":2035,"shekhar":2036,"surinder":2037,"shadap":2038,"##andeep":2039,"##bati":2040,"##ato":2041,"jatin":2042,"thing":2043,"##par":2044,"shash":2045,"##ungla":2046,"shail":2047,"gand":2048,"vati":2049,"megha":2050,"gom":2051,"##haibam":2052,"asif":2053,"gu":2054,"ghan":2055,"##win":2056,"##tluangi":2057,"vanlalh":2058,"surendra":2059,"pay":2060,"##asam":2061,"##oijam":2062,"##vekar":2063,"phil":2064,"dab":2065,"akhtar":2066,"tshering":2067,"##lak":2068,"##eed":2069,"uday":2070,"mir":2071,"##lei":2072,"tanwar":2073,"rym":2074,"soniya":2075,"##kha":2076,"elang":2077,"##ye":2078,"vaish":2079,"dorjee":2080,"##ather":2081,"takhel":2082,"hei":2083,"##rem":2084,"dutta":2085,"bina":2086,"ghosh":2087,"shirodkar":2088,"mum":2089,"nongma":2090,"radhika":2091,"phawa":2092,"##ocha":2093,"##neet":2094,"##uba":2095,"##dal":2096,"nang":2097,"chari":2098,"nongmaithem":2099,"##wakar":2100,"##ral":2101,"huid":2102,"parab":2103,"kharb":2104,"##chong":2105,"##ren":2106,"##chang":2107,"##mas":2108,"##eth":2109,"##endar":2110,"huidrom":2111,"shama":2112,"##oti":2113,"gra":2114,"raghu":2115,"prabhu":2116,"jon":2117,"pukh":2118,"##eda":2119,"elangbam":2120,"##bhav":2121,"ruchi":2122,"amir":2123,"salma":2124,"gon":2125,"sahni":2126,"kang":2127,"khars":2128,"##wai":2129,"lan":2130,"ped":2131,"bhav":2132,"pinky":2133,"##st":2134,"ibem":2135,"khal":2136,"tah":2137,"##eeraj":2138,"david":2139,"sarla":2140,"##kam":2141,"nei":2142,"thoi":2143,"bil":2144,"##ding":2145,"##ombam":2146,"lhing":2147,"chang":2148,"##mangaih":2149,"nim":2150,"puneet":2151,"brijesh":2152,"kanti":2153,"gaude":2154,"chat":2155,"hira":2156,"ningombam":2157,"##chen":2158,"tin":2159,"ngam":2160,"puri":2161,"mayank":2162,"##anjan":2163,"niang":2164,"kunal":2165,"thoudam":2166,"##gh":2167,"##ring":2168,"irfan":2169,"ny":2170,"pet":2171,"shalu":2172,"puran":2173,"rajp":2174,"gayatri":2175,"kad":2176,"heena":2177,"##k.":2178,"sup":2179,"ok":2180,"khand":2181,"arif":2182,"rahman":2183,"salman":2184,"##bou":2185,"mangal":2186,"reb":2187,"val":2188,"##aka":2189,"kes":2190,"dheeraj":2191,"tad":2192,"aslam":2193,"nagpal":2194,"##isham":2195,"rik":2196,"halpati":2197,"anwar":2198,"purnima":2199,"##eto":2200,"mayang":2201,"mahendra":2202,"##thong":2203,"dik":2204,"tat":2205,"gol":2206,"saraswati":2207,"narendra":2208,"upadh":2209,"lalt":2210,"avinash":2211,"##ibam":2212,"##rei":2213,"##o.":2214,"##wanti":2215,"anjana":2216,"kor":2217,"##ambam":2218,"shanker":2219,"##nan":2220,"lalremru":2221,"##-u":2222,"##ingam":2223,"d'":2224,"##elo":2225,"iqbal":2226,"rashid":2227,"jes":2228,"aruna":2229,"##ngaih":2230,"mul":2231,"sohan":2232,"##pat":2233,"leish":2234,"prin":2235,"bhagwati":2236,"bablu":2237,"##riya":2238,"lai":2239,"rishi":2240,"nabam":2241,"##ikant":2242,"preet":2243,"amita":2244,"basanti":2245,"vinita":2246,"##ui":2247,"parul":2248,"##ikim":2249,"bah":2250,"##indal":2251,"mutum":2252,"##shai":2253,"##jri":2254,"mahajan":2255,"shilpa":2256,"pak":2257,"pe":2258,"shi":2259,"gita":2260,"##mat":2261,"sagol":2262,"syn":2263,"hit":2264,"james":2265,"lour":2266,"roop":2267,"ach":2268,"fat":2269,"suchiang":2270,"##hou":2271,"lalchhan":2272,"neeru":2273,"##jak":2274,"ishwar":2275,"sameer":2276,"##yas":2277,"mukhim":2278,"pus":2279,"mukh":2280,"ankur":2281,"hel":2282,"lalro":2283,"ral":2284,"##arani":2285,"##eesh":2286,"##hon":2287,"seth":2288,"jah":2289,"chhabra":2290,"lamare":2291,"jer":2292,"wangsu":2293,"aham":2294,"##eshi":2295,"lallaw":2296,"thu":2297,"manohar":2298,"zot":2299,"warjri":2300,"##rambam":2301,"##vindra":2302,"tsering":2303,"naf":2304,"teng":2305,"rymbai":2306,"geet":2307,"##pang":2308,"##aba":2309,"jindal":2310,"annu":2311,"raz":2312,"anth":2313,"##ngi":2314,"##togi":2315,"jose":2316,"jug":2317,"##car":2318,"##ista":2319,"areng":2320,"##eb":2321,"roshni":2322,"##ian":2323,"rina":2324,"vimal":2325,"tand":2326,"keshav":2327,"lian":2328,"parmod":2329,"##akir":2330,"##jo":2331,"kit":2332,"praja":2333,"longjam":2334,"vicky":2335,"richa":2336,"##dor":2337,"##ayum":2338,"##lie":2339,"khushboo":2340,"monu":2341,"ter":2342,"##kant":2343,"alok":2344,"sujata":2345,"##odh":2346,"bhal":2347,"##dam":2348,"ankita":2349,"tek":2350,"##ingra":2351,"aas":2352,"wadh":2353,"radhey":2354,"prema":2355,"adh":2356,"shamim":2357,"rathore":2358,"khongsai":2359,"rishab":2360,"chho":2361,"nanda":2362,"##yngk":2363,"upadhyay":2364,"gandhi":2365,"amarjeet":2366,"yap":2367,"husain":2368,"kr.":2369,"zam":2370,"##pha":2371,"dom":2372,"##jah":2373,"##khom":2374,"abha":2375,"tai":2376,"khundra":2377,"##bon":2378,"rajput":2379,"##ney":2380,"##po":2381,"thomas":2382,"##pok":2383,"thabah":2384,"rastogi":2385,"##udin":2386,"khundrakpam":2387,"kik":2388,"##ilu":2389,"aakash":2390,"poh":2391,"rukh":2392,"nga":2393,"rupa":2394,"ing":2395,"dharmendra":2396,"mumta":2397,"gulab":2398,"chadha":2399,"anjum":2400,"##ruti":2401,"##iro":2402,"ed":2403,"##lai":2404,"##hara":2405,"dhingra":2406,"##shana":2407,"##ker":2408,"nongbri":2409,"her":2410,"yat":2411,"##yani":2412,"dav":2413,"father":2414,"khongs":2415,"lalmuan":2416,"thongni":2417,"chetan":2418,"waikhom":2419,"jamir":2420,"rajat":2421,"sadh":2422,"##kum":2423,"ven":2424,"dani":2425,"rehman":2426,"dang":2427,"##dip":2428,"khangembam":2429,"hat":2430,"##ston":2431,"##eta":2432,"siddi":2433,"bindu":2434,"fathers":2435,"##anshu":2436,"##olkar":2437,"dai":2438,"##riat":2439,"##val":2440,"pukhrambam":2441,"##nga":2442,"laltha":2443,"robin":2444,"##nar":2445,"##aya":2446,"ber":2447,"##holi":2448,"##mohan":2449,"taneja":2450,"##aris":2451,"kirti":2452,"mayanglambam":2453,"on":2454,"tush":2455,"##rik":2456,"tu":2457,"prom":2458,"##af":2459,"sel":2460,"##omcha":2461,"kamat":2462,"##ent":2463,"nur":2464,"vat":2465,"mehto":2466,"##meen":2467,"avtar":2468,"ravindra":2469,"sarvesh":2470,"payal":2471,"chi":2472,"anthony":2473,"mos":2474,"##gin":2475,"bhola":2476,"yak":2477,"azad":2478,"##toli":2479,"##bita":2480,"##usu":2481,"##dy":2482,"nung":2483,"rim":2484,"##hiya":2485,"##pari":2486,"##ary":2487,"##ushi":2488,"zothan":2489,"sneh":2490,"phu":2491,"##vel":2492,"laldin":2493,"##won":2494,"gaun":2495,"devendra":2496,"ansh":2497,"rajn":2498,"miss":2499,"joa":2500,"karma":2501,"rao":2502,"balbir":2503,"kamala":2504,"lham":2505,"hans":2506,"darshan":2507,"##awm":2508,"nak":2509,"bit":2510,"piy":2511,"kumar.":2512,"saleem":2513,"lama":2514,"##neil":2515,"##eshwari":2516,"parv":2517,"vaz":2518,"biak":2519,"##rekar":2520,"ngang":2521,"gurpreet":2522,"girish":2523,"sapam":2524,"tombi":2525,"##alu":2526,"##ikari":2527,"##ale":2528,"narang":2529,"en":2530,"ge":2531,"gurmeet":2532,"##chon":2533,"mohini":2534,"murti":2535,"satpal":2536,"arengh":2537,"##nia":2538,"jul":2539,"laldu":2540,"gagan":2541,"zo":2542,"ting":2543,"aash":2544,"takhellambam":2545,"prajapati":2546,"parvati":2547,"chakra":2548,"dhir":2549,"##sia":2550,"##pho":2551,"##nai":2552,"manger":2553,"madhuri":2554,"##iz":2555,"##uram":2556,"sailo":2557,"tabas":2558,"naseem":2559,"nagar":2560,"##ankar":2561,"pushp":2562,"hai":2563,"ant":2564,"dix":2565,"##ngai":2566,"him":2567,"deepti":2568,"pem":2569,"bel":2570,"zon":2571,"nikita":2572,"##hiraj":2573,"kuk":2574,"wadhwa":2575,"##ynti":2576,"pratibha":2577,"harpreet":2578,"zar":2579,"##rar":2580,"amb":2581,"anurag":2582,"pul":2583,"bob":2584,"durg":2585,"##jing":2586,"sumer":2587,"lakh":2588,"sumi":2589,"##anjeet":2590,"##thom":2591,"pong":2592,"##alang":2593,"##iam":2594,"kanika":2595,"sung":2596,"ked":2597,"thongam":2598,"us":2599,"##bak":2600,"##evi":2601,"rynt":2602,"##ngam":2603,"##ule":2604,"##che":2605,"gari":2606,"lotha":2607,"lalf":2608,"##mer":2609,"uttam":2610,"soibam":2611,"juli":2612,"mohammed":2613,"dhawan":2614,"nitesh":2615,"sne":2616,"##pli":2617,"##ungbam":2618,"akhilesh":2619,"adhikari":2620,"yo":2621,"ser":2622,"angom":2623,"##aji":2624,"##wel":2625,"vaibhav":2626,"dua":2627,"pratima":2628,"shruti":2629,"irshad":2630,"rid":2631,"nishant":2632,"khri":2633,"rishabh":2634,"##ts":2635,"fari":2636,"doma":2637,"lallawm":2638,"karam":2639,"dixit":2640,"maring":2641,"##aman":2642,"##ilda":2643,"##endang":2644,"##wairakpam":2645,"vaishali":2646,"##kham":2647,"gangmei":2648,"nongthom":2649,"khwairakpam":2650,"sangtam":2651,"panwar":2652,"sanasam":2653,"##ngar":2654,"barman":2655,"rinki":2656,"jaya":2657,"wanniang":2658,"neeta":2659,"konthoujam":2660,"nasir":2661,"inderjeet":2662,"##riti":2663,"suri":2664,"dieng":2665,"##tana":2666,"nongthombam":2667,"##cia":2668,"vit":2669,"tushar":2670,"loh":2671,"luk":2672,"afsana":2673,"desai":2674,"ming":2675,"phur":2676,"chir":2677,"sai":2678,"sarika":2679,"##eno":2680,"##dira":2681,"ring":2682,"imti":2683,"mina":2684,"##qui":2685,"sonali":2686,"##yari":2687,"##idem":2688,"shila":2689,"##siami":2690,"chhetri":2691,"nadeem":2692,"amrit":2693,"samuel":2694,"pawar":2695,"raghav":2696,"##bemo":2697,"fa":2698,"sus":2699,"sohtun":2700,"narain":2701,"gauri":2702,"##rawal":2703,"sri":2704,"ritika":2705,"peter":2706,"anam":2707,"bip":2708,"syed":2709,"shrivasta":2710,"myr":2711,"bhupender":2712,"bu":2713,"##ruai":2714,"##hao":2715,"##nem":2716,"vil":2717,"##anthem":2718,"ao":2719,"##rope":2720,"bak":2721,"##raf":2722,"sona":2723,"pramila":2724,"lun":2725,"##fiq":2726,"rizwan":2727,"##les":2728,"##ity":2729,"patil":2730,"isha":2731,"chung":2732,"ton":2733,"##waha":2734,"paras":2735,"dalip":2736,"##daw":2737,"##okhaibam":2738,"kong":2739,"lat":2740,"atho":2741,"chow":2742,"marngar":2743,"thiyam":2744,"shambhu":2745,"##let":2746,"charu":2747,"##chum":2748,"##indro":2749,"d'c":2750,"gomes":2751,"khaidem":2752,"sneha":2753,"##dankar":2754,"tabassum":2755,"pema":2756,"piyush":2757,"danish":2758,"khem":2759,"chal":2760,"sood":2761,"ve":2762,"konj":2763,"kand":2764,"##shang":2765,"lalsang":2766,"sou":2767,"kyr":2768,"pd":2769,"##ison":2770,"chaman":2771,"iaw":2772,"talwar":2773,"##skhem":2774,"tomba":2775,"##elwal":2776,"kami":2777,"okram":2778,"prince":2779,"lem":2780,"##ahun":2781,"##athiang":2782,"gin":2783,"garima":2784,"moti":2785,"gad":2786,"shant":2787,"janki":2788,"jac":2789,"##okh":2790,"pav":2791,"pednekar":2792,"##wakarma":2793,"##well":2794,"je":2795,"sagolsem":2796,"leishangthem":2797,"mahad":2798,"mud":2799,"sm":2800,"##idas":2801,"##tab":2802,"ai":2803,"puja":2804,"chris":2805,"surjeet":2806,"vineet":2807,"indira":2808,"##lar":2809,"khandelwal":2810,"yeng":2811,"pyng":2812,"##mun":2813,"brah":2814,"##ury":2815,"khom":2816,"##olin":2817,"##eyi":2818,"jyr":2819,"konjengbam":2820,"bhalla":2821,"jana":2822,"##khi":2823,"ekta":2824,"rynjah":2825,"kalawati":2826,"tashi":2827,"nongk":2828,"##sy":2829,"sain":2830,"vaiph":2831,"ryntathiang":2832,"syngk":2833,"jar":2834,"bendang":2835,"##ylli":2836,"##esha":2837,"##anjali":2838,"lhamu":2839,"thoibi":2840,"dw":2841,"sahani":2842,"##nagar":2843,"pritam":2844,"##jang":2845,"jasbir":2846,"loit":2847,"nazma":2848,"##erjee":2849,"firoz":2850,"##ley":2851,"##waz":2852,"khatri":2853,"jyrwa":2854,"diengdoh":2855,"##jahan":2856,"nitu":2857,"##ander":2858,"shok":2859,"roj":2860,"sheikh":2861,"rathor":2862,"sajid":2863,"pyngrope":2864,"mans":2865,"nandan":2866,"bhatnagar":2867,"binod":2868,"vic":2869,"let":2870,"##skar":2871,"sorokhaibam":2872,"song":2873,"##hlu":2874,"sem":2875,"geor":2876,"nair":2877,"##uz":2878,"dolly":2879,"anshu":2880,"##sangla":2881,"jee":2882,"##biang":2883,"dro":2884,"##ugh":2885,"pod":2886,"uj":2887,"##zau":2888,"nis":2889,"lalth":2890,"prat":2891,"rohan":2892,"gunjan":2893,"nayak":2894,"##urang":2895,"siddhar":2896,"techi":2897,"##ees":2898,"##ke":2899,"##rath":2900,"##lavi":2901,"ibe":2902,"nirmla":2903,"##esa":2904,"##hima":2905,"lakhan":2906,"antoni":2907,"renuka":2908,"##aben":2909,"##hang":2910,"khy":2911,"mag":2912,"##imon":2913,"bash":2914,"satender":2915,"ris":2916,"chongtham":2917,"nal":2918,"niwas":2919,"##run":2920,"bhanu":2921,"pran":2922,"##rii":2923,"memcha":2924,"##desh":2925,"jaswant":2926,"##shyam":2927,"##eih":2928,"munesh":2929,"##khlaw":2930,"ik":2931,"ath":2932,"##phi":2933,"lalhriat":2934,"shra":2935,"desh":2936,"heisnam":2937,"champa":2938,"bali":2939,"laltlan":2940,"rajani":2941,"abhin":2942,"##kesh":2943,"fur":2944,"##ci":2945,"vats":2946,"wangsa":2947,"muskan":2948,"such":2949,"amrita":2950,"rab":2951,"phi":2952,"kartik":2953,"pink!":2954,"bhasin":2955,"vaiphei":2956,"kundan":2957,"sr":2958,"##shna":2959,"##ning":2960,"pant":2961,"pah":2962,"##aima":2963,"keisham":2964,"jamuna":2965,"##bram":2966,"zonun":2967,"hming":2968,"##eka":2969,"##yne":2970,"ritesh":2971,"hon":2972,"##upar":2973,"manor":2974,"limbu":2975,"laleng":2976,"reema":2977,"##zad":2978,"##ohra":2979,"tham":2980,"mrs":2981,"##zal":2982,"sangma.":2983,"##ait":2984,"deepali":2985,"##zana":2986,"sanjana":2987,"oj":2988,"kanoj":2989,"jayan":2990,"##zab":2991,"naaz":2992,"sweta":2993,"chaoba":2994,"hitesh":2995,"##iong":2996,"##fela":2997,"laj":2998,"surya":2999,"kath":3000,"##ilung":3001,"huk":3002,"george":3003,"ankush":3004,"##l.":3005,"tilak":3006,"dulari":3007,"nongkhlaw":3008,"##raw":3009,"##je":3010,"##hanbi":3011,"mansi":3012,"##luanga":3013,"rajpal":3014,"##ves":3015,"shel":3016,"ul":3017,"lalnunt":3018,"##ishi":3019,"##hming":3020,"loitongbam":3021,"phul":3022,"##nong":3023,"##aro":3024,"paramjeet":3025,"rubi":3026,"hijam":3027,"##ello":3028,"##ple":3029,"hab":3030,"mayengbam":3031,"##emla":3032,"sharmila":3033,"lad":3034,"##uman":3035,"##andh":3036,"lourembam":3037,"nasim":3038,"roma":3039,"##bhi":3040,"##mawi":3041,"ruksana":3042,"chun":3043,"ashutosh":3044,"siddiqui":3045,"y.":3046,"sabir":3047,"##eswar":3048,"maheshwari":3049,"hir":3050,"##thing":3051,"##she":3052,"##zing":3053,"##omba":3054,"kaushalya":3055,"minakshi":3056,"tag":3057,"##oka":3058,"##ishak":3059,"and":3060,"dash":3061,"bishnu":3062,"##nesh":3063,"##eibam":3064,"promila":3065,"mandrekar":3066,"##uti":3067,"zoram":3068,"beh":3069,"##ilat":3070,"##ose":3071,"sultana":3072,"##nun":3073,"chand.":3074,"##ven":3075,"##kit":3076,"lalhmangaih":3077,"tulsi":3078,"krishana":3079,"asem":3080,"len":3081,"rehana":3082,"jum":3083,"##ngha":3084,"chit":3085,"rupesh":3086,"##toshi":3087,"tir":3088,"##yaz":3089,"athokpam":3090,"yaj":3091,"##beer":3092,"##lima":3093,"lip":3094,"milan":3095,"ale":3096,"##sei":3097,"vimlesh":3098,"##awa":3099,"kin":3100,"chaura":3101,"##wi":3102,"con":3103,"mann":3104,"##ano":3105,"chitra":3106,"##udev":3107,"banu":3108,"shanta":3109,"surjit":3110,"hak":3111,"##shar":3112,"##uria":3113,"padma":3114,"wasim":3115,"##ow":3116,"##xmi":3117,"lalchhu":3118,"rav":3119,"rohta":3120,"##angla":3121,"virendra":3122,"##rani":3123,"konsam":3124,"##birth":3125,"shiva":3126,"ruch":3127,"##ushad":3128,"shree":3129,"dahiya":3130,"ahamad":3131,"##uan":3132,"##tem":3133,"##rak":3134,"anisha":3135,"meet":3136,"##thra":3137,"akram":3138,"god":3139,"##lien":3140,"parwati":3141,"##lani":3142,"ket":3143,"yogita":3144,"##pak":3145,"antonio":3146,"ful":3147,"kushwaha":3148,"khul":3149,"pali":3150,"kol":3151,"rap":3152,"rajen":3153,"##pui":3154,"##mit":3155,"##mangai":3156,"##phang":3157,"gy":3158,"heera":3159,"##wala":3160,"##eshw":3161,"farzana":3162,"por":3163,"reg":3164,"##sangma":3165,"ratna":3166,"manpreet":3167,"##siam":3168,"pati":3169,"##jana":3170,"##avi":3171,"tim":3172,"##by":3173,"##don":3174,"agrawal":3175,"chetry":3176,"subodh":3177,"ngangom":3178,"top":3179,"##ananda":3180,"rameshwar":3181,"##anaw":3182,"punam":3183,"##irem":3184,"rus":3185,"##pong":3186,"ngul":3187,"net":3188,"pravesh":3189,"##niaw":3190,"##elina":3191,"vidhya":3192,"abbas":3193,"kikon":3194,"parvesh":3195,"francisco":3196,"irom":3197,"dap":3198,"santi":3199,"bon":3200,"las":3201,"siddharth":3202,"##feli":3203,"saf":3204,"mahadev":3205,"dak":3206,"##t.":3207,"nima":3208,"dhru":3209,"mes":3210,"kanwar":3211,"mol":3212,"harvinder":3213,"dabas":3214,"##net":3215,"khursh":3216,"gai":3217,"##lekar":3218,"akoijam":3219,"ajeet":3220,"ju":3221,"##loi":3222,"ghanshyam":3223,"##pai":3224,"dilshad":3225,"raf":3226,"anant":3227,"bang":3228,"##eo":3229,"dho":3230,"##chit":3231,"yogender":3232,"sora":3233,"##ynri":3234,"##iton":3235,"##iren":3236,"##ugha":3237,"yim":3238,"##tani":3239,"lalawm":3240,"sug":3241,"robert":3242,"darjee":3243,"##amani":3244,"##usuf":3245,"lalfak":3246,"tongbram":3247,"##kala":3248,"##ukcham":3249,"##sun":3250,"abhay":3251,"met":3252,"kataria":3253,"pallavi":3254,"##ray":3255,"panday":3256,"vibha":3257,"bikash":3258,"tana":3259,"##suk":3260,"##upu":3261,"taba":3262,"ryng":3263,"jub":3264,"##shim":3265,"thung":3266,"##leen":3267,"##siama":3268,"anish":3269,"##ruddin":3270,"bhati":3271,"saty":3272,"##pung":3273,"soma":3274,"qur":3275,"shit":3276,"##ky":3277,"chandni":3278,"##eki":3279,"agn":3280,"##jad":3281,"pravin":3282,"##rong":3283,"pol":3284,"yal":3285,"##nyu":3286,"##naz":3287,"gha":3288,"hi":3289,"mati":3290,"tali":3291,"##luangi":3292,"##reja":3293,"bhatta":3294,"##rawat":3295,"##dhi":3296,"d'costa":3297,"nasreen":3298,"new":3299,"##ylliem":3300,"rathi":3301,"arp":3302,"##vung":3303,"monica":3304,"braj":3305,"dham":3306,"sari":3307,"##ullah":3308,"tayeng":3309,"##ynsong":3310,"juneja":3311,"##khon":3312,"yep":3313,"basant":3314,"prabhakar":3315,"kanha":3316,"rajbir":3317,"supriya":3318,"##rata":3319,"sadhna":3320,"vis":3321,"heik":3322,"##dur":3323,"##ko":3324,"##outhang":3325,"amarjit":3326,"##ten":3327,"kel":3328,"niranjan":3329,"dhiraj":3330,"asma":3331,"rajkumari":3332,"riba":3333,"puspa":3334,"prateek":3335,"tril":3336,"khumukcham":3337,"dawa":3338,"##lor":3339,"mumtaz":3340,"yengkhom":3341,"##akham":3342,"yashoda":3343,"anoop":3344,"##sekar":3345,"##tak":3346,"panchal":3347,"##ubi":3348,"##ekho":3349,"mura":3350,"##winder":3351,"##res":3352,"ramji":3353,"elizab":3354,"##ilatpam":3355,"chon":3356,"bareh":3357,"mahavir":3358,"##ria":3359,"##ungo":3360,"lin":3361,"passang":3362,"##phu":3363,"shu":3364,"chum":3365,"##ih":3366,"##ibala":3367,"##tso":3368,"pansa":3369,"bakshi":3370,"mona":3371,"ibomcha":3372,"murari":3373,"##avati":3374,"tandon":3375,"dimple":3376,"samir":3377,"diksha":3378,"##lein":3379,"ete":3380,"lucy":3381,"##cio":3382,"mathew":3383,"zub":3384,"rabi":3385,"raut":3386,"yar":3387,"##emo":3388,"mylliem":3389,"chouhan":3390,"rajwati":3391,"savi":3392,"yun":3393,"nut":3394,"##yarani":3395,"ranjita":3396,"archna":3397,"vanlalru":3398,"rok":3399,"##elu":3400,"##nya":3401,"##py":3402,"##hail":3403,"##roy":3404,"sanjiv":3405,"##inho":3406,"subash":3407,"qureshi":3408,"namita":3409,"aam":3410,"kis":3411,"yusuf":3412,"lall":3413,"choudh":3414,"narula":3415,"fatma":3416,"##onuo":3417,"pinto":3418,"laltan":3419,"kamini":3420,"jab":3421,"durgesh":3422,"den":3423,"##wah":3424,"##oris":3425,"shahnaz":3426,"rati":3427,"shekh":3428,"naushad":3429,"##ily":3430,"meetei":3431,"##stone":3432,"suna":3433,"jad":3434,"mukul":3435,"##tor":3436,"nitish":3437,"narg":3438,"##udas":3439,"##neikim":3440,"chugh":3441,"##ald":3442,"sheh":3443,"datta":3444,"##lis":3445,"##riem":3446,"kamb":3447,"lily":3448,"roo":3449,"##wana":3450,"daniel":3451,"akbar":3452,"qu":3453,"costa":3454,"anal":3455,"du":3456,"bem":3457,"bhawana":3458,"##kish":3459,"ind":3460,"##sim":3461,"##inu":3462,"##yntiew":3463,"cola":3464,"vung":3465,"padam":3466,"##ansha":3467,"##arora":3468,"##ashisha":3469,"##dawng":3470,"ramu":3471,"sabina":3472,"ranju":3473,"##asi":3474,"baljeet":3475,"esther":3476,"colaco":3477,"avi":3478,"##rujam":3479,"##ole":3480,"deori":3481,"##boklang":3482,"##borty":3483,"khi":3484,"trilok":3485,"shabong":3486,"ayush":3487,"mandeep":3488,"shilpi":3489,"musta":3490,"lalremruata":3491,"nana":3492,"elizabeth":3493,"lila":3494,"irakpam":3495,"mascar":3496,"syngkli":3497,"co":3498,"satbir":3499,"lap":3500,"haldar":3501,"bijay":3502,"##sham":3503,"nongrang":3504,"##kali":3505,"##inath":3506,"chatur":3507,"##chhungi":3508,"touthang":3509,"ojha":3510,"rubina":3511,"##ibor":3512,"##phniaw":3513,"yeptho":3514,"dhruv":3515,"##eenu":3516,"##indra":3517,"##marak":3518,"bhattachar":3519,"##anksha":3520,"harjeet":3521,"##rie":3522,"alex":3523,"zakir":3524,"bihari":3525,"shish":3526,"chandrakant":3527,"chingakham":3528,"abid":3529,"sut":3530,"mari":3531,"##enhas":3532,"devinder":3533,"lamba":3534,"##pen":3535,"yasmeen":3536,"sebas":3537,"kharbani":3538,"sehrawat":3539,"siang":3540,"##yaima":3541,"talang":3542,"sweet":3543,"lol":3544,"jasvinder":3545,"kay":3546,"kanojia":3547,"mascarenhas":3548,"##ashar":3549,"raza":3550,"##pao":3551,"dog":3552,"sir":3553,"leena":3554,"##zami":3555,"prer":3556,"bari":3557,"red":3558,"guddu":3559,"gambh":3560,"khyriem":3561,"##enuo":3562,"sonal":3563,"##uto":3564,"iawphniaw":3565,"chodankar":3566,"pyr":3567,"bhaskar":3568,"sunar":3569,"khumanthem":3570,"jamal":3571,"##ingstar":3572,"##umayum":3573,"tariang":3574,"waseem":3575,"##odar":3576,"##aib":3577,"mush":3578,"shailesh":3579,"kharum":3580,"saran":3581,"##ff":3582,"##singh":3583,"souza":3584,"navin":3585,"##zung":3586,"##ynrih":3587,"navneet":3588,"##ying":3589,"##chael":3590,"##awma":3591,"manik":3592,"w.":3593,"##oto":3594,"pintu":3595,"##num":3596,"luthra":3597,"dwiv":3598,"##mala":3599,"##ene":3600,"prachi":3601,"##jender":3602,"lima":3603,"##shem":3604,"##lakpam":3605,"fr":3606,"vohra":3607,"zhim":3608,"karuna":3609,"chandr":3610,"rose":3611,"##ishma":3612,"##malsaw":3613,"manglem":3614,"jak":3615,"pai":3616,"pot":3617,"kevi":3618,"##rai":3619,"##phy":3620,"hash":3621,"jib":3622,"santra":3623,"##ore":3624,"c.lal":3625,"arshad":3626,"vah":3627,"##anji":3628,"nongkynrih":3629,"poddar":3630,"baldev":3631,"jagan":3632,"temjen":3633,"chakraborty":3634,"umar":3635,"sultan":3636,"swap":3637,"omwati":3638,"swer":3639,"##imuddin":3640,"lh":3641,"vay":3642,"shakil":3643,"kanhaiya":3644,"##ipal":3645,"bom":3646,"zu":3647,"pyari":3648,"sp":3649,"jaspreet":3650,"##boh":3651,"rukhsana":3652,"bap":3653,"devki":3654,"parvez":3655,"abhinav":3656,"dwivedi":3657,"panmei":3658,"##und":3659,"taran":3660,"ibemcha":3661,"gonmei":3662,"pradip":3663,"maz":3664,"##ag":3665,"khund":3666,"pandurang":3667,"mha":3668,"dr":3669,"lum":3670,"##andar":3671,"rajeshwari":3672,"##charan":3673,"kashi":3674,"##e!":3675,"##khiew":3676,"##uda":3677,"rukmani":3678,"walia":3679,"salgaonkar":3680,"hum":3681,"lav":3682,"##aid":3683,"kakkar":3684,"neh":3685,"kot":3686,"rattan":3687,"##khu":3688,"phal":3689,"carval":3690,"nip":3691,"basnet":3692,"bedi":3693,"##ojit":3694,"uddin":3695,"anamika":3696,"radhe":3697,"jagat":3698,"nancy":3699,"chongloi":3700,"##vedi":3701,"haobi":3702,"shamshad":3703,"riyaz":3704,"##itri":3705,"##chanda":3706,"##anjit":3707,"##dekar":3708,"carvalho":3709,"sourabh":3710,"lalremruati":3711,"##pou":3712,"lalmu":3713,"haobijam":3714,"wangkhem":3715,"##day":3716,"##kat":3717,"##oria":3718,"ngur":3719,"##lhing":3720,"rebe":3721,"shakeel":3722,"aditi":3723,"zoh":3724,"##uki":3725,"pen":3726,"bimlesh":3727,"##minthang":3728,"apar":3729,"kaus":3730,"michael":3731,"himani":3732,"ruchika":3733,"yesh":3734,"shag":3735,"cardo":3736,"swaroop":3737,"##nuid":3738,"jol":3739,"lib":3740,"##mil":3741,"jim":3742,"nutan":3743,"deepanshu":3744,"##aniya":3745,"triv":3746,"haz":3747,"ling":3748,"##odia":3749,"##dhesh":3750,"##hor":3751,"##ustin":3752,"sono":3753,"##thiang":3754,"krit":3755,"##pokpam":3756,"##odin":3757,"tei":3758,"dogra":3759,"bora":3760,"##shon":3761,"##boi":3762,"balvinder":3763,"kerkar":3764,"##kai":3765,"dis":3766,"oli":3767,"anshul":3768,"tanya":3769,"##shiang":3770,"non":3771,"##neilhing":3772,"prag":3773,"dagar":3774,"hrang":3775,"##shit":3776,"##adha":3777,"martin":3778,"vaid":3779,"##akumar":3780,"lyn":3781,"ashraf":3782,"karishma":3783,"wangpan":3784,"samar":3785,"##thy":3786,"rob":3787,"poor":3788,"guru":3789,"leimapokpam":3790,"andre":3791,"bikram":3792,"##sat":3793,"##lot":3794,"pertin":3795,"fah":3796,"kunwar":3797,"##estar":3798,"farida":3799,"jem":3800,"shik":3801,"##shiar":3802,"sanjeet":3803,"mira":3804,"##sung":3805,"manchanda":3806,"baite":3807,"neena":3808,"hani":3809,"##rana":3810,"hun":3811,"ramwati":3812,"rupali":3813,"gudiya":3814,"wat":3815,"niraj":3816,"##reya":3817,"##leng":3818,"borkar":3819,"sanatombi":3820,"##joy":3821,"vel":3822,"##sah":3823,"##cao":3824,"##kang":3825,"sweety":3826,"manjit":3827,"##yrmang":3828,"xavi":3829,"smita":3830,"##tombi":3831,"gawade":3832,"kharumnuid":3833,"manu":3834,"joaqu":3835,"narinder":3836,"prerna":3837,"##obin":3838,"gok":3839,"sahi":3840,"##okpam":3841,"##gav":3842,"gog":3843,"pit":3844,"##bath":3845,"##akh":3846,"sind":3847,"hao":3848,"tik":3849,"##rah":3850,"amina":3851,"shaheen":3852,"xavier":3853,"mark":3854,"mahinder":3855,"shadab":3856,"prabhat":3857,"memma":3858,"aftab":3859,"##jinder":3860,"##ese":3861,"amandeep":3862,"bur":3863,"saurav":3864,"shamsh":3865,"mik":3866,"jayanti":3867,"saba":3868,"jacob":3869,"gop":3870,"git":3871,"lalhru":3872,"khundongbam":3873,"ranbir":3874,"shokeen":3875,"himanshi":3876,"lar":3877,"davinder":3878,"vasudev":3879,"bet":3880,"upender":3881,"lit":3882,"nilesh":3883,"barkha":3884,"##ithung":3885,"mub":3886,"sungoh":3887,"dayan":3888,"##rina":3889,"beng":3890,"##zia":3891,"surbhi":3892,"pamei":3893,"##mina":3894,"bhupinder":3895,"rahaman":3896,"rohtash":3897,"gi":3898,"likha":3899,"zahid":3900,"##riang":3901,"ralte":3902,"##zuk":3903,"rum":3904,"sema":3905,"##rema":3906,"vijender":3907,"randh":3908,"chaturvedi":3909,"##rit":3910,"##shing":3911,"kunti":3912,"gen":3913,"swami":3914,"##lik":3915,"##anbi":3916,"gourav":3917,"khat":3918,"siraj":3919,"tadar":3920,"##zauva":3921,"jin":3922,"phan":3923,"siangshai":3924,"##thar":3925,"##boob":3926,"##mol":3927,"sonar":3928,"rais":3929,"##nung":3930,"kud":3931,"##thari":3932,"khalid":3933,"##vah":3934,"ango":3935,"maisnam":3936,"bijender":3937,"##sil":3938,"irengbam":3939,"rip":3940,"nah":3941,"hina":3942,"##aja":3943,"kishori":3944,"tel":3945,"##akant":3946,"shubh":3947,"yasmin":3948,"##uv":3949,"pil":3950,"chira":3951,"thak":3952,"karki":3953,"vipul":3954,"mynsong":3955,"sayed":3956,"parvin":3957,"##nal":3958,"p.c.":3959,"purna":3960,"shakir":3961,"srivastav":3962,"##jot":3963,"muj":3964,"shat":3965,"kil":3966,"shem":3967,"rava":3968,"lallian":3969,"vashish":3970,"shyama":3971,"kshiar":3972,"##ottam":3973,"##iru":3974,"muni":3975,"moy":3976,"##prakash":3977,"##siya":3978,"##shisha":3979,"laloo":3980,"parmila":3981,"##rao":3982,"shreya":3983,"lalhlim":3984,"win":3985,"##wini":3986,"darshana":3987,"bhargav":3988,"akanksha":3989,"sadhana":3990,"vak":3991,"sabita":3992,"jaspal":3993,"sushant":3994,"##ella":3995,"mohamad":3996,"##athan":3997,"grace":3998,"sujit":3999,"jiten":4000,"##thara":4001,"kut":4002,"mei":4003,"bhavna":4004,"##dong":4005,"##kon":4006,"fil":4007,"##jai":4008,"ruh":4009,"chub":4010,"##arsh":4011,"##lina":4012,"vinayak":4013,"rajbala":4014,"nagma":4015,"dug":4016,"##jar":4017,"manmohan":4018,"##srang":4019,"##d.":4020,"sonowal":4021,"harijan":4022,"##sangbam":4023,"##hoto":4024,"##ist":4025,"nab":4026,"bimola":4027,"premwati":4028,"razia":4029,"pab":4030,"##wanath":4031,"bok":4032,"budh":4033,"##jon":4034,"achumi":4035,"##elie":4036,"##land":4037,"sarangthem":4038,"##anjay":4039,"##nghe":4040,"##sila":4041,"##ulo":4042,"##suan":4043,"doh":4044,"farha":4045,"kaul":4046,"rajak":4047,"hol":4048,"sumita":4049,"ngullie":4050,"anton":4051,"lor":4052,"sobha":4053,"##per":4054,"haque":4055,"##kupar":4056,"##bhar":4057,"ze":4058,"sharif":4059,"shahana":4060,"kewal":4061,"abhi":4062,"norbu":4063,"nargis":4064,"r.k.":4065,"megh":4066,"##jwal":4067,"gurdeep":4068,"##yekar":4069,"hor":4070,"akhil":4071,"##shil":4072,"naeem":4073,"##arkar":4074,"aparna":4075,"##dalin":4076,"surekha":4077,"bhagi":4078,"sati":4079,"##rati":4080,"##engi":4081,"mema":4082,"faizan":4083,"nep":4084,"##ein":4085,"##dir":4086,"lalduh":4087,"hmingthan":4088,"##las":4089,"mate":4090,"benjam":4091,"##ono":4092,"lalz":4093,"khup":4094,"as.":4095,"##ess":4096,"##ngain":4097,"##fo":4098,"##mong":4099,"##andi":4100,"kuam":4101,"khongsit":4102,"##key":4103,"##ilian":4104,"aziz":4105,"##ulie":4106,"##khaibam":4107,"parvinder":4108,"mossang":4109,"sav":4110,"gus":4111,"##ele":4112,"pariong":4113,"sukhbir":4114,"santa":4115,"##ppa":4116,"##stang":4117,"hasina":4118,"deen":4119,"##roz":4120,"varma":4121,"##iq":4122,"chetna":4123,"faisal":4124,"kharsati":4125,"nizam":4126,"nel":4127,"##s!":4128,"##lamu":4129,"##asha":4130,"bijoy":4131,"kapur":4132,"ngangbam":4133,"premila":4134,"chhote":4135,"yumkhaibam":4136,"gr":4137,"##ota":4138,"sanjit":4139,"wung":4140,"##nunga":4141,"chirag":4142,"thar":4143,"ship":4144,"bant":4145,"pratik":4146,"##macha":4147,"akansha":4148,"anupam":4149,"##bang":4150,"naobi":4151,"basar":4152,"mahato":4153,"pied":4154,"##vili":4155,"balram":4156,"lovel":4157,"modi":4158,"khanam":4159,"mhon":4160,"##wer":4161,"##neichong":4162,"sarab":4163,"##jao":4164,"diwan":4165,"gambhir":4166,"hid":4167,"##fta":4168,"zim":4169,"narvekar":4170,"tahir":4171,"##pur":4172,"naw":4173,"##epam":4174,"##zin":4175,"premlata":4176,"langstang":4177,"bes":4178,"##amon":4179,"##mini":4180,"##noh":4181,"##appa":4182,"jong":4183,"put":4184,"##wad":4185,"piedade":4186,"rihana":4187,"gangte":4188,"##rukh":4189,"lalmalsaw":4190,"bank":4191,"khati":4192,"##sian":4193,"khark":4194,"##jum":4195,"shashank":4196,"mulla":4197,"##via":4198,"yashpal":4199,"damodar":4200,"geetanjali":4201,"shrivastav":4202,"ly":4203,"sudar":4204,"##ilia":4205,"gurumayum":4206,"##hoo":4207,"cardozo":4208,"anis":4209,"ambika":4210,"##liam":4211,"adil":4212,"sharan":4213,"rajnish":4214,"chaurasia":4215,"vanlalhruai":4216,"yong":4217,"##rant":4218,"##zela":4219,"mahar":4220,"##bari":4221,"wank":4222,"yaima":4223,"bimal":4224,"bano.":4225,"acho":4226,"mohinder":4227,"nigam":4228,"##endri":4229,"haider":4230,"##vika":4231,"##spung":4232,"jawa":4233,"philip":4234,"##chhana":4235,"thingujam":4236,"samina":4237,"shetye":4238,"lucky":4239,"joao":4240,"bhak":4241,"nandini":4242,"johnson":4243,"mool":4244,"mondal":4245,"ibet":4246,"khushbu":4247,"saikhom":4248,"chu":4249,"maan":4250,"##ngen":4251,"mahima":4252,"saira":4253,"##gufta":4254,"babbar":4255,"lalduhaw":4256,"suhail":4257,"anandi":4258,"##harwal":4259,"lalrind":4260,"er":4261,"khura":4262,"shakila":4263,"heikrujam":4264,"anupama":4265,"seeta":4266,"tika":4267,"shahin":4268,"bharati":4269,"chameli":4270,"kukreja":4271,"ober":4272,"balwant":4273,"anguri":4274,"nai":4275,"lalhruait":4276,"janak":4277,"gajender":4278,"##bul":4279,"lalthang":4280,"usman":4281,"mehar":4282,"the":4283,"taw":4284,"dhananjay":4285,"##hlad":4286,"yay":4287,"##yad":4288,"sis":4289,"lala":4290,"namrata":4291,"perme":4292,"lamin":4293,"lbem":4294,"mahipal":4295,"sunaina":4296,"sundar":4297,"hmar":4298,"##cca":4299,"zosang":4300,"haobam":4301,"##hen":4302,"##oji":4303,"amom":4304,"##sab":4305,"##nang":4306,"lairen":4307,"chetri":4308,"##my":4309,"##ze":4310,"aug":4311,"##machhu":4312,"wak":4313,"ana":4314,"il":4315,"##irang":4316,"lobo":4317,"gah":4318,"##bis":4319,"kathuria":4320,"saluja":4321,"pon":4322,"##eeda":4323,"prabh":4324,"ding":4325,"##milla":4326,"ibecha":4327,"kalam":4328,"##hab":4329,"rahis":4330,"##anan":4331,"tra":4332,"sani":4333,"##mail":4334,"vikrant":4335,"sutnga":4336,"##enga":4337,"lob":4338,"datt":4339,"tarannum":4340,"sabharwal":4341,"banerjee":4342,"raghun":4343,"aamir":4344,"chawng":4345,"drema":4346,"sima":4347,"benjamin":4348,"nom":4349,"handa":4350,"tum":4351,"inao":4352,"khuraijam":4353,"wel":4354,"sashi":4355,"##phrang":4356,"##nah":4357,"pale":4358,"rohilla":4359,"afzal":4360,"##jel":4361,"parsekar":4362,"##lip":4363,"zimik":4364,"niv":4365,"sib":4366,"tanu":4367,"jayant":4368,"farh":4369,"##reto":4370,"##jesh":4371,"##shal":4372,"hamid":4373,"gola":4374,"shin":4375,"kev":4376,"shing":4377,"prashad":4378,"nazim":4379,"nup":4380,"ryngkh":4381,"dong":4382,"##upuii":4383,"oberoi":4384,"cl":4385,"anmol":4386,"##ilva":4387,"nongspung":4388,"##eren":4389,"naina":4390,"un":4391,"jyot":4392,"shahnawaz":4393,"ezung":4394,"res":4395,"yant":4396,"##utkar":4397,"##eenat":4398,"##kal":4399,"##anya":4400,"pyar":4401,"##awmi":4402,"had":4403,"rebello":4404,"##neng":4405,"##jina":4406,"shrivastava":4407,"##lia":4408,"sonika":4409,"##one":4410,"##endr":4411,"choudhury":4412,"nu":4413,"lalhmun":4414,"kulwant":4415,"##chel":4416,"harshit":4417,"##ego":4418,"vineeta":4419,"pagi":4420,"kritika":4421,"kipa":4422,"##ojen":4423,"diwakar":4424,"barreto":4425,"##rishna":4426,"shailendra":4427,"##himi":4428,"raikar":4429,"them":4430,"savio":4431,"sinam":4432,"##diki":4433,"##sap":4434,"##bat":4435,"prana":4436,"##hol":4437,"kabita":4438,"hassan":4439,"habib":4440,"##dang":4441,"sharad":4442,"rosy":4443,"siya":4444,"thangkhiew":4445,"pink]":4446,"##ie":4447,"rk":4448,"nita":4449,"basanta":4450,"sanahanbi":4451,"zodin":4452,"##akpam":4453,"##rey":4454,"shahrukh":4455,"nanao":4456,"harban":4457,"mend":4458,"##dim":4459,"##vo":4460,"syl":4461,"randhir":4462,"susheela":4463,"kawal":4464,"won":4465,"mok":4466,"gauns":4467,"##rishti":4468,"martha":4469,"sei":4470,"ragh":4471,"shrikant":4472,"roopa":4473,"baw":4474,"##lembam":4475,"gag":4476,"nanak":4477,"##wak":4478,"guite":4479,"gonsal":4480,"##abu":4481,"sev":4482,"bani":4483,"kalu":4484,"nazia":4485,"##daris":4486,"mercy":4487,"pf":4488,"rane":4489,"awomi":4490,"wand":4491,"##devi":4492,"dahal":4493,"kela":4494,"##umla":4495,"kris":4496,"ther":4497,"chab":4498,"saddam":4499,"wahid":4500,"##jin":4501,"parwar":4502,"satnam":4503,"sulo":4504,"ato":4505,"bipin":4506,"prahlad":4507,"##ruz":4508,"##thian":4509,"ryngkhlem":4510,"dewan":4511,"syiemiong":4512,"shakti":4513,"simon":4514,"##miki":4515,"bhutani":4516,"phad":4517,"rev":4518,"##shen":4519,"##au":4520,"anas":4521,"makri":4522,"gurudas":4523,"lis":4524,"khushi":4525,"##ikumar":4526,"dipti":4527,"achar":4528,"gh":4529,"govekar":4530,"braham":4531,"lawai":4532,"bati":4533,"singla":4534,"indr":4535,"rizwana":4536,"mung":4537,"lakra":4538,"##des":4539,"chishi":4540,"##elkar":4541,"mitra":4542,"nus":4543,"dari":4544,"conc":4545,"##iza":4546,"surong":4547,"kalang":4548,"mila":4549,"rashi":4550,"shagufta":4551,"rawal":4552,"z.":4553,"rathod":4554,"rosari":4555,"##udi":4556,"##the":4557,"hanif":4558,"dad":4559,"kast":4560,"tre":4561,"vansh":4562,"bed":4563,"gurvinder":4564,"##hlui":4565,"##malkar":4566,"##tim":4567,"##pyn":4568,"##sla":4569,"alem":4570,"pc.":4571,"##bil":4572,"agnelo":4573,"sangriang":4574,"ody":4575,"anush":4576,"##eeba":4577,"alisha":4578,"d'silva":4579,"sanjoy":4580,"hap":4581,"shush":4582,"hil":4583,"##ffar":4584,"kl":4585,"##okho":4586,"sitara":4587,"##inha":4588,"kedar":4589,"lalhmangai":4590,"jet":4591,"odyuo":4592,"gre":4593,"##anna":4594,"##onha":4595,"chen":4596,"dipak":4597,"##cor":4598,"partap":4599,"wangkh":4600,"ait":4601,"lalmuanpuii":4602,"##ao":4603,"lalan":4604,"##maya":4605,"gonsalves":4606,"##bhan":4607,"fal":4608,"pir":4609,"mohsin":4610,"nilam":4611,"##eimayum":4612,"ches":4613,"bul":4614,"mey":4615,"##ec":4616,"biswakarma":4617,"##chard":4618,"victor":4619,"sna":4620,"mahan":4621,"##nyei":4622,"##osh":4623,"##karam":4624,"yogendra":4625,"yunus":4626,"banwari":4627,"##bun":4628,"anik":4629,"##tieh":4630,"##dhari":4631,"hos":4632,"khonglah":4633,"daljeet":4634,"##neih":4635,"##fer":4636,"sukhvinder":4637,"sulekha":4638,"katyal":4639,"urang":4640,"dayanand":4641,"rafiq":4642,"gulam":4643,"jamil":4644,"##chhunga":4645,"bablo":4646,"sahid":4647,"##sula":4648,"##sey":4649,"rajo":4650,"##ithal":4651,"luis":4652,"rol":4653,"##anawma":4654,"noronha":4655,"mech":4656,"mumtaj":4657,"##khe":4658,"kanwal":4659,"yom":4660,"vijaya":4661,"bengia":4662,"##!i":4663,"shahida":4664,"joaquim":4665,"anchal":4666,"ati":4667,"##rim":4668,"jeevan":4669,"##shangbam":4670,"sop":4671,"binita":4672,"najma":4673,"##ery":4674,"##awar":4675,"chhaya":4676,"parashar":4677,"ama":4678,"hardeep":4679,"##akha":4680,"sabi":4681,"chyrmang":4682,"##bom":4683,"##jeng":4684,"bhum":4685,"tol":4686,"##ishan":4687,"harpal":4688,"neelu":4689,"##aia":4690,"vishwakarma":4691,"deo":4692,"feli":4693,"##ulla":4694,"nandi":4695,"kalangutkar":4696,"phe":4697,"miranda":4698,"kasim":4699,"##joh":4700,"gogo":4701,"##ubhai":4702,"chem":4703,"mirza":4704,"uppal":4705,"gab":4706,"lekh":4707,"punit":4708,"puj":4709,"manjhi":4710,"sudarshan":4711,"sujeet":4712,"bhujel":4713,"omkar":4714,"budha":4715,"inaobi":4716,"##shree":4717,"kunj":4718,"##orjit":4719,"mot":4720,"rebecca":4721,"ashwini":4722,"nun":4723,"##jem":4724,"##alam":4725,"lhou":4726,"jawahar":4727,"shaista":4728,"anir":4729,"harinder":4730,"urv":4731,"yumlembam":4732,"mash":4733,"##nat":4734,"ramakant":4735,"##dika":4736,"kurk":4737,"##tis":4738,"aheibam":4739,"##phrakpam":4740,"koijam":4741,"vanita":4742,"farheen":4743,"nakul":4744,"##heli":4745,"##ikanta":4746,"lalng":4747,"##jong":4748,"##yai":4749,"korgaonkar":4750,"ishrat":4751,"##ukho":4752,"##ubala":4753,"parsh":4754,"babul":4755,"marboh":4756,"kh.":4757,"##alima":4758,"nathu":4759,"pala":4760,"##wet":4761,"upendra":4762,"albert":4763,"shahzad":4764,"rafi":4765,"hok":4766,"anna":4767,"aay":4768,"##thoi":4769,"##otam":4770,"lha":4771,"ob":4772,"birendra":4773,"kashm":4774,"shimray":4775,"gusain":4776,"##dram":4777,"hom":4778,"##nish":4779,"chandani":4780,"##chira":4781,"nayyar":4782,"biren":4783,"tarh":4784,"brahm":4785,"bembem":4786,"##eeb":4787,"main":4788,"birender":4789,"singson":4790,"jh":4791,"kah":4792,"lalthlamu":4793,"##odi":4794,"##dos":4795,"##eu":4796,"richard":4797,"##yanger":4798,"tung":4799,"gopi":4800,"##ros":4801,"ala":4802,"ruth":4803,"bagra":4804,"alp":4805,"##thoh":4806,"##ezes":4807,"##menlang":4808,"ramchandra":4809,"harmeet":4810,"kurkalang":4811,"##neilam":4812,"myrthong":4813,"##anba":4814,"vilas":4815,"reng":4816,"vinit":4817,"arambam":4818,"rukhsar":4819,"afroz":4820,"andrew":4821,"khaw":4822,"##phlang":4823,"bush":4824,"sundari":4825,"imkong":4826,"avdhesh":4827,"##tari":4828,"##veira":4829,"kei":4830,"##ineng":4831,"saloni":4832,"ahong":4833,"map":4834,"jagmohan":4835,"mustak":4836,"ayub":4837,"harender":4838,"##gai":4839,"rameshwari":4840,"sankar":4841,"amin":4842,"menezes":4843,"harbans":4844,"lego":4845,"##umdar":4846,"##line":4847,"tanuja":4848,"##rahim":4849,"uz":4850,"alias":4851,"che":4852,"poud":4853,"reetu":4854,"majaw":4855,"premjit":4856,"sas":4857,"##ikam":4858,"naval":4859,"##reti":4860,"##dap":4861,"sabana":4862,"##anu":4863,"khus":4864,"##irom":4865,"##ckson":4866,"##moit":4867,"gogo!":4868,"firoj":4869,"gokul":4870,"##ishisha":4871,"##dri":4872,"cor":4873,"##til":4874,"basai":4875,"##bind":4876,"duggal":4877,"dib":4878,"gaunkar":4879,"tosh":4880,"##sina":4881,"gl":4882,"manjula":4883,"##omin":4884,"bandana":4885,"devidas":4886,"varsh":4887,"##alata":4888,"##thak":4889,"##tila":4890,"thambal":4891,"zai":4892,"singpho":4893,"sawh":4894,"##inla":4895,"##lait":4896,"##hlimi":4897,"##ansh":4898,"sura":4899,"##likar":4900,"nongbet":4901,"dig":4902,"pebam":4903,"##zeli":4904,"##eswari":4905,"##kholun":4906,"##upa":4907,"##too":4908,"lik":4909,"hafi":4910,"vithal":4911,"bagang":4912,"santana":4913,"mukherjee":4914,"brahma":4915,"gor":4916,"mek":4917,"ismail":4918,"##ramani":4919,"lovely":4920,"sarat":4921,"gulf":4922,"ramdin":4923,"bun":4924,"##ron":4925,"syr":4926,"angou":4927,"##chila":4928,"urvashi":4929,"lalding":4930,"##ukhi":4931,"arshi":4932,"bimol":4933,"faz":4934,"##ret":4935,"##fali":4936,"tep":4937,"##aiya":4938,"mithilesh":4939,"##dina":4940,"manuel":4941,"gajanan":4942,"##china":4943,"bachan":4944,"sawhney":4945,"lali":4946,"aribam":4947,"star":4948,"concei":4949,"yab":4950,"zor":4951,"##vanlal":4952,"run":4953,"tlang":4954,"##ane":4955,"lapasam":4956,"kausar":4957,"jiv":4958,"##awmoit":4959,"bhargava":4960,"##baijam":4961,"##adevi":4962,"sarfar":4963,"vishwanath":4964,"##nghaka":4965,"dhani":4966,"basaiawmoit":4967,"tanvi":4968,"boby":4969,"hong":4970,"jasmeet":4971,"##ankimi":4972,"nasima":4973,"raghunath":4974,"lab":4975,"##diang":4976,"charanjeet":4977,"abhilash":4978,"##muana":4979,"##wir":4980,"##angte":4981,"bham":4982,"##emba":4983,"mawrie":4984,"debnath":4985,"##khong":4986,"madha":4987,"kamar":4988,"ca":4989,"bei":4990,"zul":4991,"tandel":4992,"nawab":4993,"##olo":4994,"##utinho":4995,"##sor":4996,"dattar":4997,"hmangaih":4998,"mri":4999,"jom":5000,"mhal":5001,"ol":5002,"pham":5003,"suneeta":5004,"mohm":5005,"faroo":5006,"mid":5007,"##rajkar":5008,"rebika":5009,"chaudh":5010,"kyrshan":5011,"mugha":5012,"roshani":5013,"sanatomba":5014,"aib":5015,"##pishak":5016,"##khuma":5017,"pyare":5018,"mehtab":5019,"jatinder":5020,"##itang":5021,"kavi":5022,"ghai":5023,"ibrahim":5024,"##nani":5025,"hukam":5026,"lb":5027,"##jungla":5028,"kharp":5029,"sajida":5030,"budhi":5031,"jogender":5032,"pahwa":5033,"##amar":5034,"nain":5035,"romita":5036,"biam":5037,"zafar":5038,"##pher":5039,"##ngiang":5040,"ayesha":5041,"vasant":5042,"coutinho":5043,"lalk":5044,"##ekpam":5045,"leit":5046,"##asana":5047,"shipra":5048,"ev":5049,"nishad":5050,"bobby":5051,"ves":5052,"##apang":5053,"##nak":5054,"lalhmachhu":5055,"kasturi":5056,"chatter":5057,"guj":5058,"sob":5059,"e.":5060,"sten":5061,"##omena":5062,"raina":5063,"swu":5064,"mithun":5065,"paramjit":5066,"ngap":5067,"jamila":5068,"khomdram":5069,"lobsang":5070,"##inga":5071,"khera":5072,"##hunlang":5073,"yanthan":5074,"manorama":5075,"malngiang":5076,"##dik":5077,"thingbaijam":5078,"sadanand":5079,"##hoih":5080,"##unuo":5081,"marthong":5082,"laiton":5083,"shivangi":5084,"shagol":5085,"##akhi":5086,"##odhi":5087,"##pet":5088,"th.":5089,"ngai":5090,"sandip":5091,"wanti":5092,"vanlalruati":5093,"rosario":5094,"jenny":5095,"##minder":5096,"##vum":5097,"##hija":5098,"kos":5099,"##elia":5100,"chop":5101,"panna":5102,"kuamr":5103,"##awan":5104,"kangabam":5105,"laitonjam":5106,"samim":5107,"sahoo":5108,"lawm":5109,"lalawmpuia":5110,"adarsh":5111,"silva":5112,"kharsyntiew":5113,"mourya":5114,"os":5115,"puyam":5116,"lakshay":5117,"conceicao":5118,"dee":5119,"yambem":5120,"mali":5121,"aad":5122,"##nie":5123,"halder":5124,"helen":5125,"##dia":5126,"sok":5127,"tes":5128,"##edar":5129,"jagbir":5130,"awas":5131,"lapang":5132,"lalawmpuii":5133,"shib":5134,"malsaw":5135,"##yngdoh":5136,"zeenat":5137,"##umati":5138,"dhak":5139,"wor":5140,"##thungo":5141,"shamsher":5142,"##ube":5143,"lowang":5144,"khil":5145,"imam":5146,"nisa":5147,"rajrani":5148,"tinku":5149,"tukaram":5150,"lom":5151,"##juddin":5152,"gadekar":5153,"##neithem":5154,"kesar":5155,"hri":5156,"nongt":5157,"drop":5158,"##eshwor":5159,"moin":5160,"sukhdev":5161,"##changya":5162,"dok":5163,"shakya":5164,"tun":5165,"romen":5166,"srishti":5167,"rampal":5168,"satyawati":5169,"gal":5170,"##imo":5171,"nagina":5172,"rongmei":5173,"tenzin":5174,"kaj":5175,"lov":5176,"mahto.":5177,"##senla":5178,"marc":5179,"sapana":5180,"angoori":5181,"set":5182,"sunanda":5183,"gangsa":5184,"khonglam":5185,"sitaram":5186,"zohming":5187,"del":5188,"abhiman":5189,"##iang":5190,"sohshang":5191,"##ody":5192,"rongsen":5193,"aan":5194,"aid":5195,"##raham":5196,"mukta":5197,"rashida":5198,"tongchangya":5199,"kank":5200,"##ija":5201,"##chun":5202,"##ket":5203,"##ingson":5204,"shen":5205,"mangla":5206,"beer":5207,"kem":5208,"romesh":5209,"zarina":5210,"jolly":5211,"##edy":5212,"sarv":5213,"dhiman":5214,"gil":5215,"sayra":5216,"nisar":5217,"morajkar":5218,"longkum":5219,"##ghese":5220,"aniket":5221,"##sangpuii":5222,"pathan":5223,"linda":5224,"bhattacharjee":5225,"##ween":5226,"##ise":5227,"bilal":5228,"sikander":5229,"bl":5230,"sekh":5231,"khurshid":5232,"##pham":5233,"azhar":5234,"parmar":5235,"##rul":5236,"kharkrang":5237,"##iksha":5238,"kartar":5239,"khol":5240,"jig":5241,"tenzing":5242,"mustafa":5243,"##onso":5244,"##taj":5245,"##imei":5246,"bhadur":5247,"##sit":5248,"marg":5249,"##elin":5250,"pao":5251,"sakunt":5252,"solom":5253,"nuk":5254,"##wen":5255,"taruna":5256,"sars":5257,"darshna":5258,"phadte":5259,"toh":5260,"harmalkar":5261,"##manuel":5262,"misra":5263,"##ungshi":5264,"##iran":5265,"naman":5266,"santoshi":5267,"khosla":5268,"marwah":5269,"raghubir":5270,"##deit":5271,"ghadi":5272,"kharmu":5273,"afsar":5274,"##bui":5275,"##vil":5276,"kain":5277,"##gio":5278,"lhouvum":5279,"##tola":5280,"christina":5281,"shayam":5282,"bhupendra":5283,"malsawmdawng":5284,"barua":5285,"shong":5286,"rinchin":5287,"nasrin":5288,"jugal":5289,"##ahi":5290,"bishan":5291,"taku":5292,"##kap":5293,"satinder":5294,"monga":5295,"##born":5296,"kalpna":5297,"disha":5298,"gahlot":5299,"lalchhand":5300,"hoque":5301,"##mie":5302,"jiban":5303,"flor":5304,"##liang":5305,"passah":5306,"##sul":5307,"##arn":5308,"##ankima":5309,"tit":5310,"##oon":5311,"##aan":5312,"khraw":5313,"yeshwant":5314,"pre":5315,"sagolshem":5316,"nzan":5317,"or":5318,"hariom":5319,"chabungbam":5320,"tina":5321,"##tsna":5322,"pranav":5323,"anjani":5324,"##chhani":5325,"victo":5326,"kharl":5327,"##alal":5328,"lakpa":5329,"patton":5330,"boro":5331,"nash":5332,"vandna":5333,"bahl":5334,"kok":5335,"##ojini":5336,"##meren":5337,"tsuk":5338,"sebasti":5339,"##ikala":5340,"maninder":5341,"##ankumar":5342,"kharmaw":5343,"steph":5344,"##hok":5345,"##tarai":5346,"##nad":5347,"##nghaki":5348,"chingangbam":5349,"sanaja":5350,"krishnan":5351,"ramnath":5352,"sushmita":5353,"shahjahan":5354,"mahabir":5355,"harshita":5356,"jud":5357,"bach":5358,"lamkho":5359,"kushal":5360,"lalnunmawii":5361,"zhimo":5362,"sidhar":5363,"##zang":5364,"##eman":5365,"gulzar":5366,"##hlua":5367,"iban":5368,"##aksh":5369,"bijen":5370,"##ras":5371,"##manand":5372,"##ithang":5373,"##vito":5374,"pishak":5375,"##tiew":5376,"shashikant":5377,"##ishing":5378,"sudhan":5379,"gaba":5380,"bhai":5381,"##nyan":5382,"##lick":5383,"jasmin":5384,"khym":5385,"prasad.":5386,"sourav":5387,"gill":5388,"namg":5389,"inaocha":5390,"jash":5391,"naba":5392,"gum":5393,"##kanta":5394,"##khomang":5395,"abraham":5396,"longkumer":5397,"##lum":5398,"##emi":5399,"sabitri":5400,"snaitang":5401,"khymdeit":5402,"##wajit":5403,"gagandeep":5404,"##b.":5405,"##ining":5406,"nen":5407,"baghel":5408,"tayal":5409,"jyotsna":5410,"imrana":5411,"laimayum":5412,"##labh":5413,"##ehra":5414,"rohini":5415,"key":5416,"awasthi":5417,"samreen":5418,"et":5419,"tasl":5420,"sandesh":5421,"##iniang":5422,"anar":5423,"kri.":5424,"mangi":5425,"eng":5426,"aashish":5427,"uzma":5428,"shailender":5429,"vashisht":5430,"##meida":5431,"ragini":5432,"tokas":5433,"jamoh":5434,"pres":5435,"##moi":5436,"dharma":5437,"##inuo":5438,"ayushi":5439,"merry":5440,"shital":5441,"johny":5442,"phoolwati":5443,"saima":5444,"##abati":5445,"##imayum":5446,"fan":5447,"##endu":5448,"bee":5449,"##umat":5450,"mawthoh":5451,"sudama":5452,"janar":5453,"swarn":5454,"varshney":5455,"bos":5456,"##v.":5457,"##tado":5458,"aye":5459,"##adar":5460,"##for":5461,"jor":5462,"sulochana":5463,"romila":5464,"##m.":5465,"##eef":5466,"##lemla":5467,"##mung":5468,"zeba":5469,"nagender":5470,"muham":5471,"soram":5472,"lalmuanpuia":5473,"##rick":5474,"naim":5475,"dipika":5476,"jing":5477,"almeida":5478,"furtado":5479,"isra":5480,"ramdas":5481,"lalrinawma":5482,"kub":5483,"ansar":5484,"##wor":5485,"saik":5486,"khandu":5487,"varghese":5488,"avdesh":5489,"lalnunpuii":5490,"##ashree":5491,"sohkh":5492,"##uah":5493,"shay":5494,"aq":5495,"fo":5496,"##enbam":5497,"simmi":5498,"muz":5499,"laltanpuii":5500,"hage":5501,"##all":5502,"senti":5503,"pris":5504,"minu":5505,"ngun":5506,"khoirom":5507,"ngo":5508,"stephen":5509,"sip":5510,"##ulat":5511,"munish":5512,"lalchhuan":5513,"##kholal":5514,"bushra":5515,"nyam":5516,"zain":5517,"luxmi":5518,"##pau":5519,"bidya":5520,"##baz":5521,"roz":5522,"bose":5523,"nitika":5524,"sabnam":5525,"milag":5526,"bilash":5527,"zak":5528,"bagga":5529,"dina":5530,"##ure":5531,"sarda":5532,"sumati":5533,"##neihoi":5534,"buh":5535,"##eshwori":5536,"##heto":5537,"sahab":5538,"geetika":5539,"it":5540,"##ddha":5541,"gour":5542,"##mood":5543,"william":5544,"lalhlimpuii":5545,"gyam":5546,"huirem":5547,"trivedi":5548,"nob":5549,"vjender":5550,"##tong":5551,"maim":5552,"vishwas":5553,"tapan":5554,"##hro":5555,"lalpi":5556,"jil":5557,"lho":5558,"##-o":5559,"##adhar":5560,"azam":5561,"thuk":5562,"safi":5563,"kalyan":5564,"lakhi":5565,"rajneesh":5566,"shahi":5567,"satendra":5568,"nonglait":5569,"purush":5570,"##amba":5571,"haq":5572,"sanathoi":5573,"behl":5574,"chatterjee":5575,"shou":5576,"##ubair":5577,"mili":5578,"saz":5579,"huma":5580,"singha":5581,"madaan":5582,"parminder":5583,"kuj":5584,"nchum":5585,"##queira":5586,"##ilson":5587,"mayekar":5588,"tip":5589,"##dait":5590,"herojit":5591,"rek":5592,"shazia":5593,"nongdhar":5594,"pum":5595,"sala":5596,"nongth":5597,"##irembam":5598,"aish":5599,"hemam":5600,"##ilam":5601,"karna":5602,"tampha":5603,"vig":5604,"ritik":5605,"##tuh":5606,"bamania":5607,"##emjen":5608,"##wara":5609,"##lova":5610,"##banu":5611,"pooran":5612,"skhem":5613,"##adkar":5614,"aisha":5615,"thoiba":5616,"##imin":5617,"acharya":5618,"yani":5619,"alf":5620,"babloo":5621,"rakh":5622,"ahir":5623,"##lya":5624,"##may":5625,"##indar":5626,"sobita":5627,"kyndait":5628,"dayawati":5629,"lollen":5630,"##hn":5631,"sancha":5632,"juhi":5633,"##silla":5634,"##ril":5635,"##otra":5636,"##lawat":5637,"##chhing":5638,"shana":5639,"rafik":5640,"isa":5641,"parshad":5642,"yimchung":5643,"zom":5644,"bhattarai":5645,"golmei":5646,"##chita":5647,"malsawmtluanga":5648,"karim":5649,"##lua":5650,"angela":5651,"##ungel":5652,"kanhiya":5653,"bandekar":5654,"chingtham":5655,"shanu":5656,"mukhiya":5657,"naseema":5658,"takam":5659,"nya":5660,"santan":5661,"neema":5662,"rajaram":5663,"lalrinpuii":5664,"chait":5665,"shobh":5666,"##moni":5667,"naha":5668,"##zauvi":5669,"upadha":5670,"##etuo":5671,"harjinder":5672,"majid":5673,"mk":5674,"mehboob":5675,"israr":5676,"ush":5677,"##menla":5678,"##red":5679,"sarf":5680,"ningtho":5681,"melody":5682,"gaytri":5683,"wen":5684,"sony":5685,"kent":5686,"phurba":5687,"sarthak":5688,"nafisa":5689,"ricky":5690,"ikram":5691,"zing":5692,"##elho":5693,"nazir":5694,"##ikesh":5695,"##onica":5696,"farman":5697,"venkat":5698,"henry":5699,"prasan":5700,"dharamvir":5701,"zi":5702,"##ohi":5703,"gurjeet":5704,"nupur":5705,"##pad":5706,"nabi":5707,"rosal":5708,"nani":5709,"mishra.":5710,"pyrtuh":5711,"then":5712,"v.l.":5713,"aanchal":5714,"##ngap":5715,"gurcharan":5716,"dattaram":5717,"rh":5718,"##okla":5719,"riam":5720,"lalchhanhimi":5721,"rud":5722,"pachu":5723,"##krishna":5724,"##bel":5725,"neera":5726,"##amma":5727,"tut":5728,"jajo":5729,"##unty":5730,"mrs.":5731,"kansal":5732,"basu":5733,"karmakar":5734,"leitanthem":5735,"##ordor":5736,"khe":5737,"##illai":5738,"laltanpuia":5739,"sami":5740,"rabiya":5741,"sarabjeet":5742,"sapra":5743,"wangkheimayum":5744,"##inei":5745,"##alkar":5746,"lamu":5747,"mery":5748,"bhajan":5749,"patra":5750,"yama":5751,"##umya":5752,"baid":5753,"##itoli":5754,"dew":5755,"pathaw":5756,"lamkang":5757,"lamani":5758,"nos":5759,"nafis":5760,"jadhav":5761,"malem":5762,"ibemhal":5763,"rij":5764,"suchitra":5765,"manorma":5766,"doli":5767,"dalu":5768,"chandrawati":5769,"mohmmad":5770,"ass":5771,"chim":5772,"abu":5773,"##p.":5774,"thot":5775,"nagesh":5776,"##linda":5777,"##dhary":5778,"aneja":5779,"abrar":5780,"nayan":5781,"r.lal":5782,"tet":5783,"##une":5784,"devesh":5785,"yimchunger":5786,"h.lal":5787,"kumud":5788,"##ilhing":5789,"hemanta":5790,"netra":5791,"harbha":5792,"yasin":5793,"seram":5794,"chandrika":5795,"gora":5796,"mehak":5797,"lalsiam":5798,"##tsoe":5799,"if":5800,"##ongba":5801,"manmeet":5802,"girdhari":5803,"chinta":5804,"toko":5805,"abhimanyu":5806,"tania":5807,"mib":5808,"##0)":5809,"sardar":5810,"digam":5811,"cher":5812,"##ewang":5813,"ks":5814,"##ood":5815,"##vei":5816,"augustin":5817,"##ghan":5818,"domini":5819,"josh":5820,"fad":5821,"hop":5822,"km":5823,"##anshi":5824,"nongphu":5825,"(0)":5826,"##vas":5827,"aim":5828,"##hring":5829,"pro":5830,"humtsoe":5831,"##babu":5832,"lalzar":5833,"victoria":5834,"ner":5835,"joel":5836,"##lupuii":5837,"tyng":5838,"shul":5839,"mug":5840,"yami":5841,"kato":5842,"khriam":5843,"rajveer":5844,"yai":5845,"##fia":5846,"ahamed":5847,"##r.":5848,"pursh":5849,"nihar":5850,"pulkit":5851,"pushkar":5852,"rukmini":5853,"##ares":5854,"wilson":5855,"chowdh":5856,"##tang":5857,"resham":5858,"twin":5859,"zen":5860,"##kin":5861,"vanlalp":5862,"yag":5863,"sindhu":5864,"jaipal":5865,"##nungi":5866,"##chim":5867,"kais":5868,"shefali":5869,"chot":5870,"jonathan":5871,"sarswati":5872,"##minlen":5873,"nek":5874,"zir":5875,"devika":5876,"lalcha":5877,"##aliya":5878,"kekh":5879,"harsha":5880,"samson":5881,"kangjam":5882,"frank":5883,"yendr":5884,"kriti":5885,"nishu":5886,"suchita":5887,"yendrembam":5888,"sawk":5889,"##lih":5890,"id":5891,"##chem":5892,"deepu":5893,"haldankar":5894,"##poklakpam":5895,"##ohal":5896,"rosa":5897,"##bhalang":5898,"pushpender":5899,"##dew":5900,"##walia":5901,"amreen":5902,"brojen":5903,"##onu":5904,"madhav":5905,"maham":5906,"seb":5907,"mayur":5908,"ovung":5909,"##angmayum":5910,"nongtdu":5911,"sail":5912,"amjad":5913,"lalroh":5914,"##tesh":5915,"ashima":5916,"meren":5917,"satar":5918,"redkar":5919,"ibetombi":5920,"##shong":5921,"dem":5922,"##inde":5923,"kunda":5924,"lyngkho!":5925,"wankhar":5926,"##nes":5927,"##vis":5928,"lalngai":5929,"shetkar":5930,"ci":5931,"lohar":5932,"##numa":5933,"##itombi":5934,"premkumar":5935,"lalhruai":5936,"koli":5937,"sawkmie":5938,"bhawani":5939,"ruksar":5940,"##dana":5941,"jaha":5942,"bhik":5943,"sajjan":5944,"nalini":5945,"yur":5946,"##anath":5947,"asgar":5948,"yamin":5949,"pachuau":5950,"nauti":5951,"monte":5952,"jakir":5953,"op":5954,"##yant":5955,"##tabam":5956,"bunty":5957,"##nao":5958,"gera":5959,"bragan":5960,"langpoklakpam":5961,"rehan":5962,"##ariya":5963,"farhana":5964,"bindra":5965,"##illing":5966,"##jung":5967,"soph":5968,"hing":5969,"##khum":5970,"imli":5971,"nusrat":5972,"cam":5973,"nagvekar":5974,"col":5975,"##tngen":5976,"faiz":5977,"lalrindiki":5978,"shoaib":5979,"##iting":5980,"mawlieh":5981,"sharat":5982,"thukral":5983,"##vanshi":5984,"##arif":5985,"##hui":5986,"##bot":5987,"kashyap.":5988,"bol":5989,"##cent":5990,"dush":5991,"##ivas":5992,"##andha":5993,"balak":5994,"##sie":5995,"rohidas":5996,"ibocho":5997,"chaurasiya":5998,"gogia":5999,"rs":6000,"ngaih":6001,"haw":6002,"zorem":6003,"##som":6004,"lalp":6005,"het":6006,"##udhari":6007,"sareen":6008,"rahim":6009,"naved":6010,"pd.":6011,"harbhajan":6012,"##dup":6013,"##enu":6014,"##ate":6015,"tamanna":6016,"les":6017,"##kaikar":6018,"biri":6019,"kamaljeet":6020,"murry":6021,"##chui":6022,"dawar":6023,"toijam":6024,"kaw":6025,"smriti":6026,"vanlalruata":6027,"mara":6028,"kher":6029,"rocky":6030,"##uben":6031,"siam":6032,"mih":6033,"hamida":6034,"bist":6035,"solomon":6036,"moz":6037,"qamar":6038,"tasleem":6039,"##yong":6040,"chanam":6041,"##inai":6042,"##ire":6043,"kujur":6044,"##dai":6045,"satyam":6046,"vernekar":6047,"nautiyal":6048,"##tao":6049,"suvar":6050,"##bong":6051,"rambir":6052,"tejpal":6053,"arpit":6054,"sama":6055,"##dewsaw":6056,"basumat":6057,"kumkum":6058,"surat":6059,"sahay":6060,"##shah":6061,"##bri":6062,"##ence":6063,"badri":6064,"bhattacharya":6065,"##lom":6066,"##gra":6067,"girja":6068,"lid":6069,"##gong":6070,"adesh":6071,"##naior":6072,"tsu":6073,"##taf":6074,"arvinder":6075,"##tiao":6076,"rath":6077,"tanveer":6078,"laiphrakpam":6079,"nilo":6080,"mendes":6081,"kai":6082,"##rughan":6083,"ye":6084,"parbha":6085,"##ward":6086,"##khohao":6087,"kharbanda":6088,"##zom":6089,"##okumar":6090,"bino":6091,"sidharth":6092,"pillai":6093,"jagjeet":6094,"##oubam":6095,"julie":6096,"##shri":6097,"lalnunz":6098,"pratiksha":6099,"chanambam":6100,"synrem":6101,"margar":6102,"##oibam":6103,"mitna":6104,"##jani":6105,"filomena":6106,"rima":6107,"sequeira":6108,"prith":6109,"dhyani":6110,"harendra":6111,"arati":6112,"paliar":6113,"##khoneng":6114,"wi":6115,"umed":6116,"shaik":6117,"karm":6118,"inderjit":6119,"shetgaonkar":6120,"##akum":6121,"balraj":6122,"lalnunmawia":6123,"vashum":6124,"gav":6125,"##t|":6126,"munda":6127,"kuldip":6128,"##anawmi":6129,"ira":6130,"##ayat":6131,"sandh":6132,"##chik":6133,"keishing":6134,"##omei":6135,"ningthem":6136,"ayekpam":6137,"kadam":6138,"##chari":6139,"chungkham":6140,"yobin":6141,"suiam":6142,"##ngheta":6143,"bep":6144,"nagendra":6145,"tage":6146,"zubair":6147,"shoh":6148,"##lain":6149,"ganpat":6150,"kav":6151,"ranjeeta":6152,"attar":6153,"dalal":6154,"tripti":6155,"sarju":6156,"lalhriatpuii":6157,"##roj":6158,"pher":6159,"##pliang":6160,"##dak":6161,"sorojini":6162,"tajinder":6163,"carol":6164,"kharbuli":6165,"##hiraja":6166,"nongphud":6167,"sajan":6168,"somnath":6169,"banti":6170,"##rol":6171,"phung":6172,"mehro":6173,"##ikhon":6174,"##nemi":6175,"##lila":6176,"massey":6177,"sattar":6178,"monteiro":6179,"##resh":6180,"bair":6181,"paliwal":6182,"bara":6183,"##zovi":6184,"bea":6185,"furkan":6186,"kankonkar":6187,"ee":6188,"idr":6189,"##okar":6190,"premi":6191,"manav":6192,"##yll":6193,"nilima":6194,"##isam":6195,"makkar":6196,"nongthongbam":6197,"##usa":6198,"nonglang":6199,"kez":6200,"sep":6201,"##seh":6202,"##ulkar":6203,"sewak":6204,"##inta":6205,"##ahunlang":6206,"satyendra":6207,"mohar":6208,"kashinath":6209,"pani":6210,"##enkar":6211,"meraj":6212,"lalhmangaihzuali":6213,"tungo":6214,"##ovi":6215,"pras":6216,"noorjahan":6217,"ekka":6218,"##wis":6219,"##emsu":6220,"cheng":6221,"rout":6222,"daulat":6223,"kadir":6224,"##arson":6225,"socor":6226,"kalyani":6227,"paslein":6228,"francisca":6229,"##urkar":6230,"kanish":6231,"wair":6232,"sikka":6233,"ste":6234,"##chhua":6235,"nizamuddin":6236,"mawnai":6237,"lalruatfela":6238,"pavitra":6239,"aier":6240,"sarwan":6241,"ibohal":6242,"rha":6243,"mahale":6244,"dipali":6245,"ahan":6246,"malsawmtluangi":6247,"##voikar":6248,"pel":6249,"harka":6250,"ail":6251,"##roi":6252,"anirudh":6253,"dei":6254,"sameena":6255,"govinda":6256,"duk":6257,"##thangpuii":6258,"nishi":6259,"vasu":6260,"shangpliang":6261,"nahid":6262,"##malsawm":6263,"liv":6264,"mingma":6265,"##_lal":6266,"mukhi":6267,"bandodkar":6268,"lalnuntluangi":6269,"air":6270,"uni":6271,"##chak":6272,"bidyarani":6273,"sarin":6274,"##muani":6275,"tungoe":6276,"kulvinder":6277,"teena":6278,"khet":6279,"##sius":6280,"##ratta":6281,"swaran":6282,"bamang":6283,"##alis":6284,"rad":6285,"tamuk":6286,"##kholam":6287,"punita":6288,"kashung":6289,"hek":6290,"##irung":6291,"sumar":6292,"yapi":6293,"sahana":6294,"amonkar":6295,"agg":6296,"khalil":6297,"##konyak":6298,"yen":6299,"namdev":6300,"gadi":6301,"gulista":6302,"lotlikar":6303,"ori":6304,"lalneih":6305,"mukhtar":6306,"sartaj":6307,"haor":6308,"moses":6309,"arman":6310,"rukshana":6311,"##eima":6312,"diana":6313,"kasar":6314,"##aii":6315,"kithan":6316,"fadte":6317,"hoi":6318,"##anjoy":6319,"irungbam":6320,"kashish":6321,"somwati":6322,"chhavi":6323,"ioh":6324,"rabin":6325,"gosain":6326,"mange":6327,"mintu":6328,"jel":6329,"nandeibam":6330,"kambli":6331,"vashist":6332,"##cheng":6333,"abujam":6334,"seikho":6335,"##oyi":6336,"zee":6337,"budhiraja":6338,"caet":6339,"kharnaior":6340,"##vina":6341,"romi":6342,"laldinpuii":6343,"##tagi":6344,"peg":6345,"gajendra":6346,"##shngain":6347,"##ulung":6348,"keisam":6349,"diki":6350,"shehnaz":6351,"bren":6352,"##hluna":6353,"##khai":6354,"balwan":6355,"nes":6356,"tani":6357,"dileep":6358,"bhumika":6359,"pung":6360,"##shabam":6361,"nikha":6362,"##kle":6363,"robinson":6364,"gouri":6365,"kharm":6366,"zia":6367,"##ithan":6368,"sangma,":6369,"##gur":6370,"rosang":6371,"##diratta":6372,"nafees":6373,"kani":6374,"kuri":6375,"mini":6376,"##lhou":6377,"##thunglo":6378,"regina":6379,"suvarna":6380,"said":6381,"sudhakar":6382,"bhavya":6383,"nazreen":6384,"##thuami":6385,"lajwanti":6386,"nelson":6387,"subh":6388,"udit":6389,"##isi":6390,"viz":6391,"##urailatpam":6392,"saikia":6393,"afreen":6394,"dohling":6395,"tahira":6396,"mohmad":6397,"khongwir":6398,"borah":6399,"##zaw":6400,"abida":6401,"##thangmaw":6402,"pragya":6403,"gyamar":6404,"utkar":6405,"joram":6406,"shid":6407,"dashrath":6408,"raik":6409,"saeed":6410,"##ahid":6411,"medha":6412,"sharvan":6413,"farjana":6414,"horam":6415,"##uno":6416,"shafi":6417,"##abhai":6418,"lati":6419,"farhan":6420,"ibotombi":6421,"mig":6422,"cruz":6423,"##ungsang":6424,"beni":6425,"##zama":6426,"chote":6427,"pasi":6428,"##chamo":6429,"ml":6430,"ibungo":6431,"ramanand":6432,"lalmalsawma":6433,"##urong":6434,"##rence":6435,"pongen":6436,"vol":6437,"ashalata":6438,"tamin":6439,"kyntiew":6440,"gulfam":6441,"mallick":6442,"##rose":6443,"akil":6444,"##diar":6445,"##hlima":6446,"##hau":6447,"sym":6448,"liyak":6449,"bahun":6450,"sara":6451,"##edita":6452,"jop":6453,"##dula":6454,"suder":6455,"dod":6456,"##apati":6457,"fi":6458,"##enthung":6459,"lus":6460,"mathi":6461,"samad":6462,"##lemba":6463,"susan":6464,"mehrun":6465,"##atoli":6466,"junaid":6467,"nidh":6468,"raghuvir":6469,"aibor":6470,"ruma":6471,"##ute":6472,"lalrinmawii":6473,"bhoop":6474,"masih":6475,"onkar":6476,"jaggi":6477,"##o!":6478,"thon":6479,"mukund":6480,"##charimayum":6481,"jena":6482,"must":6483,"bey":6484,"jus":6485,"gulaf":6486,"akum":6487,"rachana":6488,"##warya":6489,"##uliu":6490,"##chungnunga":6491,"##sel":6492,"asad":6493,"tikha":6494,"##ishang":6495,"tanti":6496,"anubhav":6497,"pl":6498,"##chet":6499,"nepal":6500,"momina":6501,"##minlal":6502,"temsu":6503,"ujjwal":6504,"sebastiao":6505,"iram":6506,"##phoh":6507,"##ithson":6508,"priyo":6509,"yania":6510,"##khumi":6511,"##chano":6512,"versha":6513,"amresh":6514,"rabia":6515,"kana":6516,"##usha":6517,"##ithi":6518,"dominic":6519,"manita":6520,"##rama":6521,"aastha":6522,"pujari":6523,"##ome":6524,"bhagwat":6525,"romeo":6526,"nungsang":6527,"##minlun":6528,"ingocha":6529,"iar":6530,"imtiyaz":6531,"suhas":6532,"##kungi":6533,"pahuja":6534,"mamata":6535,"nandita":6536,"zhimomi":6537,"nagi":6538,"choden":6539,"gian":6540,"bira":6541,"ulhas":6542,"##etso":6543,"hanum":6544,"shubhangi":6545,"badal":6546,"tsh.":6547,"lalnuntluanga":6548,"shubha":6549,"agni":6550,"borang":6551,"chuk":6552,"tripta":6553,"##band":6554,"bhavana":6555,"##alie":6556,"awadh":6557,"##roh":6558,"zang":6559,"##ingstone":6560,"##khothang":6561,"palak":6562,"jagwati":6563,"chaudhry":6564,"nongp":6565,"farid":6566,"hc.":6567,"##k!":6568,"shabina":6569,"bong":6570,"##asa":6571,"murli":6572,"chirom":6573,"zeeshan":6574,"mannu":6575,"##abai":6576,"lakshman":6577,"rep":6578,"##shila":6579,"prak":6580,"##gun":6581,"##ohit":6582,"##andan":6583,"suleman":6584,"dhirender":6585,"behera":6586,"##tika":6587,"ongmu":6588,"##naro":6589,"pokh":6590,"zho":6591,"##umong":6592,"##thon":6593,"##naw":6594,"husan":6595,"farhat":6596,"apoor":6597,"lohia":6598,"##siem":6599,"kour":6600,"hansraj":6601,"rajeshwar":6602,"phrang":6603,"gracy":6604,"##ario":6605,"##aliu":6606,"joan":6607,"##vanti":6608,"morya":6609,"nikhat":6610,"altaf":6611,"aasma":6612,"##ngheti":6613,"pei":6614,"##lur":6615,"marina":6616,"maipak":6617,"##umani":6618,"parmanand":6619,"avadh":6620,"nalo":6621,"sarfaraz":6622,"chaobi":6623,"k.bani":6624,"malemng":6625,"karn":6626,"farooq":6627,"ae":6628,"##tai":6629,"hafiz":6630,"kripal":6631,"lalhruaitluanga":6632,"rhakho":6633,"wad":6634,"##sid":6635,"vishakha":6636,"shabbir":6637,"hung":6638,"bhuwan":6639,"kashif":6640,"##wo":6641,"graci":6642,"manglembi":6643,"gong":6644,"tor":6645,"teh":6646,"sheeba":6647,"sarah":6648,"nig":6649,"bamon":6650,"fl":6651,"riang":6652,"vakil":6653,"sudhanshu":6654,"riram":6655,"veronica":6656,"tamut":6657,"bebi":6658,"##wam":6659,"imchen":6660,"##kholen":6661,"##atha":6662,"shaf":6663,"ahlu":6664,"nadaf":6665,"yu":6666,"sanay":6667,"##oki":6668,"##ankim":6669,"bepari":6670,"##arak":6671,"baljit":6672,"nihal":6673,"lup":6674,"bimala":6675,"raji":6676,"ranvir":6677,"##vu":6678,"goutam":6679,"sanabam":6680,"salmani":6681,"kharmuti":6682,"rut":6683,"##angba":6684,"##thingla":6685,"hakim":6686,"##olata":6687,"##yangla":6688,"jagannath":6689,"dushyant":6690,"sandhyarani":6691,"makhija":6692,"jasmine":6693,"dalbir":6694,"muh":6695,"yamini":6696,"doungel":6697,"hangshing":6698,"lalngaih":6699,"girdhar":6700,"jahid":6701,"##kishan":6702,"taram":6703,"louk":6704,"sitlhou":6705,"vashis":6706,"koj":6707,"joshu":6708,"perpet":6709,"kung":6710,"##lad":6711,"##zala":6712,"##anliu":6713,"ratn":6714,"dolma":6715,"sophia":6716,"nida":6717,"##anam":6718,"##ime":6719,"kharjana":6720,"afonso":6721,"lawr":6722,"##wn":6723,"##endera":6724,"dup":6725,"lalrinchhana":6726,"hanuman":6727,"khon":6728,"nirup":6729,"k.lal":6730,"##wm":6731,"banar":6732,"sudan":6733,"bilashini":6734,"jhan":6735,"yor":6736,"ranu":6737,"##velu":6738,"##imang":6739,"##ukat":6740,"##full":6741,"wairokpam":6742,"##mongla":6743,"##ington":6744,"##ajan":6745,"rajiya":6746,"##idang":6747,"miah":6748,"shinde":6749,"##riel":6750,"pangambam":6751,"##watra":6752,"srin":6753,"tash":6754,"##chhan":6755,"madkaikar":6756,"ngant":6757,"modak":6758,"shash|":6759,"makdoh":6760,"##galkar":6761,"eb":6762,"ril":6763,"##uonuo":6764,"vr":6765,"##eilang":6766,"sumeet":6767,"lamurong":6768,"jamna":6769,"hemraj":6770,"##thuama":6771,"cris":6772,"##sud":6773,"##jyo":6774,"anwari":6775,"hidam":6776,"##amber":6777,"##tara":6778,"keshar":6779,"tikhak":6780,"##gya":6781,"##eria":6782,"binoy":6783,"preety":6784,"ann":6785,"das.":6786,"shangdiar":6787,"ria":6788,"seyi":6789,"##eez":6790,"love":6791,"doke":6792,"vincent":6793,"brajesh":6794,"##ajit":6795,"##iano":6796,"basumatary":6797,"ahluwalia":6798,"lhun":6799,"sundri":6800,"aa":6801,"miya":6802,"pdiang":6803,"##mello":6804,"##pila":6805,"asim":6806,"##ande":6807,"manocha":6808,"chand:":6809,"##chuba":6810,"##ght":6811,"niya":6812,"khattar":6813,"##inao":6814,"rudra":6815,"vanlalhruaia":6816,"ger":6817,"alla":6818,"##pin":6819,"neil":6820,"jarina":6821,"madhavi":6822,"vyas":6823,"##bia":6824,"chothe":6825,"bairwa":6826,"zou":6827,"sanchit":6828,"ahsan":6829,"##yllait":6830,"dir":6831,"##baw":6832,"popli":6833,"maina":6834,"lalzu":6835,"jeetu":6836,"##karma":6837,"devanand":6838,"urmil":6839,"nin":6840,"upasana":6841,"##eeksha":6842,"ibeyaima":6843,"lhung":6844,"##thianghlimi":6845,"anima":6846,"soug":6847,"lalrinmawia":6848,"nadim":6849,"islamuddin":6850,"naray":6851,"lalhmingmawii":6852,"kangujam":6853,"##enk":6854,"##karni":6855,"##isow":6856,"pok":6857,"luc":6858,"shani":6859,"kranti":6860,"pedro":6861,"sng":6862,"ngom":6863,"##nen":6864,"##arp":6865,"##ishe":6866,"##vad":6867,"shand":6868,"ng.":6869,"ps":6870,"kumar:":6871,"##ulen":6872,"##phal":6873,"alpana":6874,"shaz":6875,"aita":6876,"ms":6877,"##ac":6878,"##itun":6879,"##ette":6880,"##shailang":6881,"zaidi":6882,"##uf":6883,"##awat":6884,"##ifa":6885,"thakur,":6886,"singsit":6887,"##subam":6888,"bod":6889,"puk":6890,"##ken":6891,"mario":6892,"nawal":6893,"zahida":6894,"##tima":6895,"manar":6896,"tannu":6897,"indrawati":6898,"##tiya":6899,"##eline":6900,"##khogin":6901,"dharamveer":6902,"dhirendra":6903,"angu":6904,"biswajit":6905,"ahanthem":6906,"##hankar":6907,"palyekar":6908,"deva":6909,"ping":6910,"##alia":6911,"saraf":6912,"kallu":6913,"abdullah":6914,"joshua":6915,"##chai":6916,"mansoor":6917,"lind":6918,"lop":6919,"puwein":6920,"pragati":6921,"pheir":6922,"gurav":6923,"rajvir":6924,"##imal":6925,"yangfo":6926,"oren":6927,"dhargalkar":6928,"majhi":6929,"lanu":6930,"lalchhanhima":6931,"lalhriatpuia":6932,"ibocha":6933,"neik":6934,"prithvi":6935,"ili":6936,"kew":6937,"ahlawat":6938,"jagjit":6939,"zomuan":6940,"##railatpam":6941,"chesam":6942,"mibang":6943,"##mukh":6944,"##yana":6945,"prad":6946,"ashi":6947,"vimala":6948,"shelly":6949,"shantibala":6950,"khyllait":6951,"thin":6952,"kirpal":6953,"##phong":6954,"suryak":6955,"lalruatfeli":6956,"toppo":6957,"rustagi":6958,"dwar":6959,"##ser":6960,"manas":6961,"chavan":6962,"malang":6963,"##gankar":6964,"barik":6965,"tulsh":6966,"pou":6967,"moran":6968,"hazra":6969,"##vendra":6970,"##alo":6971,"amrik":6972,"bhakta":6973,"taki":6974,"ahirwar":6975,"kaur,":6976,"##ushan":6977,"##amla":6978,"sharwan":6979,"##ahal":6980,"paresh":6981,"##edo":6982,"ferrao":6983,"kshiti":6984,"mudgal":6985,"kari":6986,"##ikham":6987,"chandrakala":6988,"##ory":6989,"munjal":6990,"paonam":6991,"pundal":6992,"dr.":6993,"trehan":6994,"##h.":6995,"potsangbam":6996,"chip":6997,"##hawmi":6998,"purushottam":6999,"abi":7000,"phong":7001,"virmani":7002,"azim":7003,"pakma":7004,"##othy":7005,"##arihun":7006,"##shiing":7007,"biswa":7008,"firdo":7009,"vei":7010,"pret":7011,"sonkar":7012,"##lui":7013,"upreti":7014,"honey":7015,"meeta":7016,"samiksha":7017,"chowdhury":7018,"pyndap":7019,"chunni":7020,"lalven":7021,"##alaxmi":7022,"omvati":7023,"bindiya":7024,"khel":7025,"shradha":7026,"dini":7027,"##mak":7028,"laikh":7029,"angoubi":7030,"mize":7031,"##hawma":7032,"thingnam":7033,"aishwarya":7034,"sudershan":7035,"bawa":7036,"hyn":7037,"manna":7038,"firdos":7039,"awungshi":7040,"teresa":7041,"pundalik":7042,"##zak":7043,"##roop":7044,"shantaram":7045,"##wil":7046,"sash":7047,"yashwant":7048,"##ondon":7049,"khullar":7050,"bath":7051,"ep":7052,"kamli":7053,"gobind":7054,"rinky":7055,"apabi":7056,"siv":7057,"##hong":7058,"##ilya":7059,"vanram":7060,"divyan":7061,"##lawm":7062,"aab":7063,"jahang":7064,"cas":7065,"synnah":7066,"lipok":7067,"##yab":7068,"mall":7069,"##bisana":7070,"esh":7071,"davender":7072,"pavan":7073,"anand.":7074,"simr":7075,"niharika":7076,"lon":7077,"step":7078,"sl":7079,"##athang":7080,"##jaz":7081,"bishal":7082,"valen":7083,"blah":7084,"reenu":7085,"samant":7086,"##leima":7087,"raziya":7088,"kashmiri":7089,"##wale":7090,"##tone":7091,"mukhia":7092,"aarif":7093,"khari":7094,"munshi":7095,"jayesh":7096,"moyong":7097,"pc":7098,"nawaz":7099,"nongme":7100,"harun":7101,"sakina":7102,"lhungdim":7103,"raksha":7104,"##dhana":7105,"siddhan":7106,"harkesh":7107,"##tikar":7108,"shaha":7109,"khim":7110,"nimai":7111,"##ellakpam":7112,"##udha":7113,"parth":7114,"haseena":7115,"yashika":7116,"vaigankar":7117,"kamble":7118,"rung":7119,"zh":7120,"lalrintluanga":7121,"chowdhary":7122,"ichan":7123,"panj":7124,"kalia":7125,"lohe":7126,"lod":7127,"##olie":7128,"gat":7129,"##nil":7130,"lair":7131,"beti":7132,"##eya":7133,"##eson":7134,"sadiq":7135,"khiangte":7136,"##savi":7137,"stev":7138,"pabitra":7139,"azeem":7140,"majumdar":7141,"fak":7142,"stan":7143,"##irul":7144,"charles":7145,"vanshika":7146,"##chhuaha":7147,"phid":7148,"warbah":7149,"##ondekar":7150,"sree":7151,"ashma":7152,"lawrence":7153,"d'mello":7154,"shob":7155,"goma":7156,"##sica":7157,"subhadra":7158,"lallawmzuali":7159,"lalhmangaihi":7160,"tuli":7161,"##eld":7162,"ishan":7163,"##qi":7164,"gaffar":7165,"alim":7166,"bhagya":7167,"lalji":7168,"jitesh":7169,"##malki":7170,"parihar":7171,"##ikapam":7172,"lalnunpuia":7173,"##akshmi":7174,"kej":7175,"kharthangmaw":7176,"tame":7177,"toshi":7178,"king":7179,"kochhar":7180,"##mary":7181,"basnett":7182,"lalmalsawmi":7183,"iz":7184,"sushama":7185,"wangjam":7186,"umbah":7187,"##hluni":7188,"cather":7189,"lalpar":7190,"##luh":7191,"shahina":7192,"##yat":7193,"natung":7194,"tulshidas":7195,"cait":7196,"lah":7197,"##mera":7198,"##rap":7199,"deepmala":7200,"lalrinsangi":7201,"##eesa":7202,"charanjit":7203,"abhijit":7204,"##yrniang":7205,"tariq":7206,"kati":7207,"##istar":7208,"##vari":7209,"natasha":7210,"dawng":7211,"##vani":7212,"##borlin":7213,"lalrintluangi":7214,"abhilasha":7215,"gracias":7216,"eri":7217,"usham":7218,"##niew":7219,"twinkle":7220,"##hotri":7221,"sarvan":7222,"robindro":7223,"vanlalhruaii":7224,"thom":7225,"kalim":7226,"faheem":7227,"shatrughan":7228,"kaviekar":7229,"nganthoi":7230,"nongmeikapam":7231,"##est":7232,"abem":7233,"inak":7234,"beth":7235,"yaikhom":7236,"sagir":7237,"namgyal":7238,"pom":7239,"maq":7240,"##gui":7241,"##ger":7242,"##chhaw":7243,"aswal":7244,"jaw":7245,"madhukar":7246,"##faq":7247,"##dem":7248,"langs":7249,"bay":7250,"vek":7251,"yem":7252,"parween":7253,"krishn":7254,"vidhi":7255,"##sle":7256,"sahai":7257,"thyrniang":7258,"neel":7259,"##rud":7260,"##tir":7261,"##iben":7262,"##yanti":7263,"hanumant":7264,"avnish":7265,"yapa":7266,"suryakant":7267,"sheel":7268,"susheel":7269,"omprakash":7270,"amna":7271,"kharka":7272,"pramo":7273,"lbomcha":7274,"##its":7275,"##thia":7276,"vaishna":7277,"##raz":7278,"chyne":7279,"megu":7280,"nidh|":7281,"##tung":7282,"##hura":7283,"##hmingthanga":7284,"warepam":7285,"pakpi":7286,"ketan":7287,"bittu":7288,"dhakal":7289,"teli":7290,"thep":7291,"sandhu":7292,"maity":7293,"yaseen":7294,"happy":7295,"ais":7296,"kamil":7297,"amardeep":7298,"sakila":7299,"harjit":7300,"khardewsaw":7301,"ningshen":7302,"darnei":7303,"somi":7304,"ishita":7305,"rasid":7306,"bhagirath":7307,"lalduhawma":7308,"chhu":7309,"jerang":7310,"##irou":7311,"##shain":7312,"lawriniang":7313,"shor":7314,"##itin":7315,"taslim":7316,"zainab":7317,"uniyal":7318,"py":7319,"khad":7320,"jaswinder":7321,"kod":7322,"siram":7323,"throng":7324,"bindal":7325,"parshuram":7326,"tony":7327,"phaomei":7328,"augustine":7329,"##gir":7330,"##aso":7331,"antao":7332,"##riyal":7333,"agnihotri":7334,"langstieh":7335,"sodhi":7336,"##jat":7337,"sarb":7338,"sohkhlet":7339,"##vish":7340,"##sood":7341,"##vik":7342,"##ongjam":7343,"shafiq":7344,"shameem":7345,"lina":7346,"swa":7347,"##suddin":7348,"##non":7349,"silveira":7350,"##rathi":7351,"sejwal":7352,"tiew":7353,"##diyal":7354,"shravan":7355,"##askar":7356,"kene":7357,"pariat":7358,"gujral":7359,"lalduhawmi":7360,"shagolsem":7361,"##jom":7362,"##shawa":7363,"shesh":7364,"lalrinsanga":7365,"phoola":7366,"gawde":7367,"menino":7368,"nongkseh":7369,"##koi":7370,"jalal":7371,"kharmalki":7372,"##boti":7373,"sorang":7374,"##maram":7375,"sahib":7376,"##erson":7377,"##andra":7378,"jeb":7379,"waj":7380,"##muddin":7381,"##ashri":7382,"##pih":7383,"haroon":7384,"patwal":7385,"lut":7386,"mrin":7387,"zan":7388,"##kor":7389,"##pei":7390,"ravind":7391,"mans!":7392,"##vant":7393,"##zova":7394,"hare":7395,"kharshiing":7396,"soubam":7397,"deeksha":7398,"lallan":7399,"##imong":7400,"chandar":7401,"gollo":7402,"chera":7403,"##endup":7404,"shrey":7405,"shimla":7406,"indrani":7407,"##yed":7408,"##e-u":7409,"laximi":7410,"jagdeep":7411,"doming":7412,"anisa":7413,"yanger":7414,"satardekar":7415,"bhad":7416,"panda":7417,"susngi":7418,"jafar":7419,"siddhi":7420,"challam":7421,"heikham":7422,"##athy":7423,"braganza":7424,"will":7425,"##nongla":7426,"##bur":7427,"fanai":7428,"kaushlya":7429,"sk.":7430,"mustaq":7431,"miglani":7432,"siddhant":7433,"bela":7434,"somorjit":7435,"salauddin":7436,"mantu":7437,"soares":7438,"taro":7439,"zorin":7440,"lalring":7441,"lalhmachhuana":7442,"nyo":7443,"##sp":7444,"singal":7445,"taorem":7446,"jiya":7447,"##chuk":7448,"lalthlamuana":7449,"adnan":7450,"taluk":7451,"waz":7452,"ying":7453,"ani":7454,"mariam":7455,"lilawati":7456,"lalpian":7457,"nol":7458,"##bit":7459,"##wapang":7460,"lalrinawmi":7461,"begom":7462,"chanderwati":7463,"##idur":7464,"baran":7465,"mangesh":7466,"sanajaoba":7467,"##sara":7468,"##tovi":7469,"gao":7470,"mehrotra":7471,"##lon":7472,"##ithu":7473,"##etoli":7474,"dangshawa":7475,"soraisam":7476,"##jab":7477,"shain":7478,"##ilie":7479,"shriram":7480,"laikhuram":7481,"##khosei":7482,"##fak":7483,"##enba":7484,"aryan":7485,"fateh":7486,"syrti":7487,"devraj":7488,"merina":7489,"daph":7490,"lalhruaitluangi":7491,"buhphang":7492,"bista":7493,"pip":7494,"kabak":7495,"sanu":7496,"ngash":7497,"rongrin":7498,"kandpal":7499,"ningthoukh":7500,"##nonglait":7501,"##chho":7502,"pren":7503,"kochar":7504,"atmaram":7505,"sabra":7506,"lalchhuanawma":7507,"dra":7508,"##try":7509,"bera":7510,"pau":7511,"kosh":7512,"nungshit":7513,"arpita":7514,"clem":7515,"hr":7516,"ig":7517,"##von":7518,"##omo":7519,"##ibur":7520,"hynniew":7521,"dung":7522,"tav":7523,"##fiya":7524,"##khup":7525,"bewa":7526,"chhi":7527,"##xi":7528,"prod":7529,"shivaji":7530,"lalrinzuali":7531,"##buh":7532,"jiwan":7533,"rosem":7534,"##khat":7535,"##veli":7536,"jameel":7537,"limboo.":7538,"koir":7539,"##ilova":7540,"nic":7541,"arunkumar":7542,"ranee":7543,"tewari":7544,"phanj":7545,"cli":7546,"##amo":7547,"tarawati":7548,"mohanty":7549,"hasim":7550,"sikandar":7551,"utkarsh":7552,"mep":7553,"annie":7554,"ngain":7555,"yoginder":7556,"gomti":7557,"lajja":7558,"timung":7559,"khiam":7560,"nungshi":7561,"kabui":7562,"##topher":7563,"ashem":7564,"dhari":7565,"tarak":7566,"meghna":7567,"mashar":7568,"##fran":7569,"pynshngain":7570,"##venkar":7571,"##hoba":7572,"saro":7573,"banai":7574,"fool":7575,"nongpluh":7576,"##gang":7577,"naor":7578,"##utt":7579,"khongjoh":7580,"khoda":7581,"tayang":7582,"tasing":7583,"ia":7584,"kita":7585,"dhamija":7586,"##jilla":7587,"mano":7588,"ningthoukhongjam":7589,"mahaveer":7590,"nahakpam":7591,"##.konyak":7592,"ramvati":7593,"raham":7594,"sebastian":7595,"wet":7596,"rohming":7597,"sahdev":7598,"dimpal":7599,"dangmei":7600,"anees":7601,"tama":7602,"hynniewta":7603,"kanak":7604,"nishat":7605,"##mana":7606,"##bing":7607,"##irun":7608,"##kholhing":7609,"lokhi":7610,"jerry":7611,"brahmacharimayum":7612,"##kunga":7613,"##rel":7614,"angami":7615,"madhur":7616,"agar":7617,"##uthi":7618,"arushi":7619,"gosavi":7620,"alice":7621,"bijaya":7622,"tula":7623,"##jila":7624,"neelima":7625,"leelawati":7626,"moj":7627,"##sho":7628,"madhvi":7629,"jessica":7630,"dora":7631,"##risha":7632,"##asim":7633,"rajwanti":7634,"baruah":7635,"##mel":7636,"pron":7637,"mac":7638,"imn":7639,"phurailatpam":7640,"triveni":7641,"phanjoubam":7642,"##sik":7643,"sarki":7644,"thapli":7645,"swam":7646,"bajpai":7647,"doy":7648,"##khaw":7649,"##uklang":7650,"thoit":7651,"wangjen":7652,"nanhe":7653,"tulshi":7654,"##twal":7655,"dhana":7656,"halarn":7657,"khois":7658,"langrin":7659,"amu":7660,"kawaljeet":7661,"##narayan":7662,"##temjen":7663,"lairenjam":7664,"kanji":7665,"chawan":7666,"hoine":7667,"lek":7668,"deng":7669,"##vii":7670,"sangam":7671,"phar":7672,"rachel":7673,"##enta":7674,"massar":7675,"pegu":7676,"thup":7677,"supong":7678,"lairenlakpam":7679,"shohe":7680,"##echa":7681,"##gaokar":7682,"tekcham":7683,"##alson":7684,"gurba":7685,"bles":7686,"thej":7687,"zairem":7688,"lukram":7689,"masharing":7690,"kenei":7691,"khomdon":7692,"ks.":7693,"pheiroijam":7694,"lalu":7695,"##ogo":7696,"##mangaihi":7697,"##hovi":7698,"mangu":7699,"##tine":7700,"bhoj":7701,"vijendra":7702,"ramrati":7703,"chhan":7704,"shahab":7705,"vanlalchhu":7706,"gabriel":7707,"##bung":7708,"mawb":7709,"wangmu":7710,"veng":7711,"martina":7712,"mana":7713,"madina":7714,"birbal":7715,"riamei":7716,"sutar":7717,"premanand":7718,"##prasad":7719,"kharbuki":7720,"agnes":7721,"kharpran":7722,"##jabi":7723,"harminder":7724,"asg":7725,"kundu":7726,"baij":7727,"heig":7728,"sakuntala":7729,"chik":7730,"##ibu":7731,"tirkey":7732,"muhammad":7733,"thapliyal":7734,"aya":7735,"dum":7736,"sulak":7737,"jahangir":7738,"not":7739,"rei":7740,"##kir":7741,"##sir":7742,"##tsu":7743,"chaudhari":7744,"akhtari":7745,"deben":7746,"papi":7747,"assumi":7748,"nabak":7749,"##usana":7750,"azra":7751,"yuv":7752,"##dora":7753,"yame":7754,"##sala":7755,"sharon":7756,"malakar":7757,"lalnunsangi":7758,"loukrakpam":7759,"longchar":7760,"gulafsha":7761,"wari":7762,"##unha":7763,"subhas":7764,"sr.":7765,"lalrindika":7766,"##jet":7767,"rasa":7768,"##ohon":7769,"mobin":7770,"int":7771,"##phe":7772,"kharsah":7773,"rajbhar":7774,"alo":7775,"shakeela":7776,"sakir":7777,"prabhjot":7778,"##rila":7779,"##umita":7780,"kamra":7781,"biju":7782,"hashmi":7783,"ain":7784,"ret":7785,"tejas":7786,"tatung":7787,"jubeda":7788,"mylliemngap":7789,"swapna":7790,"kundaikar":7791,"koshal":7792,"lalrinchhani":7793,"naoroibam":7794,"kharsahnoh":7795,"taye":7796,"##cheal":7797,"saraswat":7798,"amos":7799,"##uso":7800,"phang":7801,"mewa":7802,"shres":7803,"sukla":7804,"yatin":7805,"lalfakzuala":7806,"ahongsangbam":7807,"boj":7808,"yi":7809,"zehra":7810,"shamurailatpam":7811,"##neineng":7812,"soraisham":7813,"kothari":7814,"oh":7815,"balmiki":7816,"laxm":7817,"panyang":7818,"zaheer":7819,"ac":7820,"chaya":7821,"mawiong":7822,"kumam":7823,"##temsu":7824,"shullai":7825,"ata":7826,"ratnesh":7827,"burman":7828,"hidangmayum":7829,"eas":7830,"##sali":7831,"##fina":7832,"caetano":7833,"akha":7834,"aysha":7835,"chandel":7836,"tanuj":7837,"susmita":7838,"mawblei":7839,"##ashish":7840,"jaf":7841,"ruhi":7842,"##iliana":7843,"sadhu":7844,"lalrinkimi":7845,"fahim":7846,"apur":7847,"vet":7848,"##ping":7849,"laldawng":7850,"jenni":7851,"kaf":7852,"sanjida":7853,"damber":7854,"khamba":7855,"##hmingthangi":7856,"##bey":7857,"##enjam":7858,"dhodi":7859,"##dayal":7860,"##nis":7861,"rich":7862,"bhuri":7863,"dhall":7864,"##lyas":7865,"senjam":7866,"nongsiang":7867,"volvoikar":7868,"lee":7869,"rachit":7870,"##neivah":7871,"neih":7872,"##dung":7873,"afroj":7874,"##akumari":7875,"praful":7876,"roshini":7877,"anushka":7878,"vs":7879,"janaki":7880,"kripa":7881,"kharsoh":7882,"gyadi":7883,"grik":7884,"jami":7885,"rej":7886,"keith":7887,"rush":7888,"haseen":7889,"binu":7890,"liyakat":7891,"##odu":7892,"hoshi":7893,"esha":7894,"mena":7895,"tub":7896,"##eeq":7897,"##eshori":7898,"sunibala":7899,"subhan":7900,"halarnkar":7901,"premchand":7902,"vanlalrem":7903,"purohit":7904,"kesang":7905,"wit":7906,"##amliu":7907,"shahbaz":7908,"nongbsap":7909,"louren":7910,"adit":7911,"##purna":7912,"jani":7913,"##lish":7914,"##inia":7915,"satvinder":7916,"zahir":7917,"ravina":7918,"##lyn":7919,"##dus":7920,"prob":7921,"lalchung":7922,"##rian":7923,"dhanpati":7924,"ranveer":7925,"swapan":7926,"shushila":7927,"tondon":7928,"##gat":7929,"rams":7930,"sumila":7931,"pundir":7932,"rish|":7933,"atom":7934,"minj":7935,"wash":7936,"wis":7937,"##alina":7938,"##ungba":7939,"##athe":7940,"neikho":7941,"##sola":7942,"sudip":7943,"phas":7944,"##wing":7945,"##naj":7946,"##kara":7947,"sada":7948,"gamlin":7949,"lalhmangaiha":7950,"##deen":7951,"##atar":7952,"chandam":7953,"sewa":7954,"aradhana":7955,"but":7956,"##adani":7957,"loidang":7958,"##yem":7959,"##now":7960,"iboyaima":7961,"bariya":7962,"##tok":7963,"##karan":7964,"shaw":7965,"ballabh":7966,"sc":7967,"vad":7968,"##ner":7969,"##sao":7970,"sahida":7971,"ronibala":7972,"biki":7973,"sanno":7974,"satyawan":7975,"##sher":7976,"raul":7977,"##ente":7978,"pynskhem":7979,"tangha":7980,"kongkham":7981,"choura":7982,"dilba":7983,"hazar":7984,"mangat":7985,"khongjee":7986,"menon":7987,"##rus":7988,"snehlata":7989,"gori":7990,"##oskar":7991,"rohtas":7992,"yes":7993,"##iba":7994,"maini":7995,"shammi":7996,"sek":7997,"##uang":7998,"##akho":7999,"tribhu":8000,"##zah":8001,"rajora":8002,"muktieh":8003,"joykumar":8004,"##enkaw":8005,"##siej":8006,"##teng":8007,"ravita":8008,"sunit":8009,"amarnath":8010,"tagru":8011,"wadha":8012,"andra":8013,"bijendra":8014,"khandep":8015,"pramodini":8016,"rn":8017,"##ius":8018,"rabina":8019,"ruthi":8020,"oliveira":8021,"naima":8022,"tur":8023,"sangey":8024,"dass.":8025,"akshat":8026,"meng":8027,"##uchi":8028,"rabon":8029,"sirajuddin":8030,"zaki":8031,"##onti":8032,"langshiang":8033,"miyan":8034,"nk":8035,"takar":8036,"khoisnam":8037,"boy":8038,"yanglem":8039,"gajraj":8040,"syngkon":8041,"##reng":8042,"surchandra":8043,"hnam":8044,"##arayan":8045,"makak":8046,"bav":8047,"debala":8048,"indrajit":8049,"f.lal":8050,"latika":8051,"martins":8052,"cal":8053,"##saki":8054,"##unii":8055,"gudia":8056,"ajoy":8057,"for":8058,"##ruata":8059,"biang":8060,"parmeshwari":8061,"chhet":8062,"julia":8063,"phijam":8064,"sympli":8065,"sta":8066,"##nok":8067,"wong":8068,"cec":8069,"##shikha":8070,"sudeep":8071,"shaila":8072,"angad":8073,"bhupesh":8074,"lalruatkima":8075,"##fu":8076,"##ingla":8077,"sardana":8078,"trish":8079,"taip":8080,"toni":8081,"##her":8082,"lalv":8083,"##ipu":8084,"rual":8085,"sadaf":8086,"bana":8087,"##ayi":8088,"nibha":8089,"bormon":8090,"##shankar":8091,"koyu":8092,"tatak":8093,"kago":8094,"##eiya":8095,"yepthomi":8096,"baria":8097,"sed":8098,"##yim":8099,"lalraw":8100,"kameshwar":8101,"##uty":8102,"satvir":8103,"phir":8104,"preetam":8105,"shantikumar":8106,"hukum":8107,"maharaj":8108,"nabachandra":8109,"srinivas":8110,"we":8111,"samal":8112,"myrchiang":8113,"hima":8114,"salima":8115,"ramandeep":8116,"##phina":8117,"dhram":8118,"sakil":8119,"thongram":8120,"lalruatkimi":8121,"janardan":8122,"##nik":8123,"##bad":8124,"abul":8125,"##sangba":8126,"##lok":8127,"##unath":8128,"rambha":8129,"naryan":8130,"aalam":8131,"ngah":8132,"akang":8133,"mitali":8134,"##anker":8135,"bhateri":8136,"chiru":8137,"dish":8138,"jhar":8139,"pash":8140,"##vino":8141,"tia":8142,"##tey":8143,"priyokumar":8144,"trup":8145,"keh":8146,"khek":8147,"gaya":8148,"nivedita":8149,"taipodia":8150,"ela":8151,"##eza":8152,"satyan":8153,"##eva":8154,"rubeena":8155,"atar":8156,"kena":8157,"alvi":8158,"paokho":8159,"lukhoi":8160,"##ningstar":8161,"##tula":8162,"##urlekar":8163,"tombisana":8164,"mata":8165,"##lura":8166,"suneel":8167,"r.marak":8168,"##lawma":8169,"christopher":8170,"binodini":8171,"felix":8172,"ghu":8173,"dep":8174,"amol":8175,"raheja":8176,"neeti":8177,"synshar":8178,"abhijeet":8179,"jung":8180,"##oe":8181,"##eesha":8182,"##bantabam":8183,"jeewan":8184,"##araj":8185,"shur":8186,"bhuv":8187,"lbemcha":8188,"hungyo":8189,"##atsai":8190,"ruok":8191,"heigrujam":8192,"tirath":8193,"kunk":8194,"guddo":8195,"##field":8196,"swarup":8197,"susila":8198,"##ame":8199,"pars":8200,"ranjna":8201,"dheer":8202,"kholi":8203,"tongpang":8204,"hangma":8205,"ds":8206,"halima":8207,"tos":8208,"##egas":8209,"madar":8210,"kharibam":8211,"hakhun":8212,"bhagirathi":8213,"##ous":8214,"rebelo":8215,"lym":8216,"##grakpam":8217,"banisha":8218,"bib":8219,"khongbantabam":8220,"meisnam":8221,"##khopao":8222,"##anjop":8223,"deshraj":8224,"shemphang":8225,"aayush":8226,"aaf":8227,"satarkar":8228,"lokam":8229,"daman":8230,"shougrakpam":8231,"margaret":8232,"rel":8233,"##yir":8234,"sangay":8235,"naocha":8236,"mehraj":8237,"baig":8238,"laltl":8239,"jok":8240,"##ho!":8241,"chaubey":8242,"khali":8243,"##rivast":8244,"dharambir":8245,"##ase":8246,"sange":8247,"riyas":8248,"##phun":8249,"buddha":8250,"khursheed":8251,"##oza":8252,"##soi":8253,"##ilan":8254,"robi":8255,"max":8256,"kale":8257,"##zaz":8258,"##jano":8259,"lur":8260,"##por":8261,"lalthlamuani":8262,"kw":8263,"shaj":8264,"basir":8265,"inacio":8266,"poornima":8267,"##kokpam":8268,"mao":8269,"vishv":8270,"remedi":8271,"ito":8272,"jik":8273,"kep":8274,"##shita":8275,"kaikho":8276,"kanan":8277,"chandravati":8278,"naziya":8279,"pura":8280,"paomin":8281,"jayanta":8282,"ullah":8283,"rapsang":8284,"lalchhandami":8285,"dzi":8286,"shon":8287,"anuja":8288,"lokho":8289,"nanu":8290,"yuvraj":8291,"boh":8292,"duli":8293,"jina":8294,"lalrinfela":8295,"mesh":8296,"jaish":8297,"paryekar":8298,"naoba":8299,"amod":8300,"##ankh":8301,"sohphoh":8302,"ahanbi":8303,"swat":8304,"vaj":8305,"##sii":8306,"##chhi":8307,"##eirakpam":8308,"##khonei":8309,"mangala":8310,"nikki":8311,"zonunmawii":8312,"poudyal":8313,"vaman":8314,"##hira":8315,"angel":8316,"nuz":8317,"ilyas":8318,"##cu":8319,"##taw":8320,"sukumar":8321,"shas":8322,"##sibon":8323,"aka":8324,"koush":8325,"nirupama":8326,"##dom":8327,"##wori":8328,"pinku":8329,"darang":8330,"achoubi":8331,"ss":8332,"hoikho":8333,"talib":8334,"yuk":8335,"##rita":8336,"shev":8337,"##irei":8338,"ngem":8339,"asmita":8340,"meri":8341,"aki":8342,"eh":8343,"##king":8344,"##tilang":8345,"##iding":8346,"viegas":8347,"daljit":8348,"ghim":8349,"kabir":8350,"bacha":8351,"laximan":8352,"umsong":8353,"alfred":8354,"isaac":8355,"nyan":8356,"##shei":8357,"suneja":8358,"##isana":8359,"abdur":8360,"bashir":8361,"pde":8362,"##arat":8363,"##umang":8364,"sanahal":8365,"baitha":8366,"mrinal":8367,"jennifer":8368,"##yile":8369,"lamphrang":8370,"israt":8371,"##berth":8372,"bhopal":8373,"ujwala":8374,"sugandha":8375,"aur":8376,"ranga":8377,"##qib":8378,"##boy":8379,"jasleen":8380,"mandak":8381,"dhiren":8382,"lalhmangaihzuala":8383,"yana":8384,"##vid":8385,"##use":8386,"nazmeen":8387,"prabhawati":8388,"##mery":8389,"shraddha":8390,"jabbar":8391,"usharani":8392,"##tling":8393,"##indo":8394,"vanlalhri":8395,"teron":8396,"khandeparkar":8397,"##jur":8398,"##chol":8399,"solo":8400,"with":8401,"lallung":8402,"kazi":8403,"neer":8404,"dube":8405,"ramkali":8406,"##chumi":8407,"akham":8408,"warlar":8409,"kharlukhi":8410,"prav":8411,"renubala":8412,"##gain":8413,"aasha":8414,"ladu":8415,"simranjeet":8416,"dud":8417,"birju":8418,"udai":8419,"memi":8420,"dnyan":8421,"##yom":8422,"kanai":8423,"##thianghlima":8424,"banga":8425,"ree":8426,"##neh":8427,"##atso":8428,"##ibeni":8429,"##abiang":8430,"ahongshangbam":8431,"hnamte":8432,"yari":8433,"andrade":8434,"##olia":8435,"juliana":8436,"nandu":8437,"thangkhan":8438,"vj":8439,"##jini":8440,"dharampal":8441,"myrboh":8442,"shee":8443,"##olish":8444,"moon":8445,"newme":8446,"lalchhandama":8447,"gren":8448,"nyak":8449,"##volu":8450,"##wash":8451,"suchen":8452,"marry":8453,"imt":8454,"banteilang":8455,"iak":8456,"janu":8457,"hosh":8458,"tapak":8459,"potshangbam":8460,"##jahat":8461,"taloh":8462,"##zani":8463,"ananda":8464,"wahi":8465,"matta":8466,"sila":8467,"##hama":8468,"warlarpih":8469,"##uth":8470,"##inii":8471,"sarif":8472,"mc":8473,"##tom":8474,"mora":8475,"mahi":8476,"imsong":8477,"##isao":8478,"joyti":8479,"nepram":8480,"pires":8481,"ashar":8482,"vishesh":8483,"tomer":8484,"kuki":8485,"com":8486,"##honi":8487,"##lovi":8488,"ingo":8489,"lay":8490,"surbala":8491,"alph":8492,"kalavati":8493,"wangdi":8494,"dropati":8495,"##thai":8496,"##ilochan":8497,"fay":8498,"##anchi":8499,"chek":8500,"premananda":8501,"gulnaz":8502,"lalchawi":8503,"gurbachan":8504,"##eliang":8505,"dharmesh":8506,"shashikala":8507,"chopdekar":8508,"hot":8509,"qad":8510,"manan":8511,"##huto":8512,"##ukhan":8513,"##usi":8514,"ahmed.":8515,"khushal":8516,"##illar":8517,"pohshna":8518,"kab":8519,"suha":8520,"pros":8521,"##amacha":8522,"##buatsai":8523,"padung":8524,"kyrsian":8525,"##suklang":8526,"##oya":8527,"##ckey":8528,"gichik":8529,"##mis":8530,"lalrammawia":8531,"perpetua":8532,"keng":8533,"##sida":8534,"##itlang":8535,"phunt":8536,"swapnil":8537,"tuteja":8538,"aggrawal":8539,"riv":8540,"##shed":8541,"minguel":8542,"##hung":8543,"##mira":8544,"adani":8545,"bogi":8546,"pushpendra":8547,"latif":8548,"io":8549,"##odha":8550,"kamran":8551,"##rez":8552,"leibak":8553,"shetty":8554,"zonunsangi":8555,"runa":8556,"##rawati":8557,"##haram":8558,"astha":8559,"kek":8560,"##renla":8561,"shanbor":8562,"bernar":8563,"reddy":8564,"##iar":8565,"ramchan":8566,"deepshikha":8567,"nij":8568,"parvej":8569,"gogoi":8570,"##kr":8571,"##kis":8572,"ever":8573,"kaz":8574,"shrimati":8575,"navita":8576,"##balin":8577,"ronghang":8578,"porwal":8579,"rasaily":8580,"lt.":8581,"my":8582,"##saka":8583,"##enson":8584,"sawal":8585,"sarungbam":8586,"kapoor,":8587,"lalnunsanga":8588,"##hil":8589,"saumya":8590,"sarmila":8591,"rupam":8592,"bung":8593,"monyu":8594,"jagpal":8595,"nangia":8596,"lalsangpuii":8597,"kugha":8598,"rahat":8599,"##uru":8600,"##yao":8601,"rahmat":8602,"sohail":8603,"##kiu":8604,"edward":8605,"vani":8606,"##ulal":8607,"jairam":8608,"chandro":8609,"hashim":8610,"sahad":8611,"##reingam":8612,"##lawmi":8613,"ronald":8614,"chiranji":8615,"yung":8616,"aneeta":8617,"bhuvan":8618,"vasanti":8619,"bhavesh":8620,"birmati":8621,"dipesh":8622,"vaishnavi":8623,"hin":8624,"chuba":8625,"##biya":8626,"##reia":8627,"daisy":8628,"riyazuddin":8629,"##toi":8630,"vinesh":8631,"pame":8632,"tatin":8633,"##chou":8634,"satyapal":8635,"brit":8636,"mongjam":8637,"tapas":8638,"rupinder":8639,"##choubi":8640,"radhesh":8641,"yengkokpam":8642,"shagun":8643,"can":8644,"ngal":8645,"shahni":8646,"lalhmachhuani":8647,"paj":8648,"sig":8649,"bajrang":8650,"kanojiya":8651,"metha":8652,"girija":8653,"##wng":8654,"manz":8655,"upadhayay":8656,"mane":8657,"abel":8658,"mairembam":8659,"zothanpuii":8660,"gug":8661,"haf":8662,"##ulikar":8663,"mahendri":8664,"vanlaldu":8665,"trupti":8666,"##sis":8667,"mahmood":8668,"##reila":8669,"vee":8670,"##osa":8671,"##onker":8672,"lalenkaw":8673,"sandeep.":8674,"rabindra":8675,"##ruati":8676,"rib":8677,"##chhuahi":8678,"##asenla":8679,"##oton":8680,"satwant":8681,"##jitha":8682,"darihun":8683,"##chha":8684,"##changbam":8685,"johar":8686,"lalnunsiami":8687,"lalfakawma":8688,"aimol":8689,"##kila":8690,"abung":8691,"ada":8692,"dhuri":8693,"nishtha":8694,"menka":8695,"shahnaj":8696,"milagrina":8697,"radham":8698,"razi":8699,"##iky":8700,"##omu":8701,"sohlang":8702,"shrik":8703,"nayar":8704,"pranita":8705,"idrish":8706,"ot":8707,"ryngk":8708,"##nisha":8709,"laishangbam":8710,"hansa":8711,"shobhit":8712,"##kung":8713,"kein":8714,"modh":8715,"ratnakar":8716,"swain":8717,"##ilong":8718,"yameen":8719,"domni":8720,"ridalin":8721,"##andhoni":8722,"quad":8723,"binda":8724,"ashif":8725,"madhubala":8726,"wadhawan":8727,"gid":8728,"##noor":8729,"kuljeet":8730,"reshmi":8731,"##chandani":8732,"kharmawphlang":8733,"##rilang":8734,"##cilla":8735,"mahboob":8736,"pande":8737,"phurpa":8738,"landhoni":8739,"roni":8740,"vind":8741,"shahu":8742,"setia":8743,"kulsum":8744,"ibad":8745,"##wali":8746,"nipun":8747,"indresh":8748,"venkatesh":8749,"pis":8750,"##aldo":8751,"ngas":8752,"damini":8753,"edwin":8754,"roji":8755,"baweja":8756,"fakir":8757,"##bali":8758,"naomi":8759,"arsh":8760,"salah":8761,"tsen":8762,"sakhi":8763,"lalnunthari":8764,"##sunep":8765,"heg":8766,"vito":8767,"wai":8768,"##arisa":8769,"##ithangi":8770,"vishwa":8771,"shamu":8772,"manihar":8773,"kevin":8774,"achal":8775,"##eha":8776,"aren":8777,"##awal":8778,"magan":8779,"chophy":8780,"vanlalhriat":8781,"sanya":8782,"khen":8783,"karun":8784,"khurshida":8785,"arpana":8786,"suja":8787,"taring":8788,"tig":8789,"sadik":8790,"taggu":8791,"surabhi":8792,"yaipha":8793,"vashisth":8794,"dema":8795,"balam":8796,"rema":8797,"sanjenbam":8798,"sisodia":8799,"alauddin":8800,"way":8801,"##sngi":8802,"deka":8803,"##otsu":8804,"papu":8805,"prabhavati":8806,"cle":8807,"kiranbala":8808,"gufran":8809,"zonunt":8810,"##hei":8811,"shera":8812,"ravish":8813,"farah":8814,"##nungsang":8815,"sophiya":8816,"klein":8817,"shyrmang":8818,"##iaw":8819,"##chombam":8820,"pyntngen":8821,"digambar":8822,"kekhri":8823,"sunila":8824,"kharsh":8825,"barret":8826,"sarojini":8827,"komarp":8828,"mathura":8829,"vep":8830,"chanana":8831,"samanta":8832,"travas":8833,"sylliang":8834,"sabiha":8835,"sira":8836,"##mir":8837,"premita":8838,"l.nonglait":8839,"sahiba":8840,"lalli":8841,"##yanand":8842,"##arisha":8843,"##lira":8844,"##abel":8845,"vardhan":8846,"husna":8847,"##hlupuii":8848,"coelho":8849,"alexander":8850,"mariyam":8851,"(q":8852,"##ojon":8853,"inam":8854,"shamima":8855,"jamini":8856,"pasri":8857,"leichombam":8858,"soren":8859,"shagolshem":8860,"ghat":8861,"##hant":8862,"banshan":8863,"eden":8864,"zeliang":8865,"simar":8866,"komarpant":8867,"lub":8868,"talom":8869,"semwal":8870,"lalremsanga":8871,"rautela":8872,"##holkar":8873,"asangla":8874,"##unep":8875,"##ely":8876,"suren":8877,"iml":8878,"dhon":8879,"avneet":8880,"kesho":8881,"kso":8882,"##pil":8883,"chhotu":8884,"zab":8885,"##pyari":8886,"##hato":8887,"##enti":8888,"##hie":8889,"vib":8890,"bibha":8891,"kushwah":8892,"bheem":8893,"tejinder":8894,"lalruatsanga":8895,"kuber":8896,"barretto":8897,"##imala":8898,"##thil":8899,"maruti":8900,"##utu":8901,"ikbal":8902,"##ges":8903,"##inna":8904,"dhama":8905,"##nati":8906,"##old":8907,"rinzing":8908,"bre":8909,"his":8910,"kra":8911,"##ituo":8912,"singhi":8913,"sangwan":8914,"##ete":8915,"bhawan":8916,"chandrash":8917,"loli":8918,"milli":8919,"thian":8920,"##nungla":8921,"##vijay":8922,"gobin":8923,"surendar":8924,"mait":8925,"##oubi":8926,"subham":8927,"cardos":8928,"lalhmingmawia":8929,"lalfam":8930,"##solu":8931,"##tilin":8932,"prab":8933,"amer":8934,"shrestha":8935,"##tur":8936,"narmad":8937,"##khochin":8938,"mangol":8939,"pasco":8940,"khumbong":8941,"manso":8942,"##bahadur":8943,"irene":8944,"tuls":8945,"kharbud":8946,"mandakini":8947,"##pon":8948,"sofia":8949,"binay":8950,"ronrang":8951,"lalthanpuii":8952,"lalkhaw":8953,"vab":8954,"vev":8955,"wali":8956,"sank":8957,"sarma":8958,"akshita":8959,"##patra":8960,"kwatra":8961,"##engmawii":8962,"dulal":8963,"##sharan":8964,"kanishka":8965,"amanpreet":8966,"durgawati":8967,"gama":8968,"##itson":8969,"lalri":8970,"malika":8971,"nazima":8972,"sayoo":8973,"##hlim":8974,"cardoso":8975,"kino":8976,"mm":8977,"nathi":8978,"sekho":8979,"manyu":8980,"##aida":8981,"monal":8982,"dharmvir":8983,"gyal":8984,"mithu":8985,"gyanti":8986,"hazarika":8987,"misao":8988,"kamni":8989,"sumant":8990,"tensubam":8991,"newmai":8992,"sanayaima":8993,"gres":8994,"##khen":8995,"lalhmingliana":8996,"sakuntla":8997,"ibochouba":8998,"bhi":8999,"pik":9000,"kalita":9001,"khushnuma":9002,"est":9003,"pritpal":9004,"pranay":9005,"augus":9006,"lalti":9007,"##ongam":9008,"khing":9009,"umang":9010,"trilochan":9011,"rizvi":9012,"kandolkar":9013,"joanita":9014,"niyaz":9015,"gup":9016,"muan":9017,"shangoi":9018,"##arius":9019,"niti":9020,"micheal":9021,"akshit":9022,"joaquina":9023,"catherine":9024,"khumbongmayum":9025,"dada":9026,"ami":9027,"adah":9028,"lalrinfeli":9029,"tao":9030,"dos":9031,"sekhar":9032,"thri":9033,"haresh":9034,"##ikara":9035,"maggo":9036,"tiken":9037,"yirang":9038,"shek":9039,"lalzam":9040,"##liba":9041,"ngair":9042,"correia":9043,"##sur":9044,"##hot":9045,"shariq":9046,"sera":9047,"##prit":9048,"lalramdin":9049,"nilu":9050,"pohlong":9051,"vanlalpeka":9052,"cand":9053,"dhanesh":9054,"ila":9055,"vina":9056,"##vender":9057,"##.k":9058,"##arrat":9059,"phin":9060,"##chok":9061,"goes":9062,"bilas":9063,"tado":9064,"kukreti":9065,"##huri":9066,"##peni":9067,"kros":9068,"##oma":9069,"##bru":9070,"##shin":9071,"##uskar":9072,"##neihat":9073,"##hlun":9074,"rafat":9075,"adi":9076,"tynsong":9077,"yudh":9078,"##p!":9079,"##akat":9080,"shahani":9081,"hangsing":9082,"godinho":9083,"gond":9084,"##ikpuii":9085,"sankh":9086,"khongwar":9087,"pathania":9088,"apoorva":9089,"rk.":9090,"##ilis":9091,"chandna":9092,"shivanand":9093,"pagui":9094,"hasin":9095,"tora":9096,"##oding":9097,"##orah":9098,"faruk":9099,"kivi":9100,"jham":9101,"taniya":9102,"jaideep":9103,"##yasa":9104,"jacinta":9105,"santo":9106,"amisha":9107,"##avan":9108,"subadani":9109,"##bhushan":9110,"hemabati":9111,"lallawmaw":9112,"toli":9113,"##tdong":9114,"##ayang":9115,"ramav":9116,"kaptan":9117,"phairembam":9118,"##ellina":9119,"anshika":9120,"(qo)":9121,"pratham":9122,"amal":9123,"pareek":9124,"jagriti":9125,"##t]":9126,"sawan":9127,"manitombi":9128,"lait":9129,"thapar":9130,"varak":9131,"raveena":9132,"##lep":9133,"vass":9134,"aasif":9135,"kharsohnoh":9136,"##sta":9137,"##sti":9138,"shakhi":9139,"parmeshwar":9140,"bijeta":9141,"babulal":9142,"wahida":9143,"makan":9144,"##kota":9145,"mazumdar":9146,"##ging":9147,"omi":9148,"sinai":9149,"sayyed":9150,"kynshi":9151,"jugli":9152,"magdal":9153,"##kishor":9154,"karap":9155,"seimin":9156,"##ewdor":9157,"kiy":9158,"lalthakimi":9159,"zuber":9160,"##alish":9161,"##eshe":9162,"##adia":9163,"mishri":9164,"gulia":9165,"jasvir":9166,"iqra":9167,"gyatso":9168,"teiborlang":9169,"##ibon":9170,"lalengmawii":9171,"dnyaneshwar":9172,"hanj":9173,"##ungan":9174,"momon":9175,"##untla":9176,"gangaram":9177,"noren":9178,"##ciana":9179,"kshitij":9180,"hub":9181,"vez":9182,"kamruddin":9183,"suma":9184,"ngath":9185,"##sungla":9186,"sarna":9187,"viraj":9188,"phun":9189,"##wez":9190,"dabholkar":9191,"yajum":9192,"rustam":9193,"lbe":9194,"##uly":9195,"abon":9196,"jot":9197,"tajo":9198,"##bet":9199,"##anjal":9200,"##roo":9201,"shahz":9202,"manda":9203,"kula":9204,"##umo":9205,"prashan":9206,"##elda":9207,"##ithanga":9208,"paol":9209,"vanlalruat":9210,"divakar":9211,"pintoo":9212,"mubarak":9213,"diniz":9214,"##ness":9215,"raisa":9216,"balwinder":9217,"farukh":9218,"deelip":9219,"lath":9220,"##mesh":9221,"lallu":9222,"mera":9223,"jamshed":9224,"eknath":9225,"tala":9226,"##qan":9227,"hardik":9228,"salo":9229,"varinder":9230,"malsawmkimi":9231,"daksh":9232,"purshotam":9233,"yug":9234,"##rung":9235,"ishu":9236,"mehan":9237,"pynshailang":9238,"vijeta":9239,"ngomdir":9240,"mimi":9241,"oe":9242,"##yub":9243,"parag":9244,"##chat":9245,"chiin":9246,"want":9247,"##ikhan":9248,"rahil":9249,"walling":9250,"nri":9251,"vekho":9252,"prakashi":9253,"bansi":9254,"##janeng":9255,"shimti":9256,"satyender":9257,"queen":9258,"sougrakpam":9259,"kup":9260,"##anding":9261,"carm":9262,"lohrii":9263,"jeff":9264,"manoranjan":9265,"shiksha":9266,"##hul":9267,"##n.":9268,"##wiliu":9269,"magh":9270,"##chiba":9271,"majik":9272,"lyngkhoi!":9273,"beniwal":9274,"bhima":9275,"shaukat":9276,"subramani":9277,"malsawma":9278,"ngairangbam":9279,"mariano":9280,"##ote":9281,"nada":9282,"katoch":9283,"foz":9284,"##uzo":9285,"##ert":9286,"ano":9287,"nungshitombi":9288,"##rivastva":9289,"mita":9290,"vishram":9291,"rinchen":9292,"well":9293,"arolkar":9294,"##udeen":9295,"moi":9296,"mous":9297,"alvar":9298,"balkrishna":9299,"lalhlimpuia":9300,"jeng":9301,"ananya":9302,"manral":9303,"##okba":9304,"rop":9305,"vibhu":9306,"gurdev":9307,"khor":9308,"loken":9309,"mendiratta":9310,"marsh":9311,"naran":9312,"lalhmu":9313,"inderpal":9314,"shridhar":9315,"tate":9316,"maimom":9317,"hep":9318,"yah":9319,"dhara":9320,"baraiya":9321,"umdor":9322,"mahak":9323,"radheshyam":9324,"aliya":9325,"phyr":9326,"firoza":9327,"##jahrin":9328,"thoithoi":9329,"##rm":9330,"##thana":9331,"##asangla":9332,"chewang":9333,"##kholet":9334,"lalrammawii":9335,"rasida":9336,"dohtdong":9337,"noh":9338,"##utso":9339,"##khohoi":9340,"rishikanta":9341,"roding":9342,"lalmuankimi":9343,"rilang":9344,"##buddin":9345,"shrama":9346,"ashiya":9347,"rahish":9348,"balaji":9349,"jaswal":9350,"lakhmi":9351,"bhom":9352,"diya":9353,"##ster":9354,"balo":9355,"taying":9356,"esper":9357,"##fully":9358,"thubru":9359,"aadil":9360,"##sak":9361,"##shom":9362,"##ilen":9363,"amber":9364,"barun":9365,"ado":9366,"##vitoli":9367,"##sime":9368,"israil":9369,"justin":9370,"##wadi":9371,"ramvir":9372,"sanoj":9373,"robita":9374,"sungjem":9375,"makakmayum":9376,"kamboj":9377,"mansoori":9378,"kuma":9379,"mh":9380,"padu":9381,"chhoti":9382,"khongsni":9383,"spar":9384,"shekha":9385,"##asing":9386,"dharmveer":9387,"aying":9388,"juyal":9389,"##uro":9390,"suan":9391,"navi":9392,"gitanjali":9393,"sabiya":9394,"mridula":9395,"##zy":9396,"##idhar":9397,"nieng":9398,"ishwari":9399,"chhangte":9400,"achom":9401,"##arath":9402,"ramo":9403,"manjun":9404,"vishw":9405,"luiza":9406,"taga":9407,"ayod":9408,"taslima":9409,"narayani":9410,"ojit":9411,"shanno":9412,"##yog":9413,"samp":9414,"shamina":9415,"umakant":9416,"bho!":9417,"takhelchangbam":9418,"mono":9419,"sanjita":9420,"thongbam":9421,"modhu":9422,"indubala":9423,"##vador":9424,"marsing":9425,"babubhai":9426,"jini":9427,"risha":9428,"##keshwar":9429,"##u.":9430,"shivram":9431,"lalrinpuia":9432,"romin":9433,"noori":9434,"##rishnan":9435,"putul":9436,"nomita":9437,"##john":9438,"khr":9439,"baleshwar":9440,"mehto.":9441,"mez":9442,"m.s.":9443,"puni":9444,"nurul":9445,"##zii":9446,"shom":9447,"##ivah":9448,"##bait":9449,"mallik":9450,"doley":9451,"kuwar":9452,"zodinpuii":9453,"dropadi":9454,"dui":9455,"##angliu":9456,"##eshor":9457,"mog":9458,"ahe":9459,"lalrinzuala":9460,"mansuri":9461,"lombi":9462,"neet":9463,"##umai":9464,"chul":9465,"simte":9466,"jangid":9467,"jyotsana":9468,"vengurlekar":9469,"chhetry":9470,"##dutt":9471,"rajib":9472,"##nguri":9473,"rahisa":9474,"all":9475,"mohamed":9476,"gem":9477,"##arlin":9478,"ameer":9479,"##ega":9480,"gaut":9481,"##langki":9482,"salvador":9483,"lakiang":9484,"memtombi":9485,"ngurthan":9486,"jimmy":9487,"khawl":9488,"hibu":9489,"##fat":9490,"##foo":9491,"prakesh":9492,"##ngbaw":9493,"nongneng":9494,"premvati":9495,"sagun":9496,"poudel":9497,"cheda":9498,"arm":9499,"##awii":9500,"satveer":9501,"chakravar":9502,"lopes":9503,"wo":9504,"##kom":9505,"##okali":9506,"chad":9507,"lalbiakdiki":9508,"##ketta":9509,"bipul":9510,"gana":9511,"##niungan":9512,"choubey":9513,"yamuna":9514,"##irenla":9515,"##luaia":9516,"qasim":9517,"manika":9518,"shantanu":9519,"banarsi":9520,"hes":9521,"vw":9522,"##thin":9523,"##ngan":9524,"lalhmingliani":9525,"siddique":9526,"baraily":9527,"malemnganba":9528,"alemla":9529,"lalrok":9530,"khongk":9531,"##wajeet":9532,"yamang":9533,"shuaib":9534,"get":9535,"##yer":9536,"##gopal":9537,"furqan":9538,"choudhry":9539,"chukhu":9540,"zal":9541,"parbati":9542,"muksor":9543,"gurmit":9544,"ngan":9545,"tsomu":9546,"iliyas":9547,"##grik":9548,"##imila":9549,"alom":9550,"luit":9551,"luwang":9552,"pukhri":9553,"##reiwon":9554,"kongbra":9555,"lalthleng":9556,"travasso":9557,"##lap":9558,"dhur":9559,"rc":9560,"syam":9561,"##ubam":9562,"ameena":9563,"afjal":9564,"motilal":9565,"##khongam":9566,"phen":9567,"lamabam":9568,"subedi":9569,"remruat":9570,"pakem":9571,"jivan":9572,"mridul":9573,"beauty":9574,"hori":9575,"##ambar":9576,"maner":9577,"naro":9578,"sot":9579,"priyanshu":9580,"panger":9581,"bakh":9582,"zonunsanga":9583,"hossain":9584,"##bhavi":9585,"satto":9586,"asraf":9587,"dipa":9588,"##upal":9589,"ashwin":9590,"sapan":9591,"gloria":9592,"yeshi":9593,"##hrii":9594,"##amuddin":9595,"punyo":9596,"namoijam":9597,"lir":9598,"nila":9599,"##chilo":9600,"sunwar":9601,"faiyaz":9602,"clara":9603,"purshottam":9604,"##erina":9605,"lalthu":9606,"shabir":9607,"##janti":9608,"##talin":9609,"chawang":9610,"domnic":9611,"##lee":9612,"##ilinda":9613,"anok":9614,"rajina":9615,"manvi":9616,"##utho":9617,"nampui":9618,"prity":9619,"purnimashi":9620,"yape":9621,"moyon":9622,"awadhesh":9623,"ngemu":9624,"##amang":9625,"sambhu":9626,"priyad":9627,"ibopishak":9628,"nangram":9629,"mansha":9630,"khag":9631,"patri":9632,"lalhlupuii":9633,"sawin":9634,"##vw":9635,"##ileima":9636,"chandu":9637,"harbir":9638,"kaling":9639,"papang":9640,"sayyad":9641,"aiborlang":9642,"##shwa":9643,"##adong":9644,"##chey":9645,"##ode":9646,"barbo":9647,"thiang":9648,"lallawmzuala":9649,"##desai":9650,"narmada":9651,"lith":9652,"lisham":9653,"##giri":9654,"##fang":9655,"ngup":9656,"##oriya":9657,"faraz":9658,"nazar":9659,"kiho":9660,"elias":9661,"##parani":9662,"kyrmen":9663,"manjunath":9664,"deepesh":9665,"thum":9666,"l.maw":9667,"navdeep":9668,"lalnghak":9669,"bijenti":9670,"##bih":9671,"sidh":9672,"##kaba":9673,"##liya":9674,"##ipi":9675,"##epcha":9676,"kulkarni":9677,"passi":9678,"chingngaih":9679,"joychandra":9680,"gambhini":9681,"tamphasana":9682,"raikwar":9683,"asgari":9684,"od":9685,"##jrang":9686,"##elal":9687,"sayara":9688,"ug":9689,"##dah":9690,"##akanta":9691,"##irani":9692,"broj":9693,"##angbi":9694,"arn":9695,"birma":9696,"pancha":9697,"tayenjam":9698,"julekha":9699,"tyngkan":9700,"bans":9701,"mitlesh":9702,"pancham":9703,"saksham":9704,"gulabi":9705,"nyodu":9706,"idris":9707,"ayodhya":9708,"wot":9709,"arang":9710,"gas":9711,"raym":9712,"pruthi":9713,"##otso":9714,"nazn":9715,"longri":9716,"olivia":9717,"##thlei":9718,"##hua":9719,"harleen":9720,"##uguna":9721,"muzam":9722,"tis":9723,"##athung":9724,"soumya":9725,"aga":9726,"rihan":9727,"kasana":9728,"chhikara":9729,"sirohi":9730,"lhu":9731,"sharaf":9732,"jackson":9733,"##wary":9734,"khare":9735,"firda":9736,"dahun":9737,"kitboklang":9738,"sobti":9739,"dhanraj":9740,"leon":9741,"##mongba":9742,"##jei":9743,"subita":9744,"talo":9745,"akhlesh":9746,"shitiri":9747,"jawed":9748,"tym":9749,"##tum":9750,"##angmai":9751,"saji":9752,"babi":9753,"makh":9754,"lalnunziri":9755,"##——":9756,"sanchita":9757,"khanal":9758,"kharwar":9759,"rink":9760,"philem":9761,"muhindro":9762,"hed":9763,"##ezo":9764,"singam":9765,"##tav":9766,"saida":9767,"sadana":9768,"simo":9769,"lalrempuii":9770,"menuka":9771,"dropti":9772,"keni":9773,"thaba":9774,"rig":9775,"##aineh":9776,"##olai":9777,"##choom":9778,"donboklang":9779,"verma.":9780,"sandra":9781,"bhanwar":9782,"athar":9783,"lien":9784,"sakharam":9785,"hoojon":9786,"khiamniungan":9787,"beenu":9788,"##nuk":9789,"sanket":9790,"kama":9791,"malati":9792,"##toshe":9793,"taranjeet":9794,"linggi":9795,"cecilia":9796,"dzies":9797,"##fooz":9798,"yasoda":9799,"cic":9800,"fri":9801,"##mah":9802,"##unak":9803,"##ch|":9804,"mohon":9805,"pooj":9806,"kundra":9807,"ishika":9808,"miss.":9809,"zothansanga":9810,"kashmir":9811,"hesh":9812,"noy":9813,"ashim":9814,"shyamal":9815,"licha":9816,"sanjib":9817,"full":9818,"greg":9819,"lindum":9820,"##tongbam":9821,"mahal":9822,"ngon":9823,"vidha":9824,"kenn":9825,"lalhmingthanga":9826,"##limboo":9827,"fred":9828,"keithellakpam":9829,"toraskar":9830,"teja":9831,"saqib":9832,"##alian":9833,"moha":9834,"binarani":9835,"malsawmkima":9836,"tonjam":9837,"gilbert":9838,"fam":9839,"rekh":9840,"jait":9841,"wangchu":9842,"afsha":9843,"##olian":9844,"antoneta":9845,"##mut":9846,"naq":9847,"bans!":9848,"ist":9849,"keshri":9850,"sazid":9851,"myn":9852,"##akor":9853,"kaut":9854,"sunday":9855,"nandani":9856,"harichandra":9857,"##itosh":9858,"baidya":9859,"lash":9860,"##bila":9861,"makhan":9862,"kordor":9863,"inakhun":9864,"jharna":9865,"pasricha":9866,"leng":9867,"anit":9868,"kamna":9869,"kalidas":9870,"laldinpuia":9871,"lalmuankima":9872,"beri":9873,"aara":9874,"takhelmayum":9875,"bahuguna":9876,"##tiang":9877,"sahar":9878,"kres":9879,"samita":9880,"feroz":9881,"vanlalth":9882,"badan":9883,"dhaka":9884,"##oluah":9885,"##steng":9886,"riyasat":9887,"ele":9888,"kupar":9889,"##nisa":9890,"lalta":9891,"##thmi":9892,"roque":9893,"abin":9894,"tarsem":9895,"nathan":9896,"josephine":9897,"aakriti":9898,"pascoal":9899,"reet":9900,"tati":9901,"##udu":9902,"gosp":9903,"##siar":9904,"hau":9905,"chamoli":9906,"maso":9907,"##hatgi":9908,"##lungliu":9909,"ahemad":9910,"##unu":9911,"chib":9912,"shaina":9913,"tagi":9914,"majida":9915,"pynshai":9916,"##mond":9917,"buj":9918,"chaddha":9919,"lachi":9920,"mawsor":9921,"riyajuddin":9922,"medo":9923,"wakil":9924,"dub":9925,"glor":9926,"##seen":9927,"##billa":9928,"banri":9929,"baljinder":9930,"##neiting":9931,"vasim":9932,"kerketta":9933,"##ando":9934,"parash":9935,"hardev":9936,"samom":9937,"bhei":9938,"tanish":9939,"ruhina":9940,"hera":9941,"mham":9942,"##aijam":9943,"shaiza":9944,"##ipa":9945,"tsop":9946,"jane":9947,"digamber":9948,"tyr":9949,"##sav":9950,"mehmood":9951,"birjesh":9952,"##chhingi":9953,"mallika":9954,"radhamani":9955,"hawa":9956,"hayat":9957,"mahend":9958,"ompal":9959,"sajina":9960,"zothansangi":9961,"##wmi":9962,"##alemla":9963,"sairem":9964,"ramveer":9965,"tami":9966,"taus":9967,"lalremsangi":9968,"sebastiana":9969,"toi":9970,"##yon":9971,"namchoom":9972,"##tluang":9973,"amrish":9974,"##chenpa":9975,"gani":9976,"cheri":9977,"##odiya":9978,"shahjad":9979,"hasna":9980,"parida":9981,"lallawmkima":9982,"achouba":9983,"o.":9984,"nicho":9985,"lalhun":9986,"bagum":9987,"##thui":9988,"eth":9989,"ramjan":9990,"parja":9991,"albin":9992,"##phul":9993,"##neja":9994,"libang":9995,"lourenco":9996,"tant":9997,"##adesh":9998,"suruchi":9999}}}