[UNK]
[CLS]
[SEP]
[PAD]
[MASK]
!
"
#
$
%
&
'
(
)
*
+
,
-
.
/
0
1
2
3
4
5
6
7
8
9
:
;
<
=
>
?
@
[
\
]
_
a
b
c
d
e
f
g
h
i
j
k
l
m
n
o
p
q
r
s
t
u
v
w
x
y
z
{
|
}
~
¢
£
¥
§
©
«
®
°
»
́
—
‘
’
“
”
€
™
##o
##y
##a
##h
##k
##s
##n
##e
##m
##p
##r
##b
##l
##u
##c
##i
##t
##d
##v
##g
##z
##j
##.
##w
##-
##!
##_
##/
##x
##:
##f
##q
##,
##)
##]
##|
##¥
##(
##1
##}
##'
##‘
##;
##®
##4
##"
##\
##7
##[
##—
##“
##€
##3
##$
##’
##¢
##”
##́
##~
##2
##*
##?
##°
##5
##>
##&
##@
##9
##0
##8
##%
##6
##{
##«
##§
##=
##»
##<
##+
##™
###
##©
##£
##an
##ar
##sh
##in
##am
##al
##um
##ha
##umar
kumar
##ee
##ra
##ma
##ing
##it
##ang
##on
sh
ra
##vi
de
##er
##en
##un
sing
##at
singh
devi
##han
##il
##esh
##ish
##ur
##ak
##ta
##ik
##ad
##as
##ay
##ho
##ir
an
lal
##ita
##em
##oh
##ti
##la
##ri
raj
sa
##der
shar
##ong
##and
##har
ram
##ul
ka
sharma
##im
##th
##na
##ani
##ch
##ya
su
##li
pra
##or
mar
man
##om
ch
##up
##ai
sang
##kar
san
sha
chan
##ash
na
##ari
##eep
##ana
moh
##ati
##el
##ah
##ab
ja
##ung
##hu
sun
##ei
ar
##eet
##uk
##ok
sangma
##upta
gupta
##oj
##id
pr
##dra
##to
##ender
##jay
##ia
##ud
am
par
##es
marak
##aw
##od
ash
##bam
##een
##ek
##av
##aj
##ng
cha
kh
##ala
##et
##ina
##is
sar
##ed
mohd
##us
##bi
##ol
kam
kaur
##hi
kumari
##ila
po
##eng
##bha
##ush
##iv
khan
##eg
##ant
##ip
go
##'s
##ba
chand
bha
##ika
##shi
##ank
##ali
##eena
sur
ga
son
deep
ro
nar
yad
##wal
mo
##inder
rani
##ni
la
kr
yadav
##ram
##eh
jain
##pa
##kash
##mi
##eeta
sum
##ey
pal
##ther
##lam
##ut
##ath
th
##ther's
other's
##ini
##ju
har
ab
##war
vi
md
bab
##raj
##isha
##sha
##jam
##gar
##endra
sat
##ind
##kh
##ja
##cha
mal
jo
ah
sunita
beg
mah
kha
##ura
vin
##sang
##sad
##pu
##pal
##anj
rai
##chan
##veen
##ap
kan
nong
##ii
ver
may
##ub
ma
shan
prakash
ban
##ro
##wan
rajesh
rah
nee
muk
##ata
rak
##si
##lang
##mad
shiv
krish
ali
##yo
##yn
##ep
prasad
##lal
##yam
##wati
kar
verma
##ora
mad
sush
##yng
deepak
##ru
##tosh
tha
cho
bi
pri
sal
##deep
al
prem
sanjay
gur
sam
ng
so
bhar
anita
kish
khar
das
dev
sunil
##jeet
naik
##tar
shah
begum
##sa
##oja
in
##din
mon
##lu
vijay
santosh
anil
##da
##man
ba
bal
##wari
pooja
##ki
##tho
##eema
##vita
lax
##bo
##onam
ne
##iya
amit
##jit
sand
pand
manoj
##maw
##lesh
##ekha
poonam
jha
##dha
##son
ashok
ag
geeta
vik
jyo
rakesh
##ekar
##hom
##shan
mish
kir
dhar
om
kal
##ot
tho
##ev
fer
tar
##wat
ramesh
rahul
##chi
##pam
mishra
ak
kap
##bir
mam
##garwal
van
ph
##gi
ren
jag
mom
seema
##wa
pat
jyoti
maya
##nand
manju
chandra
meena
lyng
suman
fernand
mun
##tia
ri
##ith
ajay
lalr
fernandes
##vinder
##eer
rekha
##jee
ranj
bhu
nir
roh
##anga
ni
din
vish
##ham
vinod
##nam
ha
se
##doh
as
meh
mukesh
chander
suresh
##re
ti
momin
chet
##oor
arora
lo
tam
laxmi
##uddin
##dh
##za
##yal
lam
me
jit
pa
##ib
mamta
kon
##ran
##med
asha
##di
sham
im
mohan
sah
push
shyam
ravi
##onkar
##ph
##os
nit
##ou
bh
shak
usha
parveen
##eli
kiran
##ka
##og
nand
di
jam
##uhan
dinesh
sub
##tri
chak
##end
k.
r.
rawat
##ikh
anj
moham
ning
arun
##ayan
##had
##uri
pandey
priy
bar
##kho
krishna
vanlal
lyngdoh
sandeep
##sal
##puii
##them
##kur
##te
renu
##va
lalh
paw
pin
aggarwal
dh
nisha
##urav
anand
mang
sach
kamlesh
##thang
ko
hem
##hary
gul
lata
bhag
chauhan
##thi
jas
sumit
neha
bas
tan
##if
##mila
lak
##anka
saroj
hari
##eem
##ira
##kumar
##jan
bala
ahmed
laish
##ima
rit
wang
tiwari
nirm
ahmad
neelam
re
##udhary
##toon
manish
mand
gar
##unt
##eela
pushpa
khatoon
var
abh
laishram
##op
priyanka
##ga
rohit
##shu
shanti
##akshi
##dul
##oi
##vind
thang
nath
##yan
khong
ad
ur
bish
chakma
kavita
naresh
##nu
yog
##ujam
##yak
##du
bim
kul
dil
mahesh
ru
##ami
kamal
char
##zu
##le
ib
meen
c.
babita
##su
##ida
m.
shankar
pawan
##eeti
kishor
shab
hus
sangeeta
mohammad
abdul
##tan
thakur
##oni
##ug
ank
dhan
um
pank
preeti
nas
vir
kun
dar
garg
##ne
wati
##ck
saini
##ena
##ori
pankaj
mit
amar
kishan
##we
raju
##vin
sy
satish
##ny
subha
jai
##ej
gaurav
##bor
##so
##bh
##ew
##ama
##angthem
ang
pradeep
gaonkar
alam
##mu
##hadur
bir
chettri
madhu
pan
anju
##ili
##khar
##tha
sarita
##pr
##yum
bahadur
##imi
kaush
##una
##tra
sad
da
pram
far
##yr
pas
pur
narayan
rin
kus
haj
gir
##iman
##qu
sonu
##ji
##lo
krishan
is
##eni
vikas
##dar
##mawii
##sari
surender
babu
##tun
##kpam
bhan
khu
bhutia
##dev
shashi
##thoujam
##uj
##ob
##dhan
##illa
kapoor
lalrin
##ema
soni
rajni
##eetu
##want
pun
rana
suraj
##lin
has
at
nam
savita
nag
sanjee
##uo
subhash
tamang
tom
af
sab
dkhar
lu
ashish
bansal
##sai
jitender
konyak
##preet
jal
##mei
jay
bano
rajender
##ela
dharm
##ton
kusum
gurung
malik
rash
##utam
sachin
sanjeev
lep
monika
##uli
laln
##ishek
naz
##ly
ir
##ukh
reena
ravinder
kamla
neeraj
tal
hajong
##waj
##dr
kom
##ula
##vit
abhishek
per
ta
##angi
s.
bhat
maw
day
wah
##iti
vim
##pi
urmila
akh
tak
lepcha
gopal
bin
##se
yum
gautam
goel
joh
bri
ansari
##mayum
##liana
som
##inam
##ming
##rang
##shad
##sing
rag
##bu
##sain
##riv
priya
harish
ke
bibi
##yl
mandal
sonia
kash
sid
ching
##puia
radha
##hana
##engbam
##bhai
moir
sap
##oy
bis
sw
##eera
sushila
dal
goyal
##saw
rup
sher
##pati
maha
##hun
wan
li
##tin
##ilash
##tal
up
##hai
begam
sim
az
##ca
bharti
##vir
h.
##ain
##gu
mohit
##ola
ts
joshi
ran
shal
##cy
neetu
##era
praveen
min
jagd
##van
moirangthem
ningthoujam
##mawia
sushma
##cho
shakunt
vishal
nitin
neg
tya
##was
si
##az
##wani
##chal
##ber
sheela
tyagi
##ikha
##chom
anjali
##hing
##mang
##star
yash
##eja
##ry
manisha
mer
le
negi
dut
t.
##tu
mi
kanta
sud
mai
ay
lei
mur
rish
umesh
jagdish
ankit
ch.
hussain
##hari
hal
yogesh
aar
sak
bimla
##sana
##hotra
nirmala
satya
sho
##ikar
##lem
ritu
##anki
##bani
bhard
pho
khatun
##jal
##bah
##anda
##bar
savit
chaudhary
haok
##hak
##oli
uma
patel
naveen
##pra
madan
kho
vip
long
##vati
lalit
bhardwaj
##tam
##rivas
subba
roy
##enla
malhotra
vid
##fi
pramod
brij
bho
kumar,
##than
##jun
##chandra
##sanga
av
dur
lalita
himan
thok
sushil
sukh
##bal
savitri
l.
##long
##adh
##iem
haokip
prabha
bisht
md.
gud
radh
karan
bhatia
##zo
war
thokchom
tab
ong
rita
##chana
sanj
john
##min
narender
##mo
sagar
ap
veena
vinay
inder
div
##san
##boo
sol
lok
chaw
lalram
ish
parkash
sil
sin
ruk
mittal
##rivasta
rom
sul
thong
n.
##aih
##rin
lalnun
pradhan
cham
vand
mak
oinam
syiem
##bhu
kuldeep
rabha
##alin
##ku
lim
##ty
##athi
munni
##tlu
b.
##chu
gan
##edi
amr
##anti
bdr
thapa
shri
arvind
##bin
mus
khanna
##ce
##vesh
##itha
resh
jan
sen
gang
lang
yumnam
##veer
##eev
mehta
##char
rama
kailash
deepa
nish
##ilo
jahan
##sangi
meit
shuk
aman
##eira
lalrem
choudhary
##orem
##hya
d.
bharat
tri
##inda
##liu
mani
##ara
##weta
aarti
ud
arjun
deb
dip
##rum
vai
##tap
mas
##len
bai
meenakshi
##do
dharam
paul
##ife
sita
wife
vas
rub
wife's
dass
##hoi
koch
han
meera
##ter
rat
ho
tara
shub
##oo
bag
kanchan
shaikh
##me
komal
shukla
kant
rajeev
##he
##biak
p.
##law
khur
virender
pha
##bai
##ilesh
bat
akash
meenu
pink
himanshu
mu
kur
##gal
##dari
##de
to
kat
meitei
##nei
viv
mith
mahender
saj
##embam
mem
##etri
dilip
soh
vandana
##nath
tarun
##ekh
##akar
sor
rod
mary
##iki
kapil
yas
##ban
anura
##ering
govind
##sar
pad
mat
shil
shr
dam
##lan
seng
##xena
yam
a.
##yap
sonam
sudha
##wang
pi
parm
nongrum
meg
sherpa
##yar
##zuali
nik
##dan
gaw
seh
##rat
shivani
##rakpam
chha
arti
##isa
##gan
vivek
##him
bad
sethi
saxena
##eshwar
men
##ine
vipin
sumitra
ganga
##uja
tay
hu
agarwal
##lata
math
##o)
archana
harsh
##cky
nid
##urabh
##obi
##ym
##ben
devender
phool
be
##ver
maria
sapna
ratho
do
bhagwan
##ris
giri
baj
roshan
bor
lalch
kishore
naorem
##ito
el
d's
ajit
ongbi
##hani
pap
paswan
##meet
pinki
suk
kaushik
noor
bud
jog
car
jos
nav
bhaw
##mal
##eph
mis
khush
##ombi
ranjan
laksh
##lian
##ting
ved
sudesh
chawla
leima
chopra
kesh
##ubey
say
jat
##ching
chong
(o)
##anta
tr
##jen
##thung
br
ras
##be
pratap
##liani
indra
sunder
##uni
##ylla
kashyap
srivasta
shakuntla
ki
##baniang
##ez
##zuala
ben
##uma
##awati
##hat
##bala
bhup
marbaniang
##kong
nan
reshma
chin
vikram
##bem
sudh
kas
singhal
shad
##chna
##hal
fir
ganesh
salam
##mar
kalp
dutt
##ell
##kimi
##eel
kush
##dhar
yang
##go
ken
##ruat
##yang
khum
indu
aksh
##sin
##co
bind
ya
##mani
aj
##yu
deepika
trip
tong
##angbam
maj
##ade
##ge
imran
##que
divya
##huja
shobha
ham
dor
##ongbam
gay
prash
##ill
rodri
ros
##lambam
saha
nat
##sawm
ranjeet
kip
##ouza
rajiv
ari
sag
##tina
rajendra
tej
ryn
##ashi
##odkar
##gues
rakhi
prati
chandan
##haw
rodrigues
sharda
##c.
lalbiak
fran
##umi
solanki
##hl
nay
tas
pyn
shweta
##ilang
tul
##elip
nikh
kaushal
sachdev
##chand
dubey
gaur
shir
wa
##ua
sudhir
##cham
ron
mehra
khun
sinha
nirmal
nad
velip
joy
ahuja
ksh
##gen
dol
swati
phom
anup
mil
ek
gyan
islam
maibam
##pe
##lah
rajkumar
sunny
te
##urya
gulshan
##reen
##s.
##chung
rosh
beena
nem
charan
kum
rashmi
pathak
##fa
chanu
##itra
jen
dim
bij
was
neng
##ilin
she
saurabh
kajal
gun
##ikhom
st
va
vimla
jeet
##kima
hemant
##hel
##oda
wal
laxman
shubham
raja
gaj
##cis
tsh
nidhi
kala
ina
##chin
gho
lyngkho
d'souza
des
##thanga
raman
he
sahil
##mon
prashant
##khem
##gaonkar
baby
sachdeva
##sam
##lieh
##io
##ithem
##uel
mala
don
##lung
shabnam
tem
##wein
davi
##seng
##bok
es
##bas
##aram
##endro
francis
ratan
shabana
saif
##iri
##thangi
##sum
##muan
hema
##iram
bhushan
##kan
shikha
nikhil
bid
##ekhar
##adi
##abi
bra
pereira
ray
anuj
ku
madh
joseph
alka
nor
khurana
daw
g.
thi
dias
sandhya
varun
shang
no
##beni
fati
dharmender
##are
tang
taj
chh
##ony
sawant
dayal
##bra
##thu
koh
##sw
asi
##niang
bhandari
prit
nongsi
srivastava
yan
##tik
##itya
rajinder
nongb
durga
jun
kim
tok
##ikho
shet
anu
limboo
mithlesh
bdr.
fatima
pang
##far
##unga
bik
rajan
##mai
lalruat
##ved
dha
##iliu
mahto
##var
##lun
##sen
wahlang
##chhu
mel
swar
mong
tap
##ile
rong
##no
sheet
sangita
gula
bhawna
ashu
sk
dan
ranjit
vij
gulati
malsawm
sit
##eri
shylla
shira
##borlang
hasan
mor
f.
##ilal
kali
sana
riz
fai
kalpana
##udh
wahengbam
babli
rinku
##ijam
law
##rom
kak
ut
##swal
pardeep
band
batra
##khan
##ania
sheetal
##omi
munna
manjeet
marwein
saw
lyngkhoi
##uh
nil
##abam
##ree
mathur
##kongor
ranjana
javed
bo
##ungi
##mita
jitendra
##zan
gawas
param
##ful
##has
mut
dat
suj
khang
sanju
veer
gro
##ond
##rish
##zi
anuradha
shank
daya
nongsiej
##olu
j.
sahu
vikash
pam
##hav
kohli
vishnu
shivam
##oba
##ohar
rang
##pan
kshetri
##zam
kamei
##das
arya
aak
v.
sant
##ojam
dul
##bert
lalhming
##anand
chanchal
bhatt
tomar
naj
##tluanga
atul
bam
##kim
lalthan
##gam
bajaj
za
sakshi
##ling
rem
riya
kshetrimayum
grover
kurbah
##nima
ibo
##song
##fan
jang
saras
varsha
##zar
pappu
lot
biswas
dah
reh
syiemlieh
##men
##atri
shalini
maurya
med
shim
ruby
kyn
##aria
##yi
aditya
iq
##ona
##sem
kharkongor
lung
##tham
hen
##ude
kipgen
kham
vidya
gam
##snam
shakuntala
##lim
##eek
pandit
ashwani
##aki
akshay
tari
reeta
gosw
til
vash
##ongla
##ulu
ker
sarkar
ji
##ino
mawlong
##oram
eli
##mati
aw
shahna
##uka
goswami
kri
em
thouna
mr
joginder
sehgal
than
##udam
##ada
dessai
chanda
zah
hang
thangjam
bhim
thounaojam
ara
pu
##yay
##oz
jaiswal
##oop
manj
ten
guddi
hemlata
mod
malti
shahid
lil
##chh
suting
saifi
sanat
lakshmi
leela
pari
wil
dey
tripathi
bhagat
moni
##osta
parsad
priti
avin
kalra
simran
sn
salim
sharma.
##chiang
##ite
lokesh
sik
rachna
##den
nok
##ve
##nekar
##bina
shekhar
surinder
shadap
##andeep
##bati
##ato
jatin
thing
##par
shash
##ungla
shail
gand
vati
megha
gom
##haibam
asif
gu
ghan
##win
##tluangi
vanlalh
surendra
pay
##asam
##oijam
##vekar
phil
dab
akhtar
tshering
##lak
##eed
uday
mir
##lei
tanwar
rym
soniya
##kha
elang
##ye
vaish
dorjee
##ather
takhel
hei
##rem
dutta
bina
ghosh
shirodkar
mum
nongma
radhika
phawa
##ocha
##neet
##uba
##dal
nang
chari
nongmaithem
##wakar
##ral
huid
parab
kharb
##chong
##ren
##chang
##mas
##eth
##endar
huidrom
shama
##oti
gra
raghu
prabhu
jon
pukh
##eda
elangbam
##bhav
ruchi
amir
salma
gon
sahni
kang
khars
##wai
lan
ped
bhav
pinky
##st
ibem
khal
tah
##eeraj
david
sarla
##kam
nei
thoi
bil
##ding
##ombam
lhing
chang
##mangaih
nim
puneet
brijesh
kanti
gaude
chat
hira
ningombam
##chen
tin
ngam
puri
mayank
##anjan
niang
kunal
thoudam
##gh
##ring
irfan
ny
pet
shalu
puran
rajp
gayatri
kad
heena
##k.
sup
ok
khand
arif
rahman
salman
##bou
mangal
reb
val
##aka
kes
dheeraj
tad
aslam
nagpal
##isham
rik
halpati
anwar
purnima
##eto
mayang
mahendra
##thong
dik
tat
gol
saraswati
narendra
upadh
lalt
avinash
##ibam
##rei
##o.
##wanti
anjana
kor
##ambam
shanker
##nan
lalremru
##-u
##ingam
d'
##elo
iqbal
rashid
jes
aruna
##ngaih
mul
sohan
##pat
leish
prin
bhagwati
bablu
##riya
lai
rishi
nabam
##ikant
preet
amita
basanti
vinita
##ui
parul
##ikim
bah
##indal
mutum
##shai
##jri
mahajan
shilpa
pak
pe
shi
gita
##mat
sagol
syn
hit
james
lour
roop
ach
fat
suchiang
##hou
lalchhan
neeru
##jak
ishwar
sameer
##yas
mukhim
pus
mukh
ankur
hel
lalro
ral
##arani
##eesh
##hon
seth
jah
chhabra
lamare
jer
wangsu
aham
##eshi
lallaw
thu
manohar
zot
warjri
##rambam
##vindra
tsering
naf
teng
rymbai
geet
##pang
##aba
jindal
annu
raz
anth
##ngi
##togi
jose
jug
##car
##ista
areng
##eb
roshni
##ian
rina
vimal
tand
keshav
lian
parmod
##akir
##jo
kit
praja
longjam
vicky
richa
##dor
##ayum
##lie
khushboo
monu
ter
##kant
alok
sujata
##odh
bhal
##dam
ankita
tek
##ingra
aas
wadh
radhey
prema
adh
shamim
rathore
khongsai
rishab
chho
nanda
##yngk
upadhyay
gandhi
amarjeet
yap
husain
kr.
zam
##pha
dom
##jah
##khom
abha
tai
khundra
##bon
rajput
##ney
##po
thomas
##pok
thabah
rastogi
##udin
khundrakpam
kik
##ilu
aakash
poh
rukh
nga
rupa
ing
dharmendra
mumta
gulab
chadha
anjum
##ruti
##iro
ed
##lai
##hara
dhingra
##shana
##ker
nongbri
her
yat
##yani
dav
father
khongs
lalmuan
thongni
chetan
waikhom
jamir
rajat
sadh
##kum
ven
dani
rehman
dang
##dip
khangembam
hat
##ston
##eta
siddi
bindu
fathers
##anshu
##olkar
dai
##riat
##val
pukhrambam
##nga
laltha
robin
##nar
##aya
ber
##holi
##mohan
taneja
##aris
kirti
mayanglambam
on
tush
##rik
tu
prom
##af
sel
##omcha
kamat
##ent
nur
vat
mehto
##meen
avtar
ravindra
sarvesh
payal
chi
anthony
mos
##gin
bhola
yak
azad
##toli
##bita
##usu
##dy
nung
rim
##hiya
##pari
##ary
##ushi
zothan
sneh
phu
##vel
laldin
##won
gaun
devendra
ansh
rajn
miss
joa
karma
rao
balbir
kamala
lham
hans
darshan
##awm
nak
bit
piy
kumar.
saleem
lama
##neil
##eshwari
parv
vaz
biak
##rekar
ngang
gurpreet
girish
sapam
tombi
##alu
##ikari
##ale
narang
en
ge
gurmeet
##chon
mohini
murti
satpal
arengh
##nia
jul
laldu
gagan
zo
ting
aash
takhellambam
prajapati
parvati
chakra
dhir
##sia
##pho
##nai
manger
madhuri
##iz
##uram
sailo
tabas
naseem
nagar
##ankar
pushp
hai
ant
dix
##ngai
him
deepti
pem
bel
zon
nikita
##hiraj
kuk
wadhwa
##ynti
pratibha
harpreet
zar
##rar
amb
anurag
pul
bob
durg
##jing
sumer
lakh
sumi
##anjeet
##thom
pong
##alang
##iam
kanika
sung
ked
thongam
us
##bak
##evi
rynt
##ngam
##ule
##che
gari
lotha
lalf
##mer
uttam
soibam
juli
mohammed
dhawan
nitesh
sne
##pli
##ungbam
akhilesh
adhikari
yo
ser
angom
##aji
##wel
vaibhav
dua
pratima
shruti
irshad
rid
nishant
khri
rishabh
##ts
fari
doma
lallawm
karam
dixit
maring
##aman
##ilda
##endang
##wairakpam
vaishali
##kham
gangmei
nongthom
khwairakpam
sangtam
panwar
sanasam
##ngar
barman
rinki
jaya
wanniang
neeta
konthoujam
nasir
inderjeet
##riti
suri
dieng
##tana
nongthombam
##cia
vit
tushar
loh
luk
afsana
desai
ming
phur
chir
sai
sarika
##eno
##dira
ring
imti
mina
##qui
sonali
##yari
##idem
shila
##siami
chhetri
nadeem
amrit
samuel
pawar
raghav
##bemo
fa
sus
sohtun
narain
gauri
##rawal
sri
ritika
peter
anam
bip
syed
shrivasta
myr
bhupender
bu
##ruai
##hao
##nem
vil
##anthem
ao
##rope
bak
##raf
sona
pramila
lun
##fiq
rizwan
##les
##ity
patil
isha
chung
ton
##waha
paras
dalip
##daw
##okhaibam
kong
lat
atho
chow
marngar
thiyam
shambhu
##let
charu
##chum
##indro
d'c
gomes
khaidem
sneha
##dankar
tabassum
pema
piyush
danish
khem
chal
sood
ve
konj
kand
##shang
lalsang
sou
kyr
pd
##ison
chaman
iaw
talwar
##skhem
tomba
##elwal
kami
okram
prince
lem
##ahun
##athiang
gin
garima
moti
gad
shant
janki
jac
##okh
pav
pednekar
##wakarma
##well
je
sagolsem
leishangthem
mahad
mud
sm
##idas
##tab
ai
puja
chris
surjeet
vineet
indira
##lar
khandelwal
yeng
pyng
##mun
brah
##ury
khom
##olin
##eyi
jyr
konjengbam
bhalla
jana
##khi
ekta
rynjah
kalawati
tashi
nongk
##sy
sain
vaiph
ryntathiang
syngk
jar
bendang
##ylli
##esha
##anjali
lhamu
thoibi
dw
sahani
##nagar
pritam
##jang
jasbir
loit
nazma
##erjee
firoz
##ley
##waz
khatri
jyrwa
diengdoh
##jahan
nitu
##ander
shok
roj
sheikh
rathor
sajid
pyngrope
mans
nandan
bhatnagar
binod
vic
let
##skar
sorokhaibam
song
##hlu
sem
geor
nair
##uz
dolly
anshu
##sangla
jee
##biang
dro
##ugh
pod
uj
##zau
nis
lalth
prat
rohan
gunjan
nayak
##urang
siddhar
techi
##ees
##ke
##rath
##lavi
ibe
nirmla
##esa
##hima
lakhan
antoni
renuka
##aben
##hang
khy
mag
##imon
bash
satender
ris
chongtham
nal
niwas
##run
bhanu
pran
##rii
memcha
##desh
jaswant
##shyam
##eih
munesh
##khlaw
ik
ath
##phi
lalhriat
shra
desh
heisnam
champa
bali
laltlan
rajani
abhin
##kesh
fur
##ci
vats
wangsa
muskan
such
amrita
rab
phi
kartik
pink!
bhasin
vaiphei
kundan
sr
##shna
##ning
pant
pah
##aima
keisham
jamuna
##bram
zonun
hming
##eka
##yne
ritesh
hon
##upar
manor
limbu
laleng
reema
##zad
##ohra
tham
mrs
##zal
sangma.
##ait
deepali
##zana
sanjana
oj
kanoj
jayan
##zab
naaz
sweta
chaoba
hitesh
##iong
##fela
laj
surya
kath
##ilung
huk
george
ankush
##l.
tilak
dulari
nongkhlaw
##raw
##je
##hanbi
mansi
##luanga
rajpal
##ves
shel
ul
lalnunt
##ishi
##hming
loitongbam
phul
##nong
##aro
paramjeet
rubi
hijam
##ello
##ple
hab
mayengbam
##emla
sharmila
lad
##uman
##andh
lourembam
nasim
roma
##bhi
##mawi
ruksana
chun
ashutosh
siddiqui
y.
sabir
##eswar
maheshwari
hir
##thing
##she
##zing
##omba
kaushalya
minakshi
tag
##oka
##ishak
and
dash
bishnu
##nesh
##eibam
promila
mandrekar
##uti
zoram
beh
##ilat
##ose
sultana
##nun
chand.
##ven
##kit
lalhmangaih
tulsi
krishana
asem
len
rehana
jum
##ngha
chit
rupesh
##toshi
tir
##yaz
athokpam
yaj
##beer
##lima
lip
milan
ale
##sei
vimlesh
##awa
kin
chaura
##wi
con
mann
##ano
chitra
##udev
banu
shanta
surjit
hak
##shar
##uria
padma
wasim
##ow
##xmi
lalchhu
rav
rohta
##angla
virendra
##rani
konsam
##birth
shiva
ruch
##ushad
shree
dahiya
ahamad
##uan
##tem
##rak
anisha
meet
##thra
akram
god
##lien
parwati
##lani
ket
yogita
##pak
antonio
ful
kushwaha
khul
pali
kol
rap
rajen
##pui
##mit
##mangai
##phang
gy
heera
##wala
##eshw
farzana
por
reg
##sangma
ratna
manpreet
##siam
pati
##jana
##avi
tim
##by
##don
agrawal
chetry
subodh
ngangom
top
##ananda
rameshwar
##anaw
punam
##irem
rus
##pong
ngul
net
pravesh
##niaw
##elina
vidhya
abbas
kikon
parvesh
francisco
irom
dap
santi
bon
las
siddharth
##feli
saf
mahadev
dak
##t.
nima
dhru
mes
kanwar
mol
harvinder
dabas
##net
khursh
gai
##lekar
akoijam
ajeet
ju
##loi
ghanshyam
##pai
dilshad
raf
anant
bang
##eo
dho
##chit
yogender
sora
##ynri
##iton
##iren
##ugha
yim
##tani
lalawm
sug
robert
darjee
##amani
##usuf
lalfak
tongbram
##kala
##ukcham
##sun
abhay
met
kataria
pallavi
##ray
panday
vibha
bikash
tana
##suk
##upu
taba
ryng
jub
##shim
thung
##leen
##siama
anish
##ruddin
bhati
saty
##pung
soma
qur
shit
##ky
chandni
##eki
agn
##jad
pravin
##rong
pol
yal
##nyu
##naz
gha
hi
mati
tali
##luangi
##reja
bhatta
##rawat
##dhi
d'costa
nasreen
new
##ylliem
rathi
arp
##vung
monica
braj
dham
sari
##ullah
tayeng
##ynsong
juneja
##khon
yep
basant
prabhakar
kanha
rajbir
supriya
##rata
sadhna
vis
heik
##dur
##ko
##outhang
amarjit
##ten
kel
niranjan
dhiraj
asma
rajkumari
riba
puspa
prateek
tril
khumukcham
dawa
##lor
mumtaz
yengkhom
##akham
yashoda
anoop
##sekar
##tak
panchal
##ubi
##ekho
mura
##winder
##res
ramji
elizab
##ilatpam
chon
bareh
mahavir
##ria
##ungo
lin
passang
##phu
shu
chum
##ih
##ibala
##tso
pansa
bakshi
mona
ibomcha
murari
##avati
tandon
dimple
samir
diksha
##lein
ete
lucy
##cio
mathew
zub
rabi
raut
yar
##emo
mylliem
chouhan
rajwati
savi
yun
nut
##yarani
ranjita
archna
vanlalru
rok
##elu
##nya
##py
##hail
##roy
sanjiv
##inho
subash
qureshi
namita
aam
kis
yusuf
lall
choudh
narula
fatma
##onuo
pinto
laltan
kamini
jab
durgesh
den
##wah
##oris
shahnaz
rati
shekh
naushad
##ily
meetei
##stone
suna
jad
mukul
##tor
nitish
narg
##udas
##neikim
chugh
##ald
sheh
datta
##lis
##riem
kamb
lily
roo
##wana
daniel
akbar
qu
costa
anal
du
bem
bhawana
##kish
ind
##sim
##inu
##yntiew
cola
vung
padam
##ansha
##arora
##ashisha
##dawng
ramu
sabina
ranju
##asi
baljeet
esther
colaco
avi
##rujam
##ole
deori
##boklang
##borty
khi
trilok
shabong
ayush
mandeep
shilpi
musta
lalremruata
nana
elizabeth
lila
irakpam
mascar
syngkli
co
satbir
lap
haldar
bijay
##sham
nongrang
##kali
##inath
chatur
##chhungi
touthang
ojha
rubina
##ibor
##phniaw
yeptho
dhruv
##eenu
##indra
##marak
bhattachar
##anksha
harjeet
##rie
alex
zakir
bihari
shish
chandrakant
chingakham
abid
sut
mari
##enhas
devinder
lamba
##pen
yasmeen
sebas
kharbani
sehrawat
siang
##yaima
talang
sweet
lol
jasvinder
kay
kanojia
mascarenhas
##ashar
raza
##pao
dog
sir
leena
##zami
prer
bari
red
guddu
gambh
khyriem
##enuo
sonal
##uto
iawphniaw
chodankar
pyr
bhaskar
sunar
khumanthem
jamal
##ingstar
##umayum
tariang
waseem
##odar
##aib
mush
shailesh
kharum
saran
##ff
##singh
souza
navin
##zung
##ynrih
navneet
##ying
##chael
##awma
manik
w.
##oto
pintu
##num
luthra
dwiv
##mala
##ene
prachi
##jender
lima
##shem
##lakpam
fr
vohra
zhim
karuna
chandr
rose
##ishma
##malsaw
manglem
jak
pai
pot
kevi
##rai
##phy
hash
jib
santra
##ore
c.lal
arshad
vah
##anji
nongkynrih
poddar
baldev
jagan
temjen
chakraborty
umar
sultan
swap
omwati
swer
##imuddin
lh
vay
shakil
kanhaiya
##ipal
bom
zu
pyari
sp
jaspreet
##boh
rukhsana
bap
devki
parvez
abhinav
dwivedi
panmei
##und
taran
ibemcha
gonmei
pradip
maz
##ag
khund
pandurang
mha
dr
lum
##andar
rajeshwari
##charan
kashi
##e!
##khiew
##uda
rukmani
walia
salgaonkar
hum
lav
##aid
kakkar
neh
kot
rattan
##khu
phal
carval
nip
basnet
bedi
##ojit
uddin
anamika
radhe
jagat
nancy
chongloi
##vedi
haobi
shamshad
riyaz
##itri
##chanda
##anjit
##dekar
carvalho
sourabh
lalremruati
##pou
lalmu
haobijam
wangkhem
##day
##kat
##oria
ngur
##lhing
rebe
shakeel
aditi
zoh
##uki
pen
bimlesh
##minthang
apar
kaus
michael
himani
ruchika
yesh
shag
cardo
swaroop
##nuid
jol
lib
##mil
jim
nutan
deepanshu
##aniya
triv
haz
ling
##odia
##dhesh
##hor
##ustin
sono
##thiang
krit
##pokpam
##odin
tei
dogra
bora
##shon
##boi
balvinder
kerkar
##kai
dis
oli
anshul
tanya
##shiang
non
##neilhing
prag
dagar
hrang
##shit
##adha
martin
vaid
##akumar
lyn
ashraf
karishma
wangpan
samar
##thy
rob
poor
guru
leimapokpam
andre
bikram
##sat
##lot
pertin
fah
kunwar
##estar
farida
jem
shik
##shiar
sanjeet
mira
##sung
manchanda
baite
neena
hani
##rana
hun
ramwati
rupali
gudiya
wat
niraj
##reya
##leng
borkar
sanatombi
##joy
vel
##sah
##cao
##kang
sweety
manjit
##yrmang
xavi
smita
##tombi
gawade
kharumnuid
manu
joaqu
narinder
prerna
##obin
gok
sahi
##okpam
##gav
gog
pit
##bath
##akh
sind
hao
tik
##rah
amina
shaheen
xavier
mark
mahinder
shadab
prabhat
memma
aftab
##jinder
##ese
amandeep
bur
saurav
shamsh
mik
jayanti
saba
jacob
gop
git
lalhru
khundongbam
ranbir
shokeen
himanshi
lar
davinder
vasudev
bet
upender
lit
nilesh
barkha
##ithung
mub
sungoh
dayan
##rina
beng
##zia
surbhi
pamei
##mina
bhupinder
rahaman
rohtash
gi
likha
zahid
##riang
ralte
##zuk
rum
sema
##rema
vijender
randh
chaturvedi
##rit
##shing
kunti
gen
swami
##lik
##anbi
gourav
khat
siraj
tadar
##zauva
jin
phan
siangshai
##thar
##boob
##mol
sonar
rais
##nung
kud
##thari
khalid
##vah
ango
maisnam
bijender
##sil
irengbam
rip
nah
hina
##aja
kishori
tel
##akant
shubh
yasmin
##uv
pil
chira
thak
karki
vipul
mynsong
sayed
parvin
##nal
p.c.
purna
shakir
srivastav
##jot
muj
shat
kil
shem
rava
lallian
vashish
shyama
kshiar
##ottam
##iru
muni
moy
##prakash
##siya
##shisha
laloo
parmila
##rao
shreya
lalhlim
win
##wini
darshana
bhargav
akanksha
sadhana
vak
sabita
jaspal
sushant
##ella
mohamad
##athan
grace
sujit
jiten
##thara
kut
mei
bhavna
##dong
##kon
fil
##jai
ruh
chub
##arsh
##lina
vinayak
rajbala
nagma
dug
##jar
manmohan
##srang
##d.
sonowal
harijan
##sangbam
##hoto
##ist
nab
bimola
premwati
razia
pab
##wanath
bok
budh
##jon
achumi
##elie
##land
sarangthem
##anjay
##nghe
##sila
##ulo
##suan
doh
farha
kaul
rajak
hol
sumita
ngullie
anton
lor
sobha
##per
haque
##kupar
##bhar
ze
sharif
shahana
kewal
abhi
norbu
nargis
r.k.
megh
##jwal
gurdeep
##yekar
hor
akhil
##shil
naeem
##arkar
aparna
##dalin
surekha
bhagi
sati
##rati
##engi
mema
faizan
nep
##ein
##dir
lalduh
hmingthan
##las
mate
benjam
##ono
lalz
khup
as.
##ess
##ngain
##fo
##mong
##andi
kuam
khongsit
##key
##ilian
aziz
##ulie
##khaibam
parvinder
mossang
sav
gus
##ele
pariong
sukhbir
santa
##ppa
##stang
hasina
deen
##roz
varma
##iq
chetna
faisal
kharsati
nizam
nel
##s!
##lamu
##asha
bijoy
kapur
ngangbam
premila
chhote
yumkhaibam
gr
##ota
sanjit
wung
##nunga
chirag
thar
ship
bant
pratik
##macha
akansha
anupam
##bang
naobi
basar
mahato
pied
##vili
balram
lovel
modi
khanam
mhon
##wer
##neichong
sarab
##jao
diwan
gambhir
hid
##fta
zim
narvekar
tahir
##pur
naw
##epam
##zin
premlata
langstang
bes
##amon
##mini
##noh
##appa
jong
put
##wad
piedade
rihana
gangte
##rukh
lalmalsaw
bank
khati
##sian
khark
##jum
shashank
mulla
##via
yashpal
damodar
geetanjali
shrivastav
ly
sudar
##ilia
gurumayum
##hoo
cardozo
anis
ambika
##liam
adil
sharan
rajnish
chaurasia
vanlalhruai
yong
##rant
##zela
mahar
##bari
wank
yaima
bimal
bano.
acho
mohinder
nigam
##endri
haider
##vika
##spung
jawa
philip
##chhana
thingujam
samina
shetye
lucky
joao
bhak
nandini
johnson
mool
mondal
ibet
khushbu
saikhom
chu
maan
##ngen
mahima
saira
##gufta
babbar
lalduhaw
suhail
anandi
##harwal
lalrind
er
khura
shakila
heikrujam
anupama
seeta
tika
shahin
bharati
chameli
kukreja
ober
balwant
anguri
nai
lalhruait
janak
gajender
##bul
lalthang
usman
mehar
the
taw
dhananjay
##hlad
yay
##yad
sis
lala
namrata
perme
lamin
lbem
mahipal
sunaina
sundar
hmar
##cca
zosang
haobam
##hen
##oji
amom
##sab
##nang
lairen
chetri
##my
##ze
aug
##machhu
wak
ana
il
##irang
lobo
gah
##bis
kathuria
saluja
pon
##eeda
prabh
ding
##milla
ibecha
kalam
##hab
rahis
##anan
tra
sani
##mail
vikrant
sutnga
##enga
lob
datt
tarannum
sabharwal
banerjee
raghun
aamir
chawng
drema
sima
benjamin
nom
handa
tum
inao
khuraijam
wel
sashi
##phrang
##nah
pale
rohilla
afzal
##jel
parsekar
##lip
zimik
niv
sib
tanu
jayant
farh
##reto
##jesh
##shal
hamid
gola
shin
kev
shing
prashad
nazim
nup
ryngkh
dong
##upuii
oberoi
cl
anmol
##ilva
nongspung
##eren
naina
un
jyot
shahnawaz
ezung
res
yant
##utkar
##eenat
##kal
##anya
pyar
##awmi
had
rebello
##neng
##jina
shrivastava
##lia
sonika
##one
##endr
choudhury
nu
lalhmun
kulwant
##chel
harshit
##ego
vineeta
pagi
kritika
kipa
##ojen
diwakar
barreto
##rishna
shailendra
##himi
raikar
them
savio
sinam
##diki
##sap
##bat
prana
##hol
kabita
hassan
habib
##dang
sharad
rosy
siya
thangkhiew
pink]
##ie
rk
nita
basanta
sanahanbi
zodin
##akpam
##rey
shahrukh
nanao
harban
mend
##dim
##vo
syl
randhir
susheela
kawal
won
mok
gauns
##rishti
martha
sei
ragh
shrikant
roopa
baw
##lembam
gag
nanak
##wak
guite
gonsal
##abu
sev
bani
kalu
nazia
##daris
mercy
pf
rane
awomi
wand
##devi
dahal
kela
##umla
kris
ther
chab
saddam
wahid
##jin
parwar
satnam
sulo
ato
bipin
prahlad
##ruz
##thian
ryngkhlem
dewan
syiemiong
shakti
simon
##miki
bhutani
phad
rev
##shen
##au
anas
makri
gurudas
lis
khushi
##ikumar
dipti
achar
gh
govekar
braham
lawai
bati
singla
indr
rizwana
mung
lakra
##des
chishi
##elkar
mitra
nus
dari
conc
##iza
surong
kalang
mila
rashi
shagufta
rawal
z.
rathod
rosari
##udi
##the
hanif
dad
kast
tre
vansh
bed
gurvinder
##hlui
##malkar
##tim
##pyn
##sla
alem
pc.
##bil
agnelo
sangriang
ody
anush
##eeba
alisha
d'silva
sanjoy
hap
shush
hil
##ffar
kl
##okho
sitara
##inha
kedar
lalhmangai
jet
odyuo
gre
##anna
##onha
chen
dipak
##cor
partap
wangkh
ait
lalmuanpuii
##ao
lalan
##maya
gonsalves
##bhan
fal
pir
mohsin
nilam
##eimayum
ches
bul
mey
##ec
biswakarma
##chard
victor
sna
mahan
##nyei
##osh
##karam
yogendra
yunus
banwari
##bun
anik
##tieh
##dhari
hos
khonglah
daljeet
##neih
##fer
sukhvinder
sulekha
katyal
urang
dayanand
rafiq
gulam
jamil
##chhunga
bablo
sahid
##sula
##sey
rajo
##ithal
luis
rol
##anawma
noronha
mech
mumtaj
##khe
kanwal
yom
vijaya
bengia
##!i
shahida
joaquim
anchal
ati
##rim
jeevan
##shangbam
sop
binita
najma
##ery
##awar
chhaya
parashar
ama
hardeep
##akha
sabi
chyrmang
##bom
##jeng
bhum
tol
##ishan
harpal
neelu
##aia
vishwakarma
deo
feli
##ulla
nandi
kalangutkar
phe
miranda
kasim
##joh
gogo
##ubhai
chem
mirza
uppal
gab
lekh
punit
puj
manjhi
sudarshan
sujeet
bhujel
omkar
budha
inaobi
##shree
kunj
##orjit
mot
rebecca
ashwini
nun
##jem
##alam
lhou
jawahar
shaista
anir
harinder
urv
yumlembam
mash
##nat
ramakant
##dika
kurk
##tis
aheibam
##phrakpam
koijam
vanita
farheen
nakul
##heli
##ikanta
lalng
##jong
##yai
korgaonkar
ishrat
##ukho
##ubala
parsh
babul
marboh
kh.
##alima
nathu
pala
##wet
upendra
albert
shahzad
rafi
hok
anna
aay
##thoi
##otam
lha
ob
birendra
kashm
shimray
gusain
##dram
hom
##nish
chandani
##chira
nayyar
biren
tarh
brahm
bembem
##eeb
main
birender
singson
jh
kah
lalthlamu
##odi
##dos
##eu
richard
##yanger
tung
gopi
##ros
ala
ruth
bagra
alp
##thoh
##ezes
##menlang
ramchandra
harmeet
kurkalang
##neilam
myrthong
##anba
vilas
reng
vinit
arambam
rukhsar
afroz
andrew
khaw
##phlang
bush
sundari
imkong
avdhesh
##tari
##veira
kei
##ineng
saloni
ahong
map
jagmohan
mustak
ayub
harender
##gai
rameshwari
sankar
amin
menezes
harbans
lego
##umdar
##line
tanuja
##rahim
uz
alias
che
poud
reetu
majaw
premjit
sas
##ikam
naval
##reti
##dap
sabana
##anu
khus
##irom
##ckson
##moit
gogo!
firoj
gokul
##ishisha
##dri
cor
##til
basai
##bind
duggal
dib
gaunkar
tosh
##sina
gl
manjula
##omin
bandana
devidas
varsh
##alata
##thak
##tila
thambal
zai
singpho
sawh
##inla
##lait
##hlimi
##ansh
sura
##likar
nongbet
dig
pebam
##zeli
##eswari
##kholun
##upa
##too
lik
hafi
vithal
bagang
santana
mukherjee
brahma
gor
mek
ismail
##ramani
lovely
sarat
gulf
ramdin
bun
##ron
syr
angou
##chila
urvashi
lalding
##ukhi
arshi
bimol
faz
##ret
##fali
tep
##aiya
mithilesh
##dina
manuel
gajanan
##china
bachan
sawhney
lali
aribam
star
concei
yab
zor
##vanlal
run
tlang
##ane
lapasam
kausar
jiv
##awmoit
bhargava
##baijam
##adevi
sarfar
vishwanath
##nghaka
dhani
basaiawmoit
tanvi
boby
hong
jasmeet
##ankimi
nasima
raghunath
lab
##diang
charanjeet
abhilash
##muana
##wir
##angte
bham
##emba
mawrie
debnath
##khong
madha
kamar
ca
bei
zul
tandel
nawab
##olo
##utinho
##sor
dattar
hmangaih
mri
jom
mhal
ol
pham
suneeta
mohm
faroo
mid
##rajkar
rebika
chaudh
kyrshan
mugha
roshani
sanatomba
aib
##pishak
##khuma
pyare
mehtab
jatinder
##itang
kavi
ghai
ibrahim
##nani
hukam
lb
##jungla
kharp
sajida
budhi
jogender
pahwa
##amar
nain
romita
biam
zafar
##pher
##ngiang
ayesha
vasant
coutinho
lalk
##ekpam
leit
##asana
shipra
ev
nishad
bobby
ves
##apang
##nak
lalhmachhu
kasturi
chatter
guj
sob
e.
sten
##omena
raina
swu
mithun
paramjit
ngap
jamila
khomdram
lobsang
##inga
khera
##hunlang
yanthan
manorama
malngiang
##dik
thingbaijam
sadanand
##hoih
##unuo
marthong
laiton
shivangi
shagol
##akhi
##odhi
##pet
th.
ngai
sandip
wanti
vanlalruati
rosario
jenny
##minder
##vum
##hija
kos
##elia
chop
panna
kuamr
##awan
kangabam
laitonjam
samim
sahoo
lawm
lalawmpuia
adarsh
silva
kharsyntiew
mourya
os
puyam
lakshay
conceicao
dee
yambem
mali
aad
##nie
halder
helen
##dia
sok
tes
##edar
jagbir
awas
lapang
lalawmpuii
shib
malsaw
##yngdoh
zeenat
##umati
dhak
wor
##thungo
shamsher
##ube
lowang
khil
imam
nisa
rajrani
tinku
tukaram
lom
##juddin
gadekar
##neithem
kesar
hri
nongt
drop
##eshwor
moin
sukhdev
##changya
dok
shakya
tun
romen
srishti
rampal
satyawati
gal
##imo
nagina
rongmei
tenzin
kaj
lov
mahto.
##senla
marc
sapana
angoori
set
sunanda
gangsa
khonglam
sitaram
zohming
del
abhiman
##iang
sohshang
##ody
rongsen
aan
aid
##raham
mukta
rashida
tongchangya
kank
##ija
##chun
##ket
##ingson
shen
mangla
beer
kem
romesh
zarina
jolly
##edy
sarv
dhiman
gil
sayra
nisar
morajkar
longkum
##ghese
aniket
##sangpuii
pathan
linda
bhattacharjee
##ween
##ise
bilal
sikander
bl
sekh
khurshid
##pham
azhar
parmar
##rul
kharkrang
##iksha
kartar
khol
jig
tenzing
mustafa
##onso
##taj
##imei
bhadur
##sit
marg
##elin
pao
sakunt
solom
nuk
##wen
taruna
sars
darshna
phadte
toh
harmalkar
##manuel
misra
##ungshi
##iran
naman
santoshi
khosla
marwah
raghubir
##deit
ghadi
kharmu
afsar
##bui
##vil
kain
##gio
lhouvum
##tola
christina
shayam
bhupendra
malsawmdawng
barua
shong
rinchin
nasrin
jugal
##ahi
bishan
taku
##kap
satinder
monga
##born
kalpna
disha
gahlot
lalchhand
hoque
##mie
jiban
flor
##liang
passah
##sul
##arn
##ankima
tit
##oon
##aan
khraw
yeshwant
pre
sagolshem
nzan
or
hariom
chabungbam
tina
##tsna
pranav
anjani
##chhani
victo
kharl
##alal
lakpa
patton
boro
nash
vandna
bahl
kok
##ojini
##meren
tsuk
sebasti
##ikala
maninder
##ankumar
kharmaw
steph
##hok
##tarai
##nad
##nghaki
chingangbam
sanaja
krishnan
ramnath
sushmita
shahjahan
mahabir
harshita
jud
bach
lamkho
kushal
lalnunmawii
zhimo
sidhar
##zang
##eman
gulzar
##hlua
iban
##aksh
bijen
##ras
##manand
##ithang
##vito
pishak
##tiew
shashikant
##ishing
sudhan
gaba
bhai
##nyan
##lick
jasmin
khym
prasad.
sourav
gill
namg
inaocha
jash
naba
gum
##kanta
##khomang
abraham
longkumer
##lum
##emi
sabitri
snaitang
khymdeit
##wajit
gagandeep
##b.
##ining
nen
baghel
tayal
jyotsna
imrana
laimayum
##labh
##ehra
rohini
key
awasthi
samreen
et
tasl
sandesh
##iniang
anar
kri.
mangi
eng
aashish
uzma
shailender
vashisht
##meida
ragini
tokas
jamoh
pres
##moi
dharma
##inuo
ayushi
merry
shital
johny
phoolwati
saima
##abati
##imayum
fan
##endu
bee
##umat
mawthoh
sudama
janar
swarn
varshney
bos
##v.
##tado
aye
##adar
##for
jor
sulochana
romila
##m.
##eef
##lemla
##mung
zeba
nagender
muham
soram
lalmuanpuia
##rick
naim
dipika
jing
almeida
furtado
isra
ramdas
lalrinawma
kub
ansar
##wor
saik
khandu
varghese
avdesh
lalnunpuii
##ashree
sohkh
##uah
shay
aq
fo
##enbam
simmi
muz
laltanpuii
hage
##all
senti
pris
minu
ngun
khoirom
ngo
stephen
sip
##ulat
munish
lalchhuan
##kholal
bushra
nyam
zain
luxmi
##pau
bidya
##baz
roz
bose
nitika
sabnam
milag
bilash
zak
bagga
dina
##ure
sarda
sumati
##neihoi
buh
##eshwori
##heto
sahab
geetika
it
##ddha
gour
##mood
william
lalhlimpuii
gyam
huirem
trivedi
nob
vjender
##tong
maim
vishwas
tapan
##hro
lalpi
jil
lho
##-o
##adhar
azam
thuk
safi
kalyan
lakhi
rajneesh
shahi
satendra
nonglait
purush
##amba
haq
sanathoi
behl
chatterjee
shou
##ubair
mili
saz
huma
singha
madaan
parminder
kuj
nchum
##queira
##ilson
mayekar
tip
##dait
herojit
rek
shazia
nongdhar
pum
sala
nongth
##irembam
aish
hemam
##ilam
karna
tampha
vig
ritik
##tuh
bamania
##emjen
##wara
##lova
##banu
pooran
skhem
##adkar
aisha
thoiba
##imin
acharya
yani
alf
babloo
rakh
ahir
##lya
##may
##indar
sobita
kyndait
dayawati
lollen
##hn
sancha
juhi
##silla
##ril
##otra
##lawat
##chhing
shana
rafik
isa
parshad
yimchung
zom
bhattarai
golmei
##chita
malsawmtluanga
karim
##lua
angela
##ungel
kanhiya
bandekar
chingtham
shanu
mukhiya
naseema
takam
nya
santan
neema
rajaram
lalrinpuii
chait
shobh
##moni
naha
##zauvi
upadha
##etuo
harjinder
majid
mk
mehboob
israr
ush
##menla
##red
sarf
ningtho
melody
gaytri
wen
sony
kent
phurba
sarthak
nafisa
ricky
ikram
zing
##elho
nazir
##ikesh
##onica
farman
venkat
henry
prasan
dharamvir
zi
##ohi
gurjeet
nupur
##pad
nabi
rosal
nani
mishra.
pyrtuh
then
v.l.
aanchal
##ngap
gurcharan
dattaram
rh
##okla
riam
lalchhanhimi
rud
pachu
##krishna
##bel
neera
##amma
tut
jajo
##unty
mrs.
kansal
basu
karmakar
leitanthem
##ordor
khe
##illai
laltanpuia
sami
rabiya
sarabjeet
sapra
wangkheimayum
##inei
##alkar
lamu
mery
bhajan
patra
yama
##umya
baid
##itoli
dew
pathaw
lamkang
lamani
nos
nafis
jadhav
malem
ibemhal
rij
suchitra
manorma
doli
dalu
chandrawati
mohmmad
ass
chim
abu
##p.
thot
nagesh
##linda
##dhary
aneja
abrar
nayan
r.lal
tet
##une
devesh
yimchunger
h.lal
kumud
##ilhing
hemanta
netra
harbha
yasin
seram
chandrika
gora
mehak
lalsiam
##tsoe
if
##ongba
manmeet
girdhari
chinta
toko
abhimanyu
tania
mib
##0)
sardar
digam
cher
##ewang
ks
##ood
##vei
augustin
##ghan
domini
josh
fad
hop
km
##anshi
nongphu
(0)
##vas
aim
##hring
pro
humtsoe
##babu
lalzar
victoria
ner
joel
##lupuii
tyng
shul
mug
yami
kato
khriam
rajveer
yai
##fia
ahamed
##r.
pursh
nihar
pulkit
pushkar
rukmini
##ares
wilson
chowdh
##tang
resham
twin
zen
##kin
vanlalp
yag
sindhu
jaipal
##nungi
##chim
kais
shefali
chot
jonathan
sarswati
##minlen
nek
zir
devika
lalcha
##aliya
kekh
harsha
samson
kangjam
frank
yendr
kriti
nishu
suchita
yendrembam
sawk
##lih
id
##chem
deepu
haldankar
##poklakpam
##ohal
rosa
##bhalang
pushpender
##dew
##walia
amreen
brojen
##onu
madhav
maham
seb
mayur
ovung
##angmayum
nongtdu
sail
amjad
lalroh
##tesh
ashima
meren
satar
redkar
ibetombi
##shong
dem
##inde
kunda
lyngkho!
wankhar
##nes
##vis
lalngai
shetkar
ci
lohar
##numa
##itombi
premkumar
lalhruai
koli
sawkmie
bhawani
ruksar
##dana
jaha
bhik
sajjan
nalini
yur
##anath
asgar
yamin
pachuau
nauti
monte
jakir
op
##yant
##tabam
bunty
##nao
gera
bragan
langpoklakpam
rehan
##ariya
farhana
bindra
##illing
##jung
soph
hing
##khum
imli
nusrat
cam
nagvekar
col
##tngen
faiz
lalrindiki
shoaib
##iting
mawlieh
sharat
thukral
##vanshi
##arif
##hui
##bot
kashyap.
bol
##cent
dush
##ivas
##andha
balak
##sie
rohidas
ibocho
chaurasiya
gogia
rs
ngaih
haw
zorem
##som
lalp
het
##udhari
sareen
rahim
naved
pd.
harbhajan
##dup
##enu
##ate
tamanna
les
##kaikar
biri
kamaljeet
murry
##chui
dawar
toijam
kaw
smriti
vanlalruata
mara
kher
rocky
##uben
siam
mih
hamida
bist
solomon
moz
qamar
tasleem
##yong
chanam
##inai
##ire
kujur
##dai
satyam
vernekar
nautiyal
##tao
suvar
##bong
rambir
tejpal
arpit
sama
##dewsaw
basumat
kumkum
surat
sahay
##shah
##bri
##ence
badri
bhattacharya
##lom
##gra
girja
lid
##gong
adesh
##naior
tsu
##taf
arvinder
##tiao
rath
tanveer
laiphrakpam
nilo
mendes
kai
##rughan
ye
parbha
##ward
##khohao
kharbanda
##zom
##okumar
bino
sidharth
pillai
jagjeet
##oubam
julie
##shri
lalnunz
pratiksha
chanambam
synrem
margar
##oibam
mitna
##jani
filomena
rima
sequeira
prith
dhyani
harendra
arati
paliar
##khoneng
wi
umed
shaik
karm
inderjit
shetgaonkar
##akum
balraj
lalnunmawia
vashum
gav
##t|
munda
kuldip
##anawmi
ira
##ayat
sandh
##chik
keishing
##omei
ningthem
ayekpam
kadam
##chari
chungkham
yobin
suiam
##ngheta
bep
nagendra
tage
zubair
shoh
##lain
ganpat
kav
ranjeeta
attar
dalal
tripti
sarju
lalhriatpuii
##roj
pher
##pliang
##dak
sorojini
tajinder
carol
kharbuli
##hiraja
nongphud
sajan
somnath
banti
##rol
phung
mehro
##ikhon
##nemi
##lila
massey
sattar
monteiro
##resh
bair
paliwal
bara
##zovi
bea
furkan
kankonkar
ee
idr
##okar
premi
manav
##yll
nilima
##isam
makkar
nongthongbam
##usa
nonglang
kez
sep
##seh
##ulkar
sewak
##inta
##ahunlang
satyendra
mohar
kashinath
pani
##enkar
meraj
lalhmangaihzuali
tungo
##ovi
pras
noorjahan
ekka
##wis
##emsu
cheng
rout
daulat
kadir
##arson
socor
kalyani
paslein
francisca
##urkar
kanish
wair
sikka
ste
##chhua
nizamuddin
mawnai
lalruatfela
pavitra
aier
sarwan
ibohal
rha
mahale
dipali
ahan
malsawmtluangi
##voikar
pel
harka
ail
##roi
anirudh
dei
sameena
govinda
duk
##thangpuii
nishi
vasu
shangpliang
nahid
##malsawm
liv
mingma
##_lal
mukhi
bandodkar
lalnuntluangi
air
uni
##chak
bidyarani
sarin
##muani
tungoe
kulvinder
teena
khet
##sius
##ratta
swaran
bamang
##alis
rad
tamuk
##kholam
punita
kashung
hek
##irung
sumar
yapi
sahana
amonkar
agg
khalil
##konyak
yen
namdev
gadi
gulista
lotlikar
ori
lalneih
mukhtar
sartaj
haor
moses
arman
rukshana
##eima
diana
kasar
##aii
kithan
fadte
hoi
##anjoy
irungbam
kashish
somwati
chhavi
ioh
rabin
gosain
mange
mintu
jel
nandeibam
kambli
vashist
##cheng
abujam
seikho
##oyi
zee
budhiraja
caet
kharnaior
##vina
romi
laldinpuii
##tagi
peg
gajendra
##shngain
##ulung
keisam
diki
shehnaz
bren
##hluna
##khai
balwan
nes
tani
dileep
bhumika
pung
##shabam
nikha
##kle
robinson
gouri
kharm
zia
##ithan
sangma,
##gur
rosang
##diratta
nafees
kani
kuri
mini
##lhou
##thunglo
regina
suvarna
said
sudhakar
bhavya
nazreen
##thuami
lajwanti
nelson
subh
udit
##isi
viz
##urailatpam
saikia
afreen
dohling
tahira
mohmad
khongwir
borah
##zaw
abida
##thangmaw
pragya
gyamar
utkar
joram
shid
dashrath
raik
saeed
##ahid
medha
sharvan
farjana
horam
##uno
shafi
##abhai
lati
farhan
ibotombi
mig
cruz
##ungsang
beni
##zama
chote
pasi
##chamo
ml
ibungo
ramanand
lalmalsawma
##urong
##rence
pongen
vol
ashalata
tamin
kyntiew
gulfam
mallick
##rose
akil
##diar
##hlima
##hau
sym
liyak
bahun
sara
##edita
jop
##dula
suder
dod
##apati
fi
##enthung
lus
mathi
samad
##lemba
susan
mehrun
##atoli
junaid
nidh
raghuvir
aibor
ruma
##ute
lalrinmawii
bhoop
masih
onkar
jaggi
##o!
thon
mukund
##charimayum
jena
must
bey
jus
gulaf
akum
rachana
##warya
##uliu
##chungnunga
##sel
asad
tikha
##ishang
tanti
anubhav
pl
##chet
nepal
momina
##minlal
temsu
ujjwal
sebastiao
iram
##phoh
##ithson
priyo
yania
##khumi
##chano
versha
amresh
rabia
kana
##usha
##ithi
dominic
manita
##rama
aastha
pujari
##ome
bhagwat
romeo
nungsang
##minlun
ingocha
iar
imtiyaz
suhas
##kungi
pahuja
mamata
nandita
zhimomi
nagi
choden
gian
bira
ulhas
##etso
hanum
shubhangi
badal
tsh.
lalnuntluanga
shubha
agni
borang
chuk
tripta
##band
bhavana
##alie
awadh
##roh
zang
##ingstone
##khothang
palak
jagwati
chaudhry
nongp
farid
hc.
##k!
shabina
bong
##asa
murli
chirom
zeeshan
mannu
##abai
lakshman
rep
##shila
prak
##gun
##ohit
##andan
suleman
dhirender
behera
##tika
ongmu
##naro
pokh
zho
##umong
##thon
##naw
husan
farhat
apoor
lohia
##siem
kour
hansraj
rajeshwar
phrang
gracy
##ario
##aliu
joan
##vanti
morya
nikhat
altaf
aasma
##ngheti
pei
##lur
marina
maipak
##umani
parmanand
avadh
nalo
sarfaraz
chaobi
k.bani
malemng
karn
farooq
ae
##tai
hafiz
kripal
lalhruaitluanga
rhakho
wad
##sid
vishakha
shabbir
hung
bhuwan
kashif
##wo
graci
manglembi
gong
tor
teh
sheeba
sarah
nig
bamon
fl
riang
vakil
sudhanshu
riram
veronica
tamut
bebi
##wam
imchen
##kholen
##atha
shaf
ahlu
nadaf
yu
sanay
##oki
##ankim
bepari
##arak
baljit
nihal
lup
bimala
raji
ranvir
##vu
goutam
sanabam
salmani
kharmuti
rut
##angba
##thingla
hakim
##olata
##yangla
jagannath
dushyant
sandhyarani
makhija
jasmine
dalbir
muh
yamini
doungel
hangshing
lalngaih
girdhar
jahid
##kishan
taram
louk
sitlhou
vashis
koj
joshu
perpet
kung
##lad
##zala
##anliu
ratn
dolma
sophia
nida
##anam
##ime
kharjana
afonso
lawr
##wn
##endera
dup
lalrinchhana
hanuman
khon
nirup
k.lal
##wm
banar
sudan
bilashini
jhan
yor
ranu
##velu
##imang
##ukat
##full
wairokpam
##mongla
##ington
##ajan
rajiya
##idang
miah
shinde
##riel
pangambam
##watra
srin
tash
##chhan
madkaikar
ngant
modak
shash|
makdoh
##galkar
eb
ril
##uonuo
vr
##eilang
sumeet
lamurong
jamna
hemraj
##thuama
cris
##sud
##jyo
anwari
hidam
##amber
##tara
keshar
tikhak
##gya
##eria
binoy
preety
ann
das.
shangdiar
ria
seyi
##eez
love
doke
vincent
brajesh
##ajit
##iano
basumatary
ahluwalia
lhun
sundri
aa
miya
pdiang
##mello
##pila
asim
##ande
manocha
chand:
##chuba
##ght
niya
khattar
##inao
rudra
vanlalhruaia
ger
alla
##pin
neil
jarina
madhavi
vyas
##bia
chothe
bairwa
zou
sanchit
ahsan
##yllait
dir
##baw
popli
maina
lalzu
jeetu
##karma
devanand
urmil
nin
upasana
##eeksha
ibeyaima
lhung
##thianghlimi
anima
soug
lalrinmawia
nadim
islamuddin
naray
lalhmingmawii
kangujam
##enk
##karni
##isow
pok
luc
shani
kranti
pedro
sng
ngom
##nen
##arp
##ishe
##vad
shand
ng.
ps
kumar:
##ulen
##phal
alpana
shaz
aita
ms
##ac
##itun
##ette
##shailang
zaidi
##uf
##awat
##ifa
thakur,
singsit
##subam
bod
puk
##ken
mario
nawal
zahida
##tima
manar
tannu
indrawati
##tiya
##eline
##khogin
dharamveer
dhirendra
angu
biswajit
ahanthem
##hankar
palyekar
deva
ping
##alia
saraf
kallu
abdullah
joshua
##chai
mansoor
lind
lop
puwein
pragati
pheir
gurav
rajvir
##imal
yangfo
oren
dhargalkar
majhi
lanu
lalchhanhima
lalhriatpuia
ibocha
neik
prithvi
ili
kew
ahlawat
jagjit
zomuan
##railatpam
chesam
mibang
##mukh
##yana
prad
ashi
vimala
shelly
shantibala
khyllait
thin
kirpal
##phong
suryak
lalruatfeli
toppo
rustagi
dwar
##ser
manas
chavan
malang
##gankar
barik
tulsh
pou
moran
hazra
##vendra
##alo
amrik
bhakta
taki
ahirwar
kaur,
##ushan
##amla
sharwan
##ahal
paresh
##edo
ferrao
kshiti
mudgal
kari
##ikham
chandrakala
##ory
munjal
paonam
pundal
dr.
trehan
##h.
potsangbam
chip
##hawmi
purushottam
abi
phong
virmani
azim
pakma
##othy
##arihun
##shiing
biswa
firdo
vei
pret
sonkar
##lui
upreti
honey
meeta
samiksha
chowdhury
pyndap
chunni
lalven
##alaxmi
omvati
bindiya
khel
shradha
dini
##mak
laikh
angoubi
mize
##hawma
thingnam
aishwarya
sudershan
bawa
hyn
manna
firdos
awungshi
teresa
pundalik
##zak
##roop
shantaram
##wil
sash
yashwant
##ondon
khullar
bath
ep
kamli
gobind
rinky
apabi
siv
##hong
##ilya
vanram
divyan
##lawm
aab
jahang
cas
synnah
lipok
##yab
mall
##bisana
esh
davender
pavan
anand.
simr
niharika
lon
step
sl
##athang
##jaz
bishal
valen
blah
reenu
samant
##leima
raziya
kashmiri
##wale
##tone
mukhia
aarif
khari
munshi
jayesh
moyong
pc
nawaz
nongme
harun
sakina
lhungdim
raksha
##dhana
siddhan
harkesh
##tikar
shaha
khim
nimai
##ellakpam
##udha
parth
haseena
yashika
vaigankar
kamble
rung
zh
lalrintluanga
chowdhary
ichan
panj
kalia
lohe
lod
##olie
gat
##nil
lair
beti
##eya
##eson
sadiq
khiangte
##savi
stev
pabitra
azeem
majumdar
fak
stan
##irul
charles
vanshika
##chhuaha
phid
warbah
##ondekar
sree
ashma
lawrence
d'mello
shob
goma
##sica
subhadra
lallawmzuali
lalhmangaihi
tuli
##eld
ishan
##qi
gaffar
alim
bhagya
lalji
jitesh
##malki
parihar
##ikapam
lalnunpuia
##akshmi
kej
kharthangmaw
tame
toshi
king
kochhar
##mary
basnett
lalmalsawmi
iz
sushama
wangjam
umbah
##hluni
cather
lalpar
##luh
shahina
##yat
natung
tulshidas
cait
lah
##mera
##rap
deepmala
lalrinsangi
##eesa
charanjit
abhijit
##yrniang
tariq
kati
##istar
##vari
natasha
dawng
##vani
##borlin
lalrintluangi
abhilasha
gracias
eri
usham
##niew
twinkle
##hotri
sarvan
robindro
vanlalhruaii
thom
kalim
faheem
shatrughan
kaviekar
nganthoi
nongmeikapam
##est
abem
inak
beth
yaikhom
sagir
namgyal
pom
maq
##gui
##ger
##chhaw
aswal
jaw
madhukar
##faq
##dem
langs
bay
vek
yem
parween
krishn
vidhi
##sle
sahai
thyrniang
neel
##rud
##tir
##iben
##yanti
hanumant
avnish
yapa
suryakant
sheel
susheel
omprakash
amna
kharka
pramo
lbomcha
##its
##thia
vaishna
##raz
chyne
megu
nidh|
##tung
##hura
##hmingthanga
warepam
pakpi
ketan
bittu
dhakal
teli
thep
sandhu
maity
yaseen
happy
ais
kamil
amardeep
sakila
harjit
khardewsaw
ningshen
darnei
somi
ishita
rasid
bhagirath
lalduhawma
chhu
jerang
##irou
##shain
lawriniang
shor
##itin
taslim
zainab
uniyal
py
khad
jaswinder
kod
siram
throng
bindal
parshuram
tony
phaomei
augustine
##gir
##aso
antao
##riyal
agnihotri
langstieh
sodhi
##jat
sarb
sohkhlet
##vish
##sood
##vik
##ongjam
shafiq
shameem
lina
swa
##suddin
##non
silveira
##rathi
sejwal
tiew
##diyal
shravan
##askar
kene
pariat
gujral
lalduhawmi
shagolsem
##jom
##shawa
shesh
lalrinsanga
phoola
gawde
menino
nongkseh
##koi
jalal
kharmalki
##boti
sorang
##maram
sahib
##erson
##andra
jeb
waj
##muddin
##ashri
##pih
haroon
patwal
lut
mrin
zan
##kor
##pei
ravind
mans!
##vant
##zova
hare
kharshiing
soubam
deeksha
lallan
##imong
chandar
gollo
chera
##endup
shrey
shimla
indrani
##yed
##e-u
laximi
jagdeep
doming
anisa
yanger
satardekar
bhad
panda
susngi
jafar
siddhi
challam
heikham
##athy
braganza
will
##nongla
##bur
fanai
kaushlya
sk.
mustaq
miglani
siddhant
bela
somorjit
salauddin
mantu
soares
taro
zorin
lalring
lalhmachhuana
nyo
##sp
singal
taorem
jiya
##chuk
lalthlamuana
adnan
taluk
waz
ying
ani
mariam
lilawati
lalpian
nol
##bit
##wapang
lalrinawmi
begom
chanderwati
##idur
baran
mangesh
sanajaoba
##sara
##tovi
gao
mehrotra
##lon
##ithu
##etoli
dangshawa
soraisam
##jab
shain
##ilie
shriram
laikhuram
##khosei
##fak
##enba
aryan
fateh
syrti
devraj
merina
daph
lalhruaitluangi
buhphang
bista
pip
kabak
sanu
ngash
rongrin
kandpal
ningthoukh
##nonglait
##chho
pren
kochar
atmaram
sabra
lalchhuanawma
dra
##try
bera
pau
kosh
nungshit
arpita
clem
hr
ig
##von
##omo
##ibur
hynniew
dung
tav
##fiya
##khup
bewa
chhi
##xi
prod
shivaji
lalrinzuali
##buh
jiwan
rosem
##khat
##veli
jameel
limboo.
koir
##ilova
nic
arunkumar
ranee
tewari
phanj
cli
##amo
tarawati
mohanty
hasim
sikandar
utkarsh
mep
annie
ngain
yoginder
gomti
lajja
timung
khiam
nungshi
kabui
##topher
ashem
dhari
tarak
meghna
mashar
##fran
pynshngain
##venkar
##hoba
saro
banai
fool
nongpluh
##gang
naor
##utt
khongjoh
khoda
tayang
tasing
ia
kita
dhamija
##jilla
mano
ningthoukhongjam
mahaveer
nahakpam
##.konyak
ramvati
raham
sebastian
wet
rohming
sahdev
dimpal
dangmei
anees
tama
hynniewta
kanak
nishat
##mana
##bing
##irun
##kholhing
lokhi
jerry
brahmacharimayum
##kunga
##rel
angami
madhur
agar
##uthi
arushi
gosavi
alice
bijaya
tula
##jila
neelima
leelawati
moj
##sho
madhvi
jessica
dora
##risha
##asim
rajwanti
baruah
##mel
pron
mac
imn
phurailatpam
triveni
phanjoubam
##sik
sarki
thapli
swam
bajpai
doy
##khaw
##uklang
thoit
wangjen
nanhe
tulshi
##twal
dhana
halarn
khois
langrin
amu
kawaljeet
##narayan
##temjen
lairenjam
kanji
chawan
hoine
lek
deng
##vii
sangam
phar
rachel
##enta
massar
pegu
thup
supong
lairenlakpam
shohe
##echa
##gaokar
tekcham
##alson
gurba
bles
thej
zairem
lukram
masharing
kenei
khomdon
ks.
pheiroijam
lalu
##ogo
##mangaihi
##hovi
mangu
##tine
bhoj
vijendra
ramrati
chhan
shahab
vanlalchhu
gabriel
##bung
mawb
wangmu
veng
martina
mana
madina
birbal
riamei
sutar
premanand
##prasad
kharbuki
agnes
kharpran
##jabi
harminder
asg
kundu
baij
heig
sakuntala
chik
##ibu
tirkey
muhammad
thapliyal
aya
dum
sulak
jahangir
not
rei
##kir
##sir
##tsu
chaudhari
akhtari
deben
papi
assumi
nabak
##usana
azra
yuv
##dora
yame
##sala
sharon
malakar
lalnunsangi
loukrakpam
longchar
gulafsha
wari
##unha
subhas
sr.
lalrindika
##jet
rasa
##ohon
mobin
int
##phe
kharsah
rajbhar
alo
shakeela
sakir
prabhjot
##rila
##umita
kamra
biju
hashmi
ain
ret
tejas
tatung
jubeda
mylliemngap
swapna
kundaikar
koshal
lalrinchhani
naoroibam
kharsahnoh
taye
##cheal
saraswat
amos
##uso
phang
mewa
shres
sukla
yatin
lalfakzuala
ahongsangbam
boj
yi
zehra
shamurailatpam
##neineng
soraisham
kothari
oh
balmiki
laxm
panyang
zaheer
ac
chaya
mawiong
kumam
##temsu
shullai
ata
ratnesh
burman
hidangmayum
eas
##sali
##fina
caetano
akha
aysha
chandel
tanuj
susmita
mawblei
##ashish
jaf
ruhi
##iliana
sadhu
lalrinkimi
fahim
apur
vet
##ping
laldawng
jenni
kaf
sanjida
damber
khamba
##hmingthangi
##bey
##enjam
dhodi
##dayal
##nis
rich
bhuri
dhall
##lyas
senjam
nongsiang
volvoikar
lee
rachit
##neivah
neih
##dung
afroj
##akumari
praful
roshini
anushka
vs
janaki
kripa
kharsoh
gyadi
grik
jami
rej
keith
rush
haseen
binu
liyakat
##odu
hoshi
esha
mena
tub
##eeq
##eshori
sunibala
subhan
halarnkar
premchand
vanlalrem
purohit
kesang
wit
##amliu
shahbaz
nongbsap
louren
adit
##purna
jani
##lish
##inia
satvinder
zahir
ravina
##lyn
##dus
prob
lalchung
##rian
dhanpati
ranveer
swapan
shushila
tondon
##gat
rams
sumila
pundir
rish|
atom
minj
wash
wis
##alina
##ungba
##athe
neikho
##sola
sudip
phas
##wing
##naj
##kara
sada
gamlin
lalhmangaiha
##deen
##atar
chandam
sewa
aradhana
but
##adani
loidang
##yem
##now
iboyaima
bariya
##tok
##karan
shaw
ballabh
sc
vad
##ner
##sao
sahida
ronibala
biki
sanno
satyawan
##sher
raul
##ente
pynskhem
tangha
kongkham
choura
dilba
hazar
mangat
khongjee
menon
##rus
snehlata
gori
##oskar
rohtas
yes
##iba
maini
shammi
sek
##uang
##akho
tribhu
##zah
rajora
muktieh
joykumar
##enkaw
##siej
##teng
ravita
sunit
amarnath
tagru
wadha
andra
bijendra
khandep
pramodini
rn
##ius
rabina
ruthi
oliveira
naima
tur
sangey
dass.
akshat
meng
##uchi
rabon
sirajuddin
zaki
##onti
langshiang
miyan
nk
takar
khoisnam
boy
yanglem
gajraj
syngkon
##reng
surchandra
hnam
##arayan
makak
bav
debala
indrajit
f.lal
latika
martins
cal
##saki
##unii
gudia
ajoy
for
##ruata
biang
parmeshwari
chhet
julia
phijam
sympli
sta
##nok
wong
cec
##shikha
sudeep
shaila
angad
bhupesh
lalruatkima
##fu
##ingla
sardana
trish
taip
toni
##her
lalv
##ipu
rual
sadaf
bana
##ayi
nibha
bormon
##shankar
koyu
tatak
kago
##eiya
yepthomi
baria
sed
##yim
lalraw
kameshwar
##uty
satvir
phir
preetam
shantikumar
hukum
maharaj
nabachandra
srinivas
we
samal
myrchiang
hima
salima
ramandeep
##phina
dhram
sakil
thongram
lalruatkimi
janardan
##nik
##bad
abul
##sangba
##lok
##unath
rambha
naryan
aalam
ngah
akang
mitali
##anker
bhateri
chiru
dish
jhar
pash
##vino
tia
##tey
priyokumar
trup
keh
khek
gaya
nivedita
taipodia
ela
##eza
satyan
##eva
rubeena
atar
kena
alvi
paokho
lukhoi
##ningstar
##tula
##urlekar
tombisana
mata
##lura
suneel
r.marak
##lawma
christopher
binodini
felix
ghu
dep
amol
raheja
neeti
synshar
abhijeet
jung
##oe
##eesha
##bantabam
jeewan
##araj
shur
bhuv
lbemcha
hungyo
##atsai
ruok
heigrujam
tirath
kunk
guddo
##field
swarup
susila
##ame
pars
ranjna
dheer
kholi
tongpang
hangma
ds
halima
tos
##egas
madar
kharibam
hakhun
bhagirathi
##ous
rebelo
lym
##grakpam
banisha
bib
khongbantabam
meisnam
##khopao
##anjop
deshraj
shemphang
aayush
aaf
satarkar
lokam
daman
shougrakpam
margaret
rel
##yir
sangay
naocha
mehraj
baig
laltl
jok
##ho!
chaubey
khali
##rivast
dharambir
##ase
sange
riyas
##phun
buddha
khursheed
##oza
##soi
##ilan
robi
max
kale
##zaz
##jano
lur
##por
lalthlamuani
kw
shaj
basir
inacio
poornima
##kokpam
mao
vishv
remedi
ito
jik
kep
##shita
kaikho
kanan
chandravati
naziya
pura
paomin
jayanta
ullah
rapsang
lalchhandami
dzi
shon
anuja
lokho
nanu
yuvraj
boh
duli
jina
lalrinfela
mesh
jaish
paryekar
naoba
amod
##ankh
sohphoh
ahanbi
swat
vaj
##sii
##chhi
##eirakpam
##khonei
mangala
nikki
zonunmawii
poudyal
vaman
##hira
angel
nuz
ilyas
##cu
##taw
sukumar
shas
##sibon
aka
koush
nirupama
##dom
##wori
pinku
darang
achoubi
ss
hoikho
talib
yuk
##rita
shev
##irei
ngem
asmita
meri
aki
eh
##king
##tilang
##iding
viegas
daljit
ghim
kabir
bacha
laximan
umsong
alfred
isaac
nyan
##shei
suneja
##isana
abdur
bashir
pde
##arat
##umang
sanahal
baitha
mrinal
jennifer
##yile
lamphrang
israt
##berth
bhopal
ujwala
sugandha
aur
ranga
##qib
##boy
jasleen
mandak
dhiren
lalhmangaihzuala
yana
##vid
##use
nazmeen
prabhawati
##mery
shraddha
jabbar
usharani
##tling
##indo
vanlalhri
teron
khandeparkar
##jur
##chol
solo
with
lallung
kazi
neer
dube
ramkali
##chumi
akham
warlar
kharlukhi
prav
renubala
##gain
aasha
ladu
simranjeet
dud
birju
udai
memi
dnyan
##yom
kanai
##thianghlima
banga
ree
##neh
##atso
##ibeni
##abiang
ahongshangbam
hnamte
yari
andrade
##olia
juliana
nandu
thangkhan
vj
##jini
dharampal
myrboh
shee
##olish
moon
newme
lalchhandama
gren
nyak
##volu
##wash
suchen
marry
imt
banteilang
iak
janu
hosh
tapak
potshangbam
##jahat
taloh
##zani
ananda
wahi
matta
sila
##hama
warlarpih
##uth
##inii
sarif
mc
##tom
mora
mahi
imsong
##isao
joyti
nepram
pires
ashar
vishesh
tomer
kuki
com
##honi
##lovi
ingo
lay
surbala
alph
kalavati
wangdi
dropati
##thai
##ilochan
fay
##anchi
chek
premananda
gulnaz
lalchawi
gurbachan
##eliang
dharmesh
shashikala
chopdekar
hot
qad
manan
##huto
##ukhan
##usi
ahmed.
khushal
##illar
pohshna
kab
suha
pros
##amacha
##buatsai
padung
kyrsian
##suklang
##oya
##ckey
gichik
##mis
lalrammawia
perpetua
keng
##sida
##itlang
phunt
swapnil
tuteja
aggrawal
riv
##shed
minguel
##hung
##mira
adani
bogi
pushpendra
latif
io
##odha
kamran
##rez
leibak
shetty
zonunsangi
runa
##rawati
##haram
astha
kek
##renla
shanbor
bernar
reddy
##iar
ramchan
deepshikha
nij
parvej
gogoi
##kr
##kis
ever
kaz
shrimati
navita
##balin
ronghang
porwal
rasaily
lt.
my
##saka
##enson
sawal
sarungbam
kapoor,
lalnunsanga
##hil
saumya
sarmila
rupam
bung
monyu
jagpal
nangia
lalsangpuii
kugha
rahat
##uru
##yao
rahmat
sohail
##kiu
edward
vani
##ulal
jairam
chandro
hashim
sahad
##reingam
##lawmi
ronald
chiranji
yung
aneeta
bhuvan
vasanti
bhavesh
birmati
dipesh
vaishnavi
hin
chuba
##biya
##reia
daisy
riyazuddin
##toi
vinesh
pame
tatin
##chou
satyapal
brit
mongjam
tapas
rupinder
##choubi
radhesh
yengkokpam
shagun
can
ngal
shahni
lalhmachhuani
paj
sig
bajrang
kanojiya
metha
girija
##wng
manz
upadhayay
mane
abel
mairembam
zothanpuii
gug
haf
##ulikar
mahendri
vanlaldu
trupti
##sis
mahmood
##reila
vee
##osa
##onker
lalenkaw
sandeep.
rabindra
##ruati
rib
##chhuahi
##asenla
##oton
satwant
##jitha
darihun
##chha
##changbam
johar
lalnunsiami
lalfakawma
aimol
##kila
abung
ada
dhuri
nishtha
menka
shahnaj
milagrina
radham
razi
##iky
##omu
sohlang
shrik
nayar
pranita
idrish
ot
ryngk
##nisha
laishangbam
hansa
shobhit
##kung
kein
modh
ratnakar
swain
##ilong
yameen
domni
ridalin
##andhoni
quad
binda
ashif
madhubala
wadhawan
gid
##noor
kuljeet
reshmi
##chandani
kharmawphlang
##rilang
##cilla
mahboob
pande
phurpa
landhoni
roni
vind
shahu
setia
kulsum
ibad
##wali
nipun
indresh
venkatesh
pis
##aldo
ngas
damini
edwin
roji
baweja
fakir
##bali
naomi
arsh
salah
tsen
sakhi
lalnunthari
##sunep
heg
vito
wai
##arisa
##ithangi
vishwa
shamu
manihar
kevin
achal
##eha
aren
##awal
magan
chophy
vanlalhriat
sanya
khen
karun
khurshida
arpana
suja
taring
tig
sadik
taggu
surabhi
yaipha
vashisth
dema
balam
rema
sanjenbam
sisodia
alauddin
way
##sngi
deka
##otsu
papu
prabhavati
cle
kiranbala
gufran
zonunt
##hei
shera
ravish
farah
##nungsang
sophiya
klein
shyrmang
##iaw
##chombam
pyntngen
digambar
kekhri
sunila
kharsh
barret
sarojini
komarp
mathura
vep
chanana
samanta
travas
sylliang
sabiha
sira
##mir
premita
l.nonglait
sahiba
lalli
##yanand
##arisha
##lira
##abel
vardhan
husna
##hlupuii
coelho
alexander
mariyam
(q
##ojon
inam
shamima
jamini
pasri
leichombam
soren
shagolshem
ghat
##hant
banshan
eden
zeliang
simar
komarpant
lub
talom
semwal
lalremsanga
rautela
##holkar
asangla
##unep
##ely
suren
iml
dhon
avneet
kesho
kso
##pil
chhotu
zab
##pyari
##hato
##enti
##hie
vib
bibha
kushwah
bheem
tejinder
lalruatsanga
kuber
barretto
##imala
##thil
maruti
##utu
ikbal
##ges
##inna
dhama
##nati
##old
rinzing
bre
his
kra
##ituo
singhi
sangwan
##ete
bhawan
chandrash
loli
milli
thian
##nungla
##vijay
gobin
surendar
mait
##oubi
subham
cardos
lalhmingmawia
lalfam
##solu
##tilin
prab
amer
shrestha
##tur
narmad
##khochin
mangol
pasco
khumbong
manso
##bahadur
irene
tuls
kharbud
mandakini
##pon
sofia
binay
ronrang
lalthanpuii
lalkhaw
vab
vev
wali
sank
sarma
akshita
##patra
kwatra
##engmawii
dulal
##sharan
kanishka
amanpreet
durgawati
gama
##itson
lalri
malika
nazima
sayoo
##hlim
cardoso
kino
mm
nathi
sekho
manyu
##aida
monal
dharmvir
gyal
mithu
gyanti
hazarika
misao
kamni
sumant
tensubam
newmai
sanayaima
gres
##khen
lalhmingliana
sakuntla
ibochouba
bhi
pik
kalita
khushnuma
est
pritpal
pranay
augus
lalti
##ongam
khing
umang
trilochan
rizvi
kandolkar
joanita
niyaz
gup
muan
shangoi
##arius
niti
micheal
akshit
joaquina
catherine
khumbongmayum
dada
ami
adah
lalrinfeli
tao
dos
sekhar
thri
haresh
##ikara
maggo
tiken
yirang
shek
lalzam
##liba
ngair
correia
##sur
##hot
shariq
sera
##prit
lalramdin
nilu
pohlong
vanlalpeka
cand
dhanesh
ila
vina
##vender
##.k
##arrat
phin
##chok
goes
bilas
tado
kukreti
##huri
##peni
kros
##oma
##bru
##shin
##uskar
##neihat
##hlun
rafat
adi
tynsong
yudh
##p!
##akat
shahani
hangsing
godinho
gond
##ikpuii
sankh
khongwar
pathania
apoorva
rk.
##ilis
chandna
shivanand
pagui
hasin
tora
##oding
##orah
faruk
kivi
jham
taniya
jaideep
##yasa
jacinta
santo
amisha
##avan
subadani
##bhushan
hemabati
lallawmaw
toli
##tdong
##ayang
ramav
kaptan
phairembam
##ellina
anshika
(qo)
pratham
amal
pareek
jagriti
##t]
sawan
manitombi
lait
thapar
varak
raveena
##lep
vass
aasif
kharsohnoh
##sta
##sti
shakhi
parmeshwar
bijeta
babulal
wahida
makan
##kota
mazumdar
##ging
omi
sinai
sayyed
kynshi
jugli
magdal
##kishor
karap
seimin
##ewdor
kiy
lalthakimi
zuber
##alish
##eshe
##adia
mishri
gulia
jasvir
iqra
gyatso
teiborlang
##ibon
lalengmawii
dnyaneshwar
hanj
##ungan
momon
##untla
gangaram
noren
##ciana
kshitij
hub
vez
kamruddin
suma
ngath
##sungla
sarna
viraj
phun
##wez
dabholkar
yajum
rustam
lbe
##uly
abon
jot
tajo
##bet
##anjal
##roo
shahz
manda
kula
##umo
prashan
##elda
##ithanga
paol
vanlalruat
divakar
pintoo
mubarak
diniz
##ness
raisa
balwinder
farukh
deelip
lath
##mesh
lallu
mera
jamshed
eknath
tala
##qan
hardik
salo
varinder
malsawmkimi
daksh
purshotam
yug
##rung
ishu
mehan
pynshailang
vijeta
ngomdir
mimi
oe
##yub
parag
##chat
chiin
want
##ikhan
rahil
walling
nri
vekho
prakashi
bansi
##janeng
shimti
satyender
queen
sougrakpam
kup
##anding
carm
lohrii
jeff
manoranjan
shiksha
##hul
##n.
##wiliu
magh
##chiba
majik
lyngkhoi!
beniwal
bhima
shaukat
subramani
malsawma
ngairangbam
mariano
##ote
nada
katoch
foz
##uzo
##ert
ano
nungshitombi
##rivastva
mita
vishram
rinchen
well
arolkar
##udeen
moi
mous
alvar
balkrishna
lalhlimpuia
jeng
ananya
manral
##okba
rop
vibhu
gurdev
khor
loken
mendiratta
marsh
naran
lalhmu
inderpal
shridhar
tate
maimom
hep
yah
dhara
baraiya
umdor
mahak
radheshyam
aliya
phyr
firoza
##jahrin
thoithoi
##rm
##thana
##asangla
chewang
##kholet
lalrammawii
rasida
dohtdong
noh
##utso
##khohoi
rishikanta
roding
lalmuankimi
rilang
##buddin
shrama
ashiya
rahish
balaji
jaswal
lakhmi
bhom
diya
##ster
balo
taying
esper
##fully
thubru
aadil
##sak
##shom
##ilen
amber
barun
ado
##vitoli
##sime
israil
justin
##wadi
ramvir
sanoj
robita
sungjem
makakmayum
kamboj
mansoori
kuma
mh
padu
chhoti
khongsni
spar
shekha
##asing
dharmveer
aying
juyal
##uro
suan
navi
gitanjali
sabiya
mridula
##zy
##idhar
nieng
ishwari
chhangte
achom
##arath
ramo
manjun
vishw
luiza
taga
ayod
taslima
narayani
ojit
shanno
##yog
samp
shamina
umakant
bho!
takhelchangbam
mono
sanjita
thongbam
modhu
indubala
##vador
marsing
babubhai
jini
risha
##keshwar
##u.
shivram
lalrinpuia
romin
noori
##rishnan
putul
nomita
##john
khr
baleshwar
mehto.
mez
m.s.
puni
nurul
##zii
shom
##ivah
##bait
mallik
doley
kuwar
zodinpuii
dropadi
dui
##angliu
##eshor
mog
ahe
lalrinzuala
mansuri
lombi
neet
##umai
chul
simte
jangid
jyotsana
vengurlekar
chhetry
##dutt
rajib
##nguri
rahisa
all
mohamed
gem
##arlin
ameer
##ega
gaut
##langki
salvador
lakiang
memtombi
ngurthan
jimmy
khawl
hibu
##fat
##foo
prakesh
##ngbaw
nongneng
premvati
sagun
poudel
cheda
arm
##awii
satveer
chakravar
lopes
wo
##kom
##okali
chad
lalbiakdiki
##ketta
bipul
gana
##niungan
choubey
yamuna
##irenla
##luaia
qasim
manika
shantanu
banarsi
hes
vw
##thin
##ngan
lalhmingliani
siddique
baraily
malemnganba
alemla
lalrok
khongk
##wajeet
yamang
shuaib
get
##yer
##gopal
furqan
choudhry
chukhu
zal
parbati
muksor
gurmit
ngan
tsomu
iliyas
##grik
##imila
alom
luit
luwang
pukhri
##reiwon
kongbra
lalthleng
travasso
##lap
dhur
rc
syam
##ubam
ameena
afjal
motilal
##khongam
phen
lamabam
subedi
remruat
pakem
jivan
mridul
beauty
hori
##ambar
maner
naro
sot
priyanshu
panger
bakh
zonunsanga
hossain
##bhavi
satto
asraf
dipa
##upal
ashwin
sapan
gloria
yeshi
##hrii
##amuddin
punyo
namoijam
lir
nila
##chilo
sunwar
faiyaz
clara
purshottam
##erina
lalthu
shabir
##janti
##talin
chawang
domnic
##lee
##ilinda
anok
rajina
manvi
##utho
nampui
prity
purnimashi
yape
moyon
awadhesh
ngemu
##amang
sambhu
priyad
ibopishak
nangram
mansha
khag
patri
lalhlupuii
sawin
##vw
##ileima
chandu
harbir
kaling
papang
sayyad
aiborlang
##shwa
##adong
##chey
##ode
barbo
thiang
lallawmzuala
##desai
narmada
lith
lisham
##giri
##fang
ngup
##oriya
faraz
nazar
kiho
elias
##parani
kyrmen
manjunath
deepesh
thum
l.maw
navdeep
lalnghak
bijenti
##bih
sidh
##kaba
##liya
##ipi
##epcha
kulkarni
passi
chingngaih
joychandra
gambhini
tamphasana
raikwar
asgari
od
##jrang
##elal
sayara
ug
##dah
##akanta
##irani
broj
##angbi
arn
birma
pancha
tayenjam
julekha
tyngkan
bans
mitlesh
pancham
saksham
gulabi
nyodu
idris
ayodhya
wot
arang
gas
raym
pruthi
##otso
nazn
longri
olivia
##thlei
##hua
harleen
##uguna
muzam
tis
##athung
soumya
aga
rihan
kasana
chhikara
sirohi
lhu
sharaf
jackson
##wary
khare
firda
dahun
kitboklang
sobti
dhanraj
leon
##mongba
##jei
subita
talo
akhlesh
shitiri
jawed
tym
##tum
##angmai
saji
babi
makh
lalnunziri
##——
sanchita
khanal
kharwar
rink
philem
muhindro
hed
##ezo
singam
##tav
saida
sadana
simo
lalrempuii
menuka
dropti
keni
thaba
rig
##aineh
##olai
##choom
donboklang
verma.
sandra
bhanwar
athar
lien
sakharam
hoojon
khiamniungan
beenu
##nuk
sanket
kama
malati
##toshe
taranjeet
linggi
cecilia
dzies
##fooz
yasoda
cic
fri
##mah
##unak
##ch|
mohon
pooj
kundra
ishika
miss.
zothansanga
kashmir
hesh
noy
ashim
shyamal
licha
sanjib
full
greg
lindum
##tongbam
mahal
ngon
vidha
kenn
lalhmingthanga
##limboo
fred
keithellakpam
toraskar
teja
saqib
##alian
moha
binarani
malsawmkima
tonjam
gilbert
fam
rekh
jait
wangchu
afsha
##olian
antoneta
##mut
naq
bans!
ist
keshri
sazid
myn
##akor
kaut
sunday
nandani
harichandra
##itosh
baidya
lash
##bila
makhan
kordor
inakhun
jharna
pasricha
leng
anit
kamna
kalidas
laldinpuia
lalmuankima
beri
aara
takhelmayum
bahuguna
##tiang
sahar
kres
samita
feroz
vanlalth
badan
dhaka
##oluah
##steng
riyasat
ele
kupar
##nisa
lalta
##thmi
roque
abin
tarsem
nathan
josephine
aakriti
pascoal
reet
tati
##udu
gosp
##siar
hau
chamoli
maso
##hatgi
##lungliu
ahemad
##unu
chib
shaina
tagi
majida
pynshai
##mond
buj
chaddha
lachi
mawsor
riyajuddin
medo
wakil
dub
glor
##seen
##billa
banri
baljinder
##neiting
vasim
kerketta
##ando
parash
hardev
samom
bhei
tanish
ruhina
hera
mham
##aijam
shaiza
##ipa
tsop
jane
digamber
tyr
##sav
mehmood
birjesh
##chhingi
mallika
radhamani
hawa
hayat
mahend
ompal
sajina
zothansangi
##wmi
##alemla
sairem
ramveer
tami
taus
lalremsangi
sebastiana
toi
##yon
namchoom
##tluang
amrish
##chenpa
gani
cheri
##odiya
shahjad
hasna
parida
lallawmkima
achouba
o.
nicho
lalhun
bagum
##thui
eth
ramjan
parja
albin
##phul
##neja
libang
lourenco
tant
##adesh
suruchi
